{"version":"1.0","truncation":null,"padding":null,"added_tokens":[{"id":0,"special":true,"content":"<unk>","single_word":false,"lstrip":false,"rstrip":false,"normalized":false},{"id":1,"special":true,"content":"[CLS]","single_word":false,"lstrip":false,"rstrip":false,"normalized":false},{"id":2,"special":true,"content":"[SEP]","single_word":false,"lstrip":false,"rstrip":false,"normalized":false},{"id":3,"special":true,"content":"[PAD]","single_word":false,"lstrip":false,"rstrip":false,"normalized":false},{"id":4,"special":true,"content":"[MASK]","single_word":false,"lstrip":false,"rstrip":false,"normalized":false},{"id":5,"special":true,"content":"[TITLE]","single_word":false,"lstrip":false,"rstrip":false,"normalized":false},{"id":6,"special":true,"content":"[ARTICLE]","single_word":false,"lstrip":false,"rstrip":false,"normalized":false},{"id":7,"special":true,"content":"[REF]","single_word":false,"lstrip":false,"rstrip":false,"normalized":false},{"id":8,"special":true,"content":"[END]","single_word":false,"lstrip":false,"rstrip":false,"normalized":false},{"id":9,"special":true,"content":"<en>","single_word":false,"lstrip":false,"rstrip":false,"normalized":false},{"id":10,"special":true,"content":"<num>","single_word":false,"lstrip":false,"rstrip":false,"normalized":false},{"id":11,"special":true,"content":"<per0>","single_word":false,"lstrip":false,"rstrip":false,"normalized":false},{"id":12,"special":true,"content":"<per1>","single_word":false,"lstrip":false,"rstrip":false,"normalized":false},{"id":13,"special":true,"content":"<per2>","single_word":false,"lstrip":false,"rstrip":false,"normalized":false},{"id":14,"special":true,"content":"<per3>","single_word":false,"lstrip":false,"rstrip":false,"normalized":false},{"id":15,"special":true,"content":"<per4>","single_word":false,"lstrip":false,"rstrip":false,"normalized":false},{"id":16,"special":true,"content":"<per5>","single_word":false,"lstrip":false,"rstrip":false,"normalized":false},{"id":17,"special":true,"content":"<per6>","single_word":false,"lstrip":false,"rstrip":false,"normalized":false},{"id":18,"special":true,"content":"<per7>","single_word":false,"lstrip":false,"rstrip":false,"normalized":false},{"id":19,"special":true,"content":"<per8>","single_word":false,"lstrip":false,"rstrip":false,"normalized":false},{"id":20,"special":true,"content":"<per9>","single_word":false,"lstrip":false,"rstrip":false,"normalized":false},{"id":21,"special":true,"content":"<per10>","single_word":false,"lstrip":false,"rstrip":false,"normalized":false},{"id":22,"special":true,"content":"<per11>","single_word":false,"lstrip":false,"rstrip":false,"normalized":false},{"id":23,"special":true,"content":"<per12>","single_word":false,"lstrip":false,"rstrip":false,"normalized":false},{"id":24,"special":true,"content":"<per13>","single_word":false,"lstrip":false,"rstrip":false,"normalized":false},{"id":25,"special":true,"content":"<per14>","single_word":false,"lstrip":false,"rstrip":false,"normalized":false},{"id":26,"special":true,"content":"<per15>","single_word":false,"lstrip":false,"rstrip":false,"normalized":false},{"id":27,"special":true,"content":"<per16>","single_word":false,"lstrip":false,"rstrip":false,"normalized":false},{"id":28,"special":true,"content":"<per17>","single_word":false,"lstrip":false,"rstrip":false,"normalized":false},{"id":29,"special":true,"content":"<per18>","single_word":false,"lstrip":false,"rstrip":false,"normalized":false},{"id":30,"special":true,"content":"<per19>","single_word":false,"lstrip":false,"rstrip":false,"normalized":false},{"id":31,"special":true,"content":"<per20>","single_word":false,"lstrip":false,"rstrip":false,"normalized":false},{"id":32,"special":true,"content":"<per21>","single_word":false,"lstrip":false,"rstrip":false,"normalized":false},{"id":33,"special":true,"content":"<per22>","single_word":false,"lstrip":false,"rstrip":false,"normalized":false},{"id":34,"special":true,"content":"<per23>","single_word":false,"lstrip":false,"rstrip":false,"normalized":false},{"id":35,"special":true,"content":"<per24>","single_word":false,"lstrip":false,"rstrip":false,"normalized":false},{"id":36,"special":true,"content":"<per25>","single_word":false,"lstrip":false,"rstrip":false,"normalized":false},{"id":37,"special":true,"content":"<per26>","single_word":false,"lstrip":false,"rstrip":false,"normalized":false},{"id":38,"special":true,"content":"<per27>","single_word":false,"lstrip":false,"rstrip":false,"normalized":false},{"id":39,"special":true,"content":"<per28>","single_word":false,"lstrip":false,"rstrip":false,"normalized":false},{"id":40,"special":true,"content":"<per29>","single_word":false,"lstrip":false,"rstrip":false,"normalized":false},{"id":41,"special":true,"content":"<org0>","single_word":false,"lstrip":false,"rstrip":false,"normalized":false},{"id":42,"special":true,"content":"<org1>","single_word":false,"lstrip":false,"rstrip":false,"normalized":false},{"id":43,"special":true,"content":"<org2>","single_word":false,"lstrip":false,"rstrip":false,"normalized":false},{"id":44,"special":true,"content":"<org3>","single_word":false,"lstrip":false,"rstrip":false,"normalized":false},{"id":45,"special":true,"content":"<org4>","single_word":false,"lstrip":false,"rstrip":false,"normalized":false},{"id":46,"special":true,"content":"<org5>","single_word":false,"lstrip":false,"rstrip":false,"normalized":false},{"id":47,"special":true,"content":"<org6>","single_word":false,"lstrip":false,"rstrip":false,"normalized":false},{"id":48,"special":true,"content":"<org7>","single_word":false,"lstrip":false,"rstrip":false,"normalized":false},{"id":49,"special":true,"content":"<org8>","single_word":false,"lstrip":false,"rstrip":false,"normalized":false},{"id":50,"special":true,"content":"<org9>","single_word":false,"lstrip":false,"rstrip":false,"normalized":false},{"id":51,"special":true,"content":"<org10>","single_word":false,"lstrip":false,"rstrip":false,"normalized":false},{"id":52,"special":true,"content":"<org11>","single_word":false,"lstrip":false,"rstrip":false,"normalized":false},{"id":53,"special":true,"content":"<org12>","single_word":false,"lstrip":false,"rstrip":false,"normalized":false},{"id":54,"special":true,"content":"<org13>","single_word":false,"lstrip":false,"rstrip":false,"normalized":false},{"id":55,"special":true,"content":"<org14>","single_word":false,"lstrip":false,"rstrip":false,"normalized":false},{"id":56,"special":true,"content":"<org15>","single_word":false,"lstrip":false,"rstrip":false,"normalized":false},{"id":57,"special":true,"content":"<org16>","single_word":false,"lstrip":false,"rstrip":false,"normalized":false},{"id":58,"special":true,"content":"<org17>","single_word":false,"lstrip":false,"rstrip":false,"normalized":false},{"id":59,"special":true,"content":"<org18>","single_word":false,"lstrip":false,"rstrip":false,"normalized":false},{"id":60,"special":true,"content":"<org19>","single_word":false,"lstrip":false,"rstrip":false,"normalized":false},{"id":61,"special":true,"content":"<org20>","single_word":false,"lstrip":false,"rstrip":false,"normalized":false},{"id":62,"special":true,"content":"<org21>","single_word":false,"lstrip":false,"rstrip":false,"normalized":false},{"id":63,"special":true,"content":"<org22>","single_word":false,"lstrip":false,"rstrip":false,"normalized":false},{"id":64,"special":true,"content":"<org23>","single_word":false,"lstrip":false,"rstrip":false,"normalized":false},{"id":65,"special":true,"content":"<org24>","single_word":false,"lstrip":false,"rstrip":false,"normalized":false},{"id":66,"special":true,"content":"<org25>","single_word":false,"lstrip":false,"rstrip":false,"normalized":false},{"id":67,"special":true,"content":"<org26>","single_word":false,"lstrip":false,"rstrip":false,"normalized":false},{"id":68,"special":true,"content":"<org27>","single_word":false,"lstrip":false,"rstrip":false,"normalized":false},{"id":69,"special":true,"content":"<org28>","single_word":false,"lstrip":false,"rstrip":false,"normalized":false},{"id":70,"special":true,"content":"<org29>","single_word":false,"lstrip":false,"rstrip":false,"normalized":false},{"id":71,"special":true,"content":"<loc0>","single_word":false,"lstrip":false,"rstrip":false,"normalized":false},{"id":72,"special":true,"content":"<loc1>","single_word":false,"lstrip":false,"rstrip":false,"normalized":false},{"id":73,"special":true,"content":"<loc2>","single_word":false,"lstrip":false,"rstrip":false,"normalized":false},{"id":74,"special":true,"content":"<loc3>","single_word":false,"lstrip":false,"rstrip":false,"normalized":false},{"id":75,"special":true,"content":"<loc4>","single_word":false,"lstrip":false,"rstrip":false,"normalized":false},{"id":76,"special":true,"content":"<loc5>","single_word":false,"lstrip":false,"rstrip":false,"normalized":false},{"id":77,"special":true,"content":"<loc6>","single_word":false,"lstrip":false,"rstrip":false,"normalized":false},{"id":78,"special":true,"content":"<loc7>","single_word":false,"lstrip":false,"rstrip":false,"normalized":false},{"id":79,"special":true,"content":"<loc8>","single_word":false,"lstrip":false,"rstrip":false,"normalized":false},{"id":80,"special":true,"content":"<loc9>","single_word":false,"lstrip":false,"rstrip":false,"normalized":false},{"id":81,"special":true,"content":"<loc10>","single_word":false,"lstrip":false,"rstrip":false,"normalized":false},{"id":82,"special":true,"content":"<loc11>","single_word":false,"lstrip":false,"rstrip":false,"normalized":false},{"id":83,"special":true,"content":"<loc12>","single_word":false,"lstrip":false,"rstrip":false,"normalized":false},{"id":84,"special":true,"content":"<loc13>","single_word":false,"lstrip":false,"rstrip":false,"normalized":false},{"id":85,"special":true,"content":"<loc14>","single_word":false,"lstrip":false,"rstrip":false,"normalized":false},{"id":86,"special":true,"content":"<loc15>","single_word":false,"lstrip":false,"rstrip":false,"normalized":false},{"id":87,"special":true,"content":"<loc16>","single_word":false,"lstrip":false,"rstrip":false,"normalized":false},{"id":88,"special":true,"content":"<loc17>","single_word":false,"lstrip":false,"rstrip":false,"normalized":false},{"id":89,"special":true,"content":"<loc18>","single_word":false,"lstrip":false,"rstrip":false,"normalized":false},{"id":90,"special":true,"content":"<loc19>","single_word":false,"lstrip":false,"rstrip":false,"normalized":false},{"id":91,"special":true,"content":"<loc20>","single_word":false,"lstrip":false,"rstrip":false,"normalized":false},{"id":92,"special":true,"content":"<loc21>","single_word":false,"lstrip":false,"rstrip":false,"normalized":false},{"id":93,"special":true,"content":"<loc22>","single_word":false,"lstrip":false,"rstrip":false,"normalized":false},{"id":94,"special":true,"content":"<loc23>","single_word":false,"lstrip":false,"rstrip":false,"normalized":false},{"id":95,"special":true,"content":"<loc24>","single_word":false,"lstrip":false,"rstrip":false,"normalized":false},{"id":96,"special":true,"content":"<loc25>","single_word":false,"lstrip":false,"rstrip":false,"normalized":false},{"id":97,"special":true,"content":"<loc26>","single_word":false,"lstrip":false,"rstrip":false,"normalized":false},{"id":98,"special":true,"content":"<loc27>","single_word":false,"lstrip":false,"rstrip":false,"normalized":false},{"id":99,"special":true,"content":"<loc28>","single_word":false,"lstrip":false,"rstrip":false,"normalized":false},{"id":100,"special":true,"content":"<loc29>","single_word":false,"lstrip":false,"rstrip":false,"normalized":false}],"normalizer":{"type":"NFKC"},"pre_tokenizer":{"type":"Whitespace"},"post_processor":{"type":"TemplateProcessing","single":[{"SpecialToken":{"id":"[TITLE]","type_id":0}},{"Sequence":{"id":"A","type_id":0}},{"SpecialToken":{"id":"[END]","type_id":0}}],"pair":[{"SpecialToken":{"id":"[TITLE]","type_id":0}},{"Sequence":{"id":"A","type_id":0}},{"SpecialToken":{"id":"[ARTICLE]","type_id":0}},{"Sequence":{"id":"B","type_id":0}},{"SpecialToken":{"id":"[END]","type_id":0}}],"special_tokens":{"[ARTICLE]":{"id":"[ARTICLE]","ids":[6],"tokens":["[ARTICLE]"]},"[END]":{"id":"[END]","ids":[8],"tokens":["[END]"]},"[TITLE]":{"id":"[TITLE]","ids":[5],"tokens":["[TITLE]"]}}},"decoder":null,"model":{"type":"BPE","dropout":null,"unk_token":null,"continuing_subword_prefix":null,"end_of_word_suffix":null,"fuse_unk":false,"vocab":{"<unk>":0,"[CLS]":1,"[SEP]":2,"[PAD]":3,"[MASK]":4,"[TITLE]":5,"[ARTICLE]":6,"[REF]":7,"[END]":8,"<en>":9,"<num>":10,"<per0>":11,"<per1>":12,"<per2>":13,"<per3>":14,"<per4>":15,"<per5>":16,"<per6>":17,"<per7>":18,"<per8>":19,"<per9>":20,"<per10>":21,"<per11>":22,"<per12>":23,"<per13>":24,"<per14>":25,"<per15>":26,"<per16>":27,"<per17>":28,"<per18>":29,"<per19>":30,"<per20>":31,"<per21>":32,"<per22>":33,"<per23>":34,"<per24>":35,"<per25>":36,"<per26>":37,"<per27>":38,"<per28>":39,"<per29>":40,"<org0>":41,"<org1>":42,"<org2>":43,"<org3>":44,"<org4>":45,"<org5>":46,"<org6>":47,"<org7>":48,"<org8>":49,"<org9>":50,"<org10>":51,"<org11>":52,"<org12>":53,"<org13>":54,"<org14>":55,"<org15>":56,"<org16>":57,"<org17>":58,"<org18>":59,"<org19>":60,"<org20>":61,"<org21>":62,"<org22>":63,"<org23>":64,"<org24>":65,"<org25>":66,"<org26>":67,"<org27>":68,"<org28>":69,"<org29>":70,"<loc0>":71,"<loc1>":72,"<loc2>":73,"<loc3>":74,"<loc4>":75,"<loc5>":76,"<loc6>":77,"<loc7>":78,"<loc8>":79,"<loc9>":80,"<loc10>":81,"<loc11>":82,"<loc12>":83,"<loc13>":84,"<loc14>":85,"<loc15>":86,"<loc16>":87,"<loc17>":88,"<loc18>":89,"<loc19>":90,"<loc20>":91,"<loc21>":92,"<loc22>":93,"<loc23>":94,"<loc24>":95,"<loc25>":96,"<loc26>":97,"<loc27>":98,"<loc28>":99,"<loc29>":100,"!":101,"+":102,",":103,"-":104,".":105,"/":106,"0":107,"1":108,"2":109,"3":110,"4":111,"5":112,"6":113,"7":114,"8":115,"9":116,":":117,"<":118,">":119,"?":120,"c":121,"e":122,"g":123,"k":124,"l":125,"m":126,"n":127,"o":128,"p":129,"r":130,"u":131,"~":132,"、":133,"。":134,"《":135,"》":136,"「":137,"」":138,"㑹":139,"㚈":140,"㡳":141,"㸆":142,"㺭":143,"䈢":144,"䜓":145,"䠷":146,"䦕":147,"䧟":148,"一":149,"丁":150,"七":151,"万":152,"丈":153,"三":154,"上":155,"下":156,"不":157,"与":158,"丐":159,"丑":160,"且":161,"丕":162,"世":163,"丘":164,"丙":165,"丞":166,"丟":167,"並":168,"个":169,"丫":170,"中":171,"丰":172,"串":173,"丶":174,"丸":175,"丹":176,"为":177,"主":178,"丼":179,"丽":180,"丿":181,"乀":182,"乃":183,"久":184,"么":185,"之":186,"乍":187,"乎":188,"乏":189,"乒":190,"乓":191,"乖":192,"乘":193,"乙":194,"九":195,"乞":196,"也":197,"乩":198,"乱":199,"乳":200,"乾":201,"亀":202,"亂":203,"了":204,"予":205,"争":206,"事":207,"二":208,"于":209,"云":210,"互":211,"五":212,"井":213,"亙":214,"些":215,"亜":216,"亞":217,"亟":218,"亡":219,"亢":220,"交":221,"亥":222,"亦":223,"亨":224,"享":225,"京":226,"亭":227,"亮":228,"亳":229,"人":230,"亿":231,"什":232,"仁":233,"仃":234,"仄":235,"仆":236,"仇":237,"今":238,"介":239,"仍":240,"仔":241,"仕":242,"他":243,"仗":244,"付":245,"仙":246,"仛":247,"仟":248,"代":249,"令":250,"以":251,"仨":252,"们":253,"仮":254,"仰":255,"仲":256,"件":257,"任":258,"份":259,"仿":260,"企":261,"伉":262,"伊":263,"伍":264,"伎":265,"伏":266,"伐":267,"休":268,"伕":269,"众":270,"优":271,"伙":272,"会":273,"伝":274,"伯":275,"估":276,"伴":277,"伶":278,"伸":279,"伺":280,"似":281,"伽":282,"佃":283,"但":284,"佇":285,"佈":286,"位":287,"低":288,"住":289,"佐":290,"佑":291,"体":292,"佔":293,"何":294,"余":295,"佚":296,"佛":297,"作":298,"佝":299,"佞":300,"你":301,"佣":302,"佩":303,"佬":304,"佯":305,"佰":306,"佳":307,"併":308,"佺":309,"佻":310,"佼":311,"使":312,"侁":313,"侃":314,"侄":315,"來":316,"侈":317,"例":318,"侍":319,"侏":320,"侔":321,"侖":322,"侗":323,"供":324,"依":325,"価":326,"侮":327,"侯":328,"侵":329,"侶":330,"侷":331,"便":332,"係":333,"促":334,"俄":335,"俊":336,"俎":337,"俏":338,"俐":339,"俑":340,"俗":341,"俘":342,"俚":343,"保":344,"俞":345,"俟":346,"俠":347,"信":348,"俢":349,"俬":350,"修":351,"俯":352,"俱":353,"俳":354,"俸":355,"俺":356,"俾":357,"倆":358,"倉":359,"個":360,"倌":361,"倍":362,"倏":363,"們":364,"倒":365,"倔":366,"倖":367,"倘":368,"候":369,"倚":370,"倜":371,"借":372,"倡":373,"倢":374,"倣":375,"値":376,"倥":377,"倦":378,"倨":379,"倩":380,"倪":381,"倫":382,"倬":383,"倭":384,"值":385,"偃":386,"假":387,"偉":388,"偌":389,"偎":390,"偏":391,"偕":392,"做":393,"停":394,"健":395,"側":396,"偵":397,"偶":398,"偷":399,"偽":400,"傀":401,"傅":402,"傍":403,"傑":404,"傘":405,"備":406,"傚":407,"傢":408,"傣":409,"催":410,"傭":411,"傯":412,"傲":413,"傳":414,"債":415,"傷":416,"傻":417,"傾":418,"僂":419,"僅":420,"働":421,"像":422,"僑":423,"僕":424,"僖":425,"僚":426,"僞":427,"僥":428,"僧":429,"僭":430,"僮":431,"僱":432,"僵":433,"價":434,"僻":435,"儀":436,"儂":437,"億":438,"儆":439,"儈":440,"儉":441,"儍":442,"儐":443,"儒":444,"儕":445,"儘":446,"償":447,"儡":448,"優":449,"儲":450,"儷":451,"儸":452,"儻":453,"儼":454,"儿":455,"兀":456,"允":457,"元":458,"兄":459,"充":460,"兆":461,"兇":462,"先":463,"光":464,"克":465,"兌":466,"免":467,"兑":468,"兒":469,"兔":470,"兜":471,"兢":472,"入":473,"內":474,"全":475,"兩":476,"八":477,"公":478,"六":479,"兮":480,"共":481,"关":482,"兵":483,"其":484,"具":485,"典":486,"兹":487,"兼":488,"冀":489,"内":490,"円":491,"冉":492,"冊":493,"再":494,"冏":495,"冒":496,"冕":497,"冗":498,"冠":499,"冤":500,"冥":501,"冪":502,"冬":503,"冰":504,"冲":505,"决":506,"冴":507,"况":508,"冶":509,"冷":510,"冸":511,"冽":512,"净":513,"凃":514,"凄":515,"准":516,"凇":517,"凈":518,"凉":519,"凋":520,"凌":521,"凍":522,"减":523,"凖":524,"凛":525,"凜":526,"凝":527,"凟":528,"几":529,"凡":530,"処":531,"凪":532,"凰":533,"凱":534,"凳":535,"凶":536,"凸":537,"凹":538,"出":539,"函":540,"刀":541,"刁":542,"刃":543,"分":544,"切":545,"刈":546,"刊":547,"刋":548,"刎":549,"刑":550,"划":551,"列":552,"则":553,"初":554,"判":555,"別":556,"刦":557,"刧":558,"刨":559,"利":560,"刪":561,"别":562,"刮":563,"到":564,"制":565,"刷":566,"券":567,"刹":568,"刺":569,"刻":570,"剁":571,"剃":572,"則":573,"剉":574,"削":575,"剋":576,"剌":577,"前":578,"剎":579,"剔":580,"剖":581,"剛":582,"剜":583,"剝":584,"剩":585,"剪":586,"剮":587,"副":588,"割":589,"剴":590,"創":591,"剷":592,"剽":593,"剿":594,"劃":595,"劇":596,"劈":597,"劉":598,"劊":599,"劍":600,"劑":601,"力":602,"功":603,"加":604,"劣":605,"动":606,"助":607,"努":608,"劫":609,"励":610,"劵":611,"効":612,"劾":613,"势":614,"勁":615,"勃":616,"勅":617,"勇":618,"勉":619,"勐":620,"勒":621,"動":622,"勘":623,"務":624,"勛":625,"勝":626,"勞":627,"募":628,"勢":629,"勤":630,"勳":631,"勵":632,"勸":633,"勺":634,"勻":635,"勾":636,"勿":637,"包":638,"匆":639,"匈":640,"匍":641,"匏":642,"匐":643,"匕":644,"化":645,"北":646,"匙":647,"匝":648,"匠":649,"匡":650,"匣":651,"匪":652,"匭":653,"匯":654,"匱":655,"匹":656,"区":657,"医":658,"匾":659,"匿":660,"區":661,"十":662,"千":663,"卅":664,"升":665,"午":666,"卉":667,"半":668,"卍":669,"卐":670,"卑":671,"卒":672,"卓":673,"協":674,"南":675,"博":676,"卜":677,"占":678,"卡":679,"卦":680,"卧":681,"卯":682,"印":683,"危":684,"即":685,"却":686,"卵":687,"卷":688,"卸":689,"卹":690,"卻":691,"卿":692,"厄":693,"厘":694,"厚":695,"厝":696,"原":697,"厠":698,"厡":699,"厥":700,"厭":701,"厲":702,"去":703,"参":704,"參":705,"又":706,"叉":707,"及":708,"友":709,"双":710,"反":711,"发":712,"叔":713,"取":714,"受":715,"变":716,"叙":717,"叛":718,"叟":719,"叠":720,"叡":721,"叢":722,"口":723,"古":724,"句":725,"另":726,"叧":727,"叨":728,"叩":729,"只":730,"叫":731,"召":732,"叭":733,"叮":734,"可":735,"台":736,"叱":737,"史":738,"右":739,"叵":740,"号":741,"司":742,"叻":743,"叼":744,"吁":745,"吃":746,"各":747,"吆":748,"合":749,"吉":750,"吊":751,"吋":752,"同":753,"名":754,"后":755,"吏":756,"吐":757,"向":758,"吒":759,"吔":760,"吖":761,"君":762,"吝":763,"吞":764,"吟":765,"吠":766,"否":767,"吧":768,"吩":769,"含":770,"吭":771,"吮":772,"吱":773,"吳":774,"吵":775,"吶":776,"吸":777,"吹":778,"吻":779,"吼":780,"吽":781,"吾":782,"吿":783,"呀":784,"呂":785,"呃":786,"呆":787,"呈":788,"告":789,"呎":790,"呐":791,"呑":792,"呢":793,"呦":794,"周":795,"呱":796,"呲":797,"味":798,"呵":799,"呷":800,"呸":801,"呻":802,"呼":803,"命":804,"咀":805,"咁":806,"咂":807,"咄":808,"咆":809,"咋":810,"和":811,"咎":812,"咐":813,"咒":814,"咔":815,"咕":816,"咖":817,"咘":818,"咚":819,"咤":820,"咦":821,"咧":822,"咨":823,"咩":824,"咪":825,"咫":826,"咬":827,"咭":828,"咯":829,"咱":830,"咲":831,"咳":832,"咸":833,"咻":834,"咽":835,"咾":836,"咿":837,"哀":838,"品":839,"哄":840,"哆":841,"哇":842,"哈":843,"哉":844,"哋":845,"哎":846,"哏":847,"哖":848,"哞":849,"員":850,"哥":851,"哦":852,"哧":853,"哨":854,"哩":855,"哪":856,"哭":857,"哮":858,"哲":859,"哺":860,"哼":861,"哽":862,"唁":863,"唄":864,"唆":865,"唇":866,"唉":867,"唎":868,"唏":869,"唐":870,"唔":871,"唧":872,"唬":873,"售":874,"唯":875,"唰":876,"唱":877,"唳":878,"唵":879,"唷":880,"唸":881,"唾":882,"啃":883,"啄":884,"商":885,"啊":886,"問":887,"啐":888,"啓":889,"啕":890,"啖":891,"啜":892,"啞":893,"啟":894,"啡":895,"啤":896,"啥":897,"啦":898,"啨":899,"啪":900,"啫":901,"啵":902,"啷":903,"啻":904,"啼":905,"啾":906,"喀":907,"喂":908,"喃":909,"善":910,"喇":911,"喉":912,"喊":913,"喋":914,"喔":915,"喘":916,"喙":917,"喚":918,"喜":919,"喝":920,"喧":921,"喨":922,"喪":923,"喫":924,"喬":925,"單":926,"喰":927,"喲":928,"喳":929,"喵":930,"営":931,"喻":932,"嗄":933,"嗅":934,"嗆":935,"嗇":936,"嗎":937,"嗑":938,"嗓":939,"嗔":940,"嗙":941,"嗚":942,"嗜":943,"嗝":944,"嗞":945,"嗟":946,"嗡":947,"嗣":948,"嗤":949,"嗦":950,"嗨":951,"嗩":952,"嗪":953,"嗯":954,"嗲":955,"嗶":956,"嗷":957,"嗽":958,"嘀":959,"嘆":960,"嘈":961,"嘉":962,"嘍":963,"嘎":964,"嘔":965,"嘖":966,"嘗":967,"嘛":968,"嘜":969,"嘞":970,"嘟":971,"嘢":972,"嘣":973,"嘩":974,"嘭":975,"嘮":976,"嘯":977,"嘰":978,"嘲":979,"嘴":980,"嘶":981,"嘸":982,"嘹":983,"嘻":984,"嘿":985,"噁":986,"噌":987,"噍":988,"噎":989,"噓":990,"噗":991,"噘":992,"噜":993,"噠":994,"噢":995,"噤":996,"噥":997,"器":998,"噩":999,"噪":1000,"噬":1001,"噱":1002,"噴":1003,"噶":1004,"噸":1005,"噹":1006,"噻":1007,"嚀":1008,"嚇":1009,"嚎":1010,"嚏":1011,"嚐":1012,"嚕":1013,"嚟":1014,"嚥":1015,"嚨":1016,"嚮":1017,"嚴":1018,"嚷":1019,"嚼":1020,"囀":1021,"囂":1022,"囃":1023,"囈":1024,"囉":1025,"囊":1026,"囍":1027,"囑":1028,"囓":1029,"囔":1030,"囗":1031,"囚":1032,"四":1033,"囝":1034,"回":1035,"因":1036,"囡":1037,"囤":1038,"囧":1039,"囪":1040,"囫":1041,"囯":1042,"困":1043,"図":1044,"囹":1045,"固":1046,"国":1047,"囿":1048,"圃":1049,"圄":1050,"圆":1051,"圇":1052,"圈":1053,"國":1054,"圍":1055,"圏":1056,"園":1057,"圓":1058,"圖":1059,"團":1060,"圜":1061,"土":1062,"在":1063,"圩":1064,"圭":1065,"圮":1066,"地":1067,"圳":1068,"圴":1069,"场":1070,"圾":1071,"址":1072,"坂":1073,"均":1074,"坊":1075,"坍":1076,"坎":1077,"坏":1078,"坐":1079,"坑":1080,"坔":1081,"坚":1082,"坡":1083,"坣":1084,"坤":1085,"坦":1086,"坨":1087,"坪":1088,"坯":1089,"坳":1090,"坵":1091,"坷":1092,"垂":1093,"垃":1094,"型":1095,"垠":1096,"垢":1097,"垣":1098,"垮":1099,"垵":1100,"垻":1101,"埂":1102,"埃":1103,"埆":1104,"埈":1105,"埋":1106,"埌":1107,"城":1108,"埔":1109,"埕":1110,"埗":1111,"域":1112,"埠":1113,"埡":1114,"埤":1115,"埨":1116,"執":1117,"埸":1118,"培":1119,"基":1120,"埻":1121,"埼":1122,"埽":1123,"堀":1124,"堂":1125,"堃":1126,"堅":1127,"堆":1128,"堇":1129,"堉":1130,"堊":1131,"堡":1132,"堤":1133,"堪":1134,"堯":1135,"堰":1136,"報":1137,"場":1138,"堵":1139,"堺":1140,"塀":1141,"塊":1142,"塋":1143,"塌":1144,"塏":1145,"塑":1146,"塔":1147,"塗":1148,"塘":1149,"塚":1150,"塜":1151,"塞":1152,"塢":1153,"塩":1154,"填":1155,"塭":1156,"塱":1157,"塲":1158,"塵":1159,"塹":1160,"塾":1161,"境":1162,"墅":1163,"墉":1164,"墊":1165,"墓":1166,"増":1167,"墘":1168,"墜":1169,"增":1170,"墟":1171,"墨":1172,"墩":1173,"墬":1174,"墮":1175,"墳":1176,"墾":1177,"壁":1178,"壅":1179,"壇":1180,"壑":1181,"壓":1182,"壕":1183,"壘":1184,"壞":1185,"壟":1186,"壠":1187,"壢":1188,"壤":1189,"壩":1190,"士":1191,"壬":1192,"壯":1193,"声":1194,"壹":1195,"壺":1196,"壽":1197,"处":1198,"夏":1199,"夕":1200,"外":1201,"夙":1202,"多":1203,"夜":1204,"夠":1205,"夢":1206,"夥":1207,"大":1208,"天":1209,"太":1210,"夫":1211,"夭":1212,"央":1213,"夯":1214,"失":1215,"夷":1216,"夾":1217,"奄":1218,"奇":1219,"奈":1220,"奉":1221,"奎":1222,"奏":1223,"奐":1224,"契":1225,"奔":1226,"奕":1227,"套":1228,"奘":1229,"奚":1230,"奠":1231,"奢":1232,"奥":1233,"奧":1234,"奨":1235,"奪":1236,"奬":1237,"奭":1238,"奮":1239,"女":1240,"奴":1241,"奶":1242,"奸":1243,"她":1244,"好":1245,"妁":1246,"如":1247,"妃":1248,"妄":1249,"妊":1250,"妍":1251,"妏":1252,"妒":1253,"妓":1254,"妖":1255,"妙":1256,"妝":1257,"妞":1258,"妣":1259,"妤":1260,"妥":1261,"妨":1262,"妮":1263,"妲":1264,"妳":1265,"妹":1266,"妺":1267,"妻":1268,"妾":1269,"姆":1270,"姊":1271,"始":1272,"姍":1273,"姐":1274,"姑":1275,"姓":1276,"委":1277,"姙":1278,"姚":1279,"姜":1280,"姝":1281,"姣":1282,"姥":1283,"姦":1284,"姨":1285,"姪":1286,"姬":1287,"姵":1288,"姸":1289,"姻":1290,"姿":1291,"威":1292,"娃":1293,"娉":1294,"娑":1295,"娓":1296,"娘":1297,"娛":1298,"娜":1299,"娟":1300,"娠":1301,"娣":1302,"娥":1303,"娩":1304,"娱":1305,"娶":1306,"娼":1307,"婀":1308,"婁":1309,"婆":1310,"婉":1311,"婊":1312,"婕":1313,"婚":1314,"婢":1315,"婦":1316,"婧":1317,"婪":1318,"婭":1319,"婷":1320,"婿":1321,"媃":1322,"媒":1323,"媗":1324,"媚":1325,"媛":1326,"媜":1327,"媧":1328,"媬":1329,"媲":1330,"媳":1331,"媽":1332,"媾":1333,"嫁":1334,"嫂":1335,"嫉":1336,"嫋":1337,"嫌":1338,"嫑":1339,"嫖":1340,"嫚":1341,"嫡":1342,"嫣":1343,"嫦":1344,"嫩":1345,"嫰":1346,"嫲":1347,"嫵":1348,"嫻":1349,"嬈":1350,"嬉":1351,"嬌":1352,"嬗":1353,"嬛":1354,"嬢":1355,"嬤":1356,"嬪":1357,"嬰":1358,"嬴":1359,"嬷":1360,"嬸":1361,"嬿":1362,"孀":1363,"孃":1364,"孅":1365,"子":1366,"孑":1367,"孓":1368,"孔":1369,"孕":1370,"字":1371,"存":1372,"孚":1373,"孜":1374,"孝":1375,"孟":1376,"孢":1377,"季":1378,"孤":1379,"学":1380,"孩":1381,"孫":1382,"孬":1383,"孰":1384,"孱":1385,"孳":1386,"孵":1387,"學":1388,"孺":1389,"孽":1390,"孿":1391,"它":1392,"宅":1393,"宇":1394,"守":1395,"安":1396,"宋":1397,"完":1398,"宏":1399,"宕":1400,"宗":1401,"官":1402,"宙":1403,"定":1404,"宛":1405,"宜":1406,"宝":1407,"実":1408,"客":1409,"宣":1410,"室":1411,"宥":1412,"宫":1413,"宮":1414,"宰":1415,"害":1416,"宴":1417,"宵":1418,"家":1419,"宸":1420,"容":1421,"宿":1422,"寂":1423,"寃":1424,"寄":1425,"寅":1426,"密":1427,"寇":1428,"富":1429,"寐":1430,"寒":1431,"寓":1432,"寛":1433,"寜":1434,"寞":1435,"察":1436,"寡":1437,"寢":1438,"寥":1439,"實":1440,"寧":1441,"寨":1442,"審":1443,"寫":1444,"寬":1445,"寮":1446,"寰":1447,"寳":1448,"寵":1449,"寶":1450,"寸":1451,"对":1452,"寺":1453,"寿":1454,"封":1455,"射":1456,"将":1457,"將":1458,"專":1459,"尉":1460,"尊":1461,"尋":1462,"對":1463,"導":1464,"小":1465,"少":1466,"尖":1467,"尚":1468,"尞":1469,"尢":1470,"尤":1471,"尪":1472,"尫":1473,"尬":1474,"就":1475,"尶":1476,"尷":1477,"尹":1478,"尺":1479,"尻":1480,"尼":1481,"尾":1482,"尿":1483,"局":1484,"屁":1485,"居":1486,"屆":1487,"屈":1488,"届":1489,"屋":1490,"屌":1491,"屍":1492,"屎":1493,"屏":1494,"屐":1495,"屑":1496,"展":1497,"屙":1498,"屜":1499,"屠":1500,"屢":1501,"層":1502,"履":1503,"屬":1504,"屭":1505,"屯":1506,"山":1507,"屹":1508,"岀":1509,"岌":1510,"岐":1511,"岑":1512,"岔":1513,"岡":1514,"岩":1515,"岫":1516,"岬":1517,"岭":1518,"岱":1519,"岳":1520,"岸":1521,"峇":1522,"峋":1523,"峒":1524,"峙":1525,"峠":1526,"峨":1527,"峪":1528,"峭":1529,"峮":1530,"峯":1531,"峰":1532,"峴":1533,"島":1534,"峻":1535,"峽":1536,"崁":1537,"崇":1538,"崎":1539,"崐":1540,"崑":1541,"崔":1542,"崖":1543,"崗":1544,"崙":1545,"崛":1546,"崢":1547,"崩":1548,"崴":1549,"崽":1550,"嵂":1551,"嵋":1552,"嵌":1553,"嵐":1554,"嵙":1555,"嵩":1556,"嵬":1557,"嶂":1558,"嶄":1559,"嶇":1560,"嶋":1561,"嶌":1562,"嶗":1563,"嶙":1564,"嶸":1565,"嶺":1566,"嶼":1567,"嶽":1568,"巄":1569,"巒":1570,"巔":1571,"巖":1572,"川":1573,"州":1574,"巡":1575,"巢":1576,"巣":1577,"工":1578,"左":1579,"巧":1580,"巨":1581,"巫":1582,"差":1583,"己":1584,"已":1585,"巳":1586,"巴":1587,"巷":1588,"巻":1589,"巽":1590,"巾":1591,"巿":1592,"帀":1593,"市":1594,"布":1595,"帄":1596,"帆":1597,"希":1598,"帑":1599,"帕":1600,"帖":1601,"帘":1602,"帚":1603,"帛":1604,"帝":1605,"帥":1606,"带":1607,"師":1608,"席":1609,"帮":1610,"帯":1611,"帰":1612,"帳":1613,"帶":1614,"帷":1615,"常":1616,"帽":1617,"幀":1618,"幃":1619,"幄":1620,"幅":1621,"幌":1622,"幔":1623,"幕":1624,"幗":1625,"幟":1626,"幡":1627,"幢":1628,"幣":1629,"幤":1630,"幫":1631,"干":1632,"平":1633,"年":1634,"并":1635,"幸":1636,"幹":1637,"幻":1638,"幼":1639,"幽":1640,"幾":1641,"広":1642,"庄":1643,"庇":1644,"床":1645,"序":1646,"应":1647,"底":1648,"庖":1649,"店":1650,"庚":1651,"府":1652,"度":1653,"座":1654,"庫":1655,"庭":1656,"庲":1657,"庵":1658,"庶":1659,"康":1660,"庸":1661,"庾":1662,"廁":1663,"廂":1664,"廄":1665,"廈":1666,"廉":1667,"廊":1668,"廋":1669,"廍":1670,"廓":1671,"廔":1672,"廖":1673,"廚":1674,"廛":1675,"廝":1676,"廟":1677,"廠":1678,"廡":1679,"廢":1680,"廣":1681,"廬":1682,"廰":1683,"廳":1684,"延":1685,"廷":1686,"建":1687,"廻":1688,"廿":1689,"弁":1690,"弄":1691,"弈":1692,"弊":1693,"弋":1694,"式":1695,"弑":1696,"弒":1697,"弓":1698,"弔":1699,"引":1700,"弗":1701,"弘":1702,"弛":1703,"弟":1704,"弥":1705,"弦":1706,"弧":1707,"弩":1708,"弭":1709,"弱":1710,"張":1711,"強":1712,"强":1713,"弾":1714,"彅":1715,"彆":1716,"彈":1717,"彌":1718,"彎":1719,"当":1720,"彗":1721,"彘":1722,"彙":1723,"彛":1724,"彜":1725,"彞":1726,"彡":1727,"形":1728,"彤":1729,"彥":1730,"彦":1731,"彩":1732,"彪":1733,"彫":1734,"彬":1735,"彭":1736,"彰":1737,"影":1738,"彷":1739,"役":1740,"彼":1741,"彿":1742,"往":1743,"征":1744,"待":1745,"徇":1746,"很":1747,"徉":1748,"徊":1749,"律":1750,"後":1751,"徐":1752,"徑":1753,"徒":1754,"得":1755,"徘":1756,"徙":1757,"徜":1758,"從":1759,"徠":1760,"御":1761,"徨":1762,"復":1763,"循":1764,"徬":1765,"微":1766,"徳":1767,"徴":1768,"徵":1769,"德":1770,"徹":1771,"徽":1772,"心":1773,"必":1774,"忌":1775,"忍":1776,"忐":1777,"忑":1778,"志":1779,"忘":1780,"忙":1781,"応":1782,"忞":1783,"忠":1784,"忡":1785,"忤":1786,"忪":1787,"快":1788,"忱":1789,"念":1790,"忸":1791,"忻":1792,"忽":1793,"忿":1794,"怎":1795,"怒":1796,"怕":1797,"怖":1798,"怜":1799,"思":1800,"怠":1801,"怡":1802,"急":1803,"怦":1804,"性":1805,"怨":1806,"怪":1807,"怯":1808,"怵":1809,"恁":1810,"恃":1811,"恆":1812,"恊":1813,"恋":1814,"恍":1815,"恐":1816,"恒":1817,"恕":1818,"恙":1819,"恢":1820,"恣":1821,"恤":1822,"恥":1823,"恨":1824,"恩":1825,"恪":1826,"恫":1827,"恬":1828,"恭":1829,"息":1830,"恰":1831,"恵":1832,"恿":1833,"悄":1834,"悅":1835,"悉":1836,"悌":1837,"悍":1838,"悒":1839,"悔":1840,"悖":1841,"悚":1842,"悛":1843,"悟":1844,"悠":1845,"患":1846,"悦":1847,"您":1848,"悪":1849,"悲":1850,"悴":1851,"悵":1852,"悶":1853,"悸":1854,"悻":1855,"悼":1856,"悽":1857,"情":1858,"惆":1859,"惋":1860,"惑":1861,"惕":1862,"惘":1863,"惚":1864,"惜":1865,"惟":1866,"惠":1867,"惡":1868,"惦":1869,"惰":1870,"惱":1871,"想":1872,"惴":1873,"惶":1874,"惹":1875,"惺":1876,"惻":1877,"愁":1878,"愈":1879,"愉":1880,"愎":1881,"意":1882,"愕":1883,"愚":1884,"愛":1885,"愜":1886,"感":1887,"愣":1888,"愧":1889,"愫":1890,"愰":1891,"愴":1892,"愷":1893,"愾":1894,"愿":1895,"慄":1896,"慈":1897,"態":1898,"慌":1899,"慍":1900,"慎":1901,"慓":1902,"慕":1903,"慘":1904,"慚":1905,"慟":1906,"慢":1907,"慣":1908,"慤":1909,"慧":1910,"慨":1911,"慫":1912,"慮":1913,"慰":1914,"慲":1915,"慳":1916,"慵":1917,"慶":1918,"慷":1919,"慾":1920,"憂":1921,"憇":1922,"憊":1923,"憋":1924,"憎":1925,"憐":1926,"憑":1927,"憔":1928,"憚":1929,"憤":1930,"憧":1931,"憨":1932,"憩":1933,"憫":1934,"憬":1935,"憲":1936,"憶":1937,"憾":1938,"懂":1939,"懇":1940,"懈":1941,"應":1942,"懊":1943,"懋":1944,"懌":1945,"懐":1946,"懝":1947,"懞":1948,"懟":1949,"懦":1950,"懨":1951,"懲":1952,"懵":1953,"懶":1954,"懷":1955,"懸":1956,"懺":1957,"懼":1958,"懾":1959,"懿":1960,"戀":1961,"戈":1962,"戊":1963,"戌":1964,"戍":1965,"戎":1966,"成":1967,"我":1968,"戒":1969,"戕":1970,"或":1971,"戚":1972,"戛":1973,"戟":1974,"戦":1975,"截":1976,"戮":1977,"戰":1978,"戲":1979,"戳":1980,"戴":1981,"戶":1982,"户":1983,"戸":1984,"戻":1985,"戾":1986,"房":1987,"所":1988,"扁":1989,"扇":1990,"扈":1991,"扉":1992,"手":1993,"才":1994,"扎":1995,"扑":1996,"扒":1997,"打":1998,"扔":1999,"托":2000,"扙":2001,"扛":2002,"扣":2003,"扭":2004,"扮":2005,"扯":2006,"扰":2007,"扳":2008,"扶":2009,"批":2010,"扺":2011,"扼":2012,"找":2013,"承":2014,"技":2015,"抄":2016,"抉":2017,"把":2018,"抑":2019,"抒":2020,"抓":2021,"抔":2022,"投":2023,"抖":2024,"抗":2025,"折":2026,"抜":2027,"抝":2028,"択":2029,"报":2030,"抨":2031,"披":2032,"抬":2033,"抯":2034,"抱":2035,"抵":2036,"抹":2037,"抺":2038,"押":2039,"抽":2040,"抿":2041,"拂":2042,"拄":2043,"拆":2044,"拇":2045,"拈":2046,"拉":2047,"拋":2048,"拌":2049,"拍":2050,"拎":2051,"拐":2052,"拒":2053,"拓":2054,"拔":2055,"拖":2056,"拗":2057,"拘":2058,"拙":2059,"拚":2060,"招":2061,"拜":2062,"括":2063,"拭":2064,"拮":2065,"拯":2066,"拱":2067,"拳":2068,"拴":2069,"拷":2070,"拼":2071,"拽":2072,"拾":2073,"拿":2074,"持":2075,"指":2076,"挈":2077,"按":2078,"挊":2079,"挑":2080,"挖":2081,"挨":2082,"挪":2083,"挫":2084,"振":2085,"挹":2086,"挺":2087,"挼":2088,"挽":2089,"挾":2090,"捂":2091,"捅":2092,"捆":2093,"捉":2094,"捋":2095,"捌":2096,"捍":2097,"捎":2098,"捏":2099,"捐":2100,"捕":2101,"捜":2102,"捧":2103,"捨":2104,"捩":2105,"捫":2106,"据":2107,"捯":2108,"捱":2109,"捲":2110,"捶":2111,"捷":2112,"捺":2113,"捻":2114,"掀":2115,"掂":2116,"掃":2117,"掄":2118,"授":2119,"掉":2120,"掌":2121,"掏":2122,"掐":2123,"排":2124,"掖":2125,"掘":2126,"掙":2127,"掛":2128,"掠":2129,"採":2130,"探":2131,"掣":2132,"接":2133,"控":2134,"推":2135,"掩":2136,"措":2137,"掬":2138,"掮":2139,"掰":2140,"揀":2141,"揄":2142,"揆":2143,"揉":2144,"揍":2145,"描":2146,"提":2147,"揑":2148,"插":2149,"揖":2150,"揚":2151,"換":2152,"揠":2153,"握":2154,"揣":2155,"揩":2156,"揪":2157,"揬":2158,"揭":2159,"揮":2160,"援":2161,"揶":2162,"揹":2163,"揺":2164,"搆":2165,"損":2166,"搏":2167,"搐":2168,"搓":2169,"搔":2170,"搖":2171,"搗":2172,"搜":2173,"搞":2174,"搡":2175,"搥":2176,"搧":2177,"搪":2178,"搬":2179,"搭":2180,"搵":2181,"搶":2182,"搽":2183,"搾":2184,"摀":2185,"摁":2186,"摃":2187,"摑":2188,"摒":2189,"摔":2190,"摘":2191,"摜":2192,"摟":2193,"摧":2194,"摩":2195,"摯":2196,"摳":2197,"摸":2198,"摹":2199,"摺":2200,"摻":2201,"撂":2202,"撃":2203,"撅":2204,"撆":2205,"撇":2206,"撈":2207,"撋":2208,"撐":2209,"撑":2210,"撒":2211,"撓":2212,"撕":2213,"撘":2214,"撙":2215,"撞":2216,"撢":2217,"撣":2218,"撤":2219,"撥":2220,"撩":2221,"撫":2222,"撬":2223,"播":2224,"撮":2225,"撰":2226,"撲":2227,"撸":2228,"撻":2229,"撼":2230,"撿":2231,"擀":2232,"擁":2233,"擂":2234,"擄":2235,"擅":2236,"擇":2237,"擊":2238,"擋":2239,"操":2240,"擎":2241,"擒":2242,"擔":2243,"擘":2244,"據":2245,"擠":2246,"擡":2247,"擢":2248,"擤":2249,"擦":2250,"擧":2251,"擬":2252,"擭":2253,"擰":2254,"擱":2255,"擲":2256,"擴":2257,"擷":2258,"擺":2259,"擻":2260,"擼":2261,"擾":2262,"攀":2263,"攄":2264,"攆":2265,"攏":2266,"攔":2267,"攖":2268,"攘":2269,"攙":2270,"攜":2271,"攝":2272,"攞":2273,"攢":2274,"攣":2275,"攤":2276,"攥":2277,"攪":2278,"攫":2279,"攬":2280,"攮":2281,"支":2282,"收":2283,"攸":2284,"改":2285,"攻":2286,"放":2287,"政":2288,"故":2289,"效":2290,"敍":2291,"敎":2292,"敏":2293,"救":2294,"敕":2295,"敖":2296,"敗":2297,"敘":2298,"教":2299,"敝":2300,"敞":2301,"敢":2302,"散":2303,"敦":2304,"敬":2305,"数":2306,"敲":2307,"整":2308,"敵":2309,"敷":2310,"數":2311,"斂":2312,"斃":2313,"文":2314,"斌":2315,"斐":2316,"斑":2317,"斕":2318,"斗":2319,"料":2320,"斜":2321,"斟":2322,"斡":2323,"斤":2324,"斥":2325,"斦":2326,"斧":2327,"斬":2328,"断":2329,"斯":2330,"新":2331,"斲":2332,"斷":2333,"方":2334,"於":2335,"施":2336,"旁":2337,"旅":2338,"旋":2339,"旌":2340,"族":2341,"旗":2342,"无":2343,"既":2344,"旣":2345,"日":2346,"旦":2347,"旨":2348,"早":2349,"旬":2350,"旭":2351,"旮":2352,"旱":2353,"时":2354,"旷":2355,"旺":2356,"旻":2357,"旼":2358,"昀":2359,"昂":2360,"昆":2361,"昇":2362,"昊":2363,"昌":2364,"明":2365,"昏":2366,"易":2367,"昔":2368,"昕":2369,"星":2370,"映":2371,"昡":2372,"春":2373,"昧":2374,"昨":2375,"昭":2376,"是":2377,"昱":2378,"昴":2379,"昼":2380,"時":2381,"晃":2382,"晉":2383,"晋":2384,"晌":2385,"晏":2386,"晒":2387,"晗":2388,"晚":2389,"晝":2390,"晞":2391,"晟":2392,"晡":2393,"晤":2394,"晦":2395,"晨":2396,"晩":2397,"普":2398,"景":2399,"晰":2400,"晴":2401,"晶":2402,"晷":2403,"智":2404,"晾":2405,"暁":2406,"暄":2407,"暇":2408,"暈":2409,"暉":2410,"暋":2411,"暌":2412,"暐":2413,"暑":2414,"暖":2415,"暗":2416,"暝":2417,"暢":2418,"暨":2419,"暫":2420,"暮":2421,"暱":2422,"暴":2423,"暸":2424,"暹":2425,"暻":2426,"曄":2427,"曆":2428,"曇":2429,"曉":2430,"曖":2431,"曙":2432,"曚":2433,"曜":2434,"曝":2435,"曠":2436,"曦":2437,"曩":2438,"曬":2439,"曰":2440,"曲":2441,"曳":2442,"更":2443,"曷":2444,"書":2445,"曹":2446,"曼":2447,"曽":2448,"曾":2449,"替":2450,"最":2451,"會":2452,"月":2453,"有":2454,"朋":2455,"服":2456,"朔":2457,"朕":2458,"朗":2459,"望":2460,"朝":2461,"期":2462,"朦":2463,"朧":2464,"木":2465,"未":2466,"末":2467,"本":2468,"札":2469,"朮":2470,"朱":2471,"朴":2472,"朵":2473,"朶":2474,"机":2475,"朽":2476,"杂":2477,"杆":2478,"杈":2479,"杉":2480,"李":2481,"杏":2482,"材":2483,"村":2484,"杓":2485,"杖":2486,"杜":2487,"杞":2488,"束":2489,"条":2490,"来":2491,"杭":2492,"杯":2493,"杰":2494,"東":2495,"杳":2496,"杵":2497,"杷":2498,"松":2499,"板":2500,"枇":2501,"枉":2502,"枋":2503,"析":2504,"枒":2505,"枕":2506,"林":2507,"枚":2508,"果":2509,"枝":2510,"枡":2511,"枢":2512,"枯":2513,"枰":2514,"枱":2515,"枳":2516,"枴":2517,"架":2518,"枷":2519,"枸":2520,"柄":2521,"柏":2522,"某":2523,"柑":2524,"染":2525,"柔":2526,"柚":2527,"柢":2528,"查":2529,"柩":2530,"柬":2531,"柯":2532,"柱":2533,"柳":2534,"柴":2535,"柵":2536,"柺":2537,"査":2538,"柾":2539,"柿":2540,"栓":2541,"栖":2542,"栗":2543,"栞":2544,"校":2545,"栢":2546,"栧":2547,"栩":2548,"株":2549,"核":2550,"根":2551,"格":2552,"栽":2553,"桀":2554,"桁":2555,"桂":2556,"桃":2557,"桅":2558,"框":2559,"案":2560,"桌":2561,"桎":2562,"桐":2563,"桑":2564,"桓":2565,"桔":2566,"桜":2567,"桶":2568,"桿":2569,"梁":2570,"梅":2571,"梆":2572,"梏":2573,"梓":2574,"梔":2575,"梗":2576,"梘":2577,"條":2578,"梟":2579,"梠":2580,"梢":2581,"梧":2582,"梨":2583,"梭":2584,"梯":2585,"械":2586,"梳":2587,"梵":2588,"棄":2589,"棉":2590,"棋":2591,"棍":2592,"棒":2593,"棕":2594,"棗":2595,"棘":2596,"棚":2597,"棟":2598,"棠":2599,"棣":2600,"棧":2601,"棨":2602,"森":2603,"棱":2604,"棲":2605,"棵":2606,"棺":2607,"棻":2608,"椅":2609,"椋":2610,"植":2611,"椎":2612,"椏":2613,"椒":2614,"椛":2615,"椪":2616,"椰":2617,"椴":2618,"椹":2619,"椿":2620,"楂":2621,"楊":2622,"楓":2623,"楔":2624,"楚":2625,"楝":2626,"楞":2627,"楠":2628,"楡":2629,"楣":2630,"楦":2631,"業":2632,"極":2633,"楷":2634,"楹":2635,"楽":2636,"概":2637,"榆":2638,"榊":2639,"榎":2640,"榔":2641,"榕":2642,"榖":2643,"榛":2644,"榜":2645,"榧":2646,"榨":2647,"榫":2648,"榭":2649,"榮":2650,"榴":2651,"榷":2652,"榻":2653,"槃":2654,"槇":2655,"構":2656,"槌":2657,"槍":2658,"槐":2659,"槓":2660,"様":2661,"槙":2662,"槤":2663,"槨":2664,"槭":2665,"槲":2666,"槳":2667,"槺":2668,"槻":2669,"槽":2670,"槿":2671,"樁":2672,"樂":2673,"樅":2674,"樊":2675,"樋":2676,"樑":2677,"樓":2678,"樘":2679,"標":2680,"樞":2681,"樟":2682,"模":2683,"樣":2684,"横":2685,"樱":2686,"樵":2687,"樸":2688,"樹":2689,"樺":2690,"樽":2691,"橄":2692,"橇":2693,"橈":2694,"橋":2695,"橏":2696,"橘":2697,"橙":2698,"機":2699,"橡":2700,"橢":2701,"橫":2702,"橼":2703,"檀":2704,"檉":2705,"檍":2706,"檎":2707,"檐":2708,"檔":2709,"檜":2710,"檞":2711,"檢":2712,"檫":2713,"檬":2714,"檯":2715,"檳":2716,"檸":2717,"檺":2718,"檻":2719,"櫃":2720,"櫚":2721,"櫛":2722,"櫞":2723,"櫟":2724,"櫥":2725,"櫪":2726,"櫫":2727,"櫸":2728,"櫺":2729,"櫻":2730,"欄":2731,"欅":2732,"欉":2733,"權":2734,"欒":2735,"欖":2736,"欞":2737,"欠":2738,"次":2739,"欢":2740,"欣":2741,"欲":2742,"欸":2743,"欺":2744,"欽":2745,"款":2746,"歇":2747,"歉":2748,"歌":2749,"歎":2750,"歐":2751,"歛":2752,"歡":2753,"止":2754,"正":2755,"此":2756,"步":2757,"武":2758,"歧":2759,"歩":2760,"歪":2761,"歲":2762,"歳":2763,"歷":2764,"歸":2765,"歹":2766,"死":2767,"歼":2768,"歿":2769,"殃":2770,"殄":2771,"殆":2772,"殉":2773,"殊":2774,"殖":2775,"殘":2776,"殞":2777,"殤":2778,"殫":2779,"殭":2780,"殮":2781,"殯":2782,"殲":2783,"段":2784,"殷":2785,"殺":2786,"殻":2787,"殼":2788,"殿":2789,"毀":2790,"毁":2791,"毅":2792,"毆":2793,"毋":2794,"母":2795,"毎":2796,"每":2797,"毒":2798,"毓":2799,"比":2800,"毗":2801,"毘":2802,"毛":2803,"毫":2804,"毬":2805,"毯":2806,"毽":2807,"氈":2808,"氏":2809,"民":2810,"氓":2811,"氖":2812,"気":2813,"氙":2814,"氛":2815,"氟":2816,"氣":2817,"氤":2818,"氦":2819,"氧":2820,"氨":2821,"氫":2822,"氬":2823,"氮":2824,"氯":2825,"氰":2826,"氳":2827,"水":2828,"氷":2829,"永":2830,"氹":2831,"氾":2832,"汀":2833,"汁":2834,"求":2835,"汆":2836,"汎":2837,"汏":2838,"汐":2839,"汔":2840,"汕":2841,"汗":2842,"汙":2843,"汚":2844,"汛":2845,"汝":2846,"汞":2847,"江":2848,"池":2849,"污":2850,"汪":2851,"汰":2852,"汲":2853,"汴":2854,"汶":2855,"決":2856,"汽":2857,"沁":2858,"沂":2859,"沃":2860,"沈":2861,"沉":2862,"沌":2863,"沏":2864,"沐":2865,"沒":2866,"沓":2867,"沖":2868,"沙":2869,"沛":2870,"没":2871,"沢":2872,"沫":2873,"沬":2874,"沮":2875,"沱":2876,"河":2877,"沸":2878,"油":2879,"治":2880,"沼":2881,"沽":2882,"沾":2883,"沿":2884,"況":2885,"泄":2886,"泉":2887,"泊":2888,"泌":2889,"泓":2890,"泔":2891,"法":2892,"泛":2893,"泠":2894,"泡":2895,"波":2896,"泣":2897,"泥":2898,"注":2899,"泫":2900,"泮":2901,"泯":2902,"泰":2903,"泱":2904,"泳":2905,"泵":2906,"洄":2907,"洋":2908,"洌":2909,"洗":2910,"洙":2911,"洛":2912,"洞":2913,"津":2914,"洧":2915,"洨":2916,"洩":2917,"洪":2918,"洱":2919,"洲":2920,"洶":2921,"洸":2922,"活":2923,"洼":2924,"洽":2925,"派":2926,"流":2927,"浄":2928,"浅":2929,"浆":2930,"浙":2931,"浚":2932,"浜":2933,"浣":2934,"浤":2935,"浦":2936,"浩":2937,"浪":2938,"浬":2939,"浮":2940,"浴":2941,"海":2942,"浸":2943,"浹":2944,"涂":2945,"涅":2946,"涇":2947,"消":2948,"涉":2949,"涌":2950,"涎":2951,"涓":2952,"涕":2953,"涙":2954,"涮":2955,"涯":2956,"液":2957,"涴":2958,"涵":2959,"涸":2960,"涼":2961,"淀":2962,"淄":2963,"淅":2964,"淆":2965,"淇":2966,"淋":2967,"淌":2968,"淏":2969,"淑":2970,"淒":2971,"淖":2972,"淘":2973,"淙":2974,"淚":2975,"淞":2976,"淡":2977,"淤":2978,"淨":2979,"淩":2980,"淪":2981,"淫":2982,"淬":2983,"淮":2984,"深":2985,"淳":2986,"淵":2987,"混":2988,"淹":2989,"淺":2990,"添":2991,"淽":2992,"清":2993,"済":2994,"渋":2995,"渔":2996,"渕":2997,"渙":2998,"渚":2999,"減":3000,"渝":3001,"渟":3002,"渠":3003,"渡":3004,"渣":3005,"渤":3006,"渥":3007,"渦":3008,"温":3009,"測":3010,"渭":3011,"港":3012,"渲":3013,"渴":3014,"渶":3015,"游":3016,"渺":3017,"渾":3018,"湃":3019,"湄":3020,"湊":3021,"湍":3022,"湖":3023,"湘":3024,"湛":3025,"湟":3026,"湧":3027,"湮":3028,"湯":3029,"湳":3030,"満":3031,"溉":3032,"溏":3033,"源":3034,"準":3035,"溘":3036,"溜":3037,"溝":3038,"溢":3039,"溥":3040,"溪":3041,"溫":3042,"溯":3043,"溱":3044,"溶":3045,"溺":3046,"溼":3047,"溽":3048,"滂":3049,"滄":3050,"滅":3051,"滇":3052,"滉":3053,"滋":3054,"滌":3055,"滑":3056,"滓":3057,"滔":3058,"滕":3059,"滙":3060,"滝":3061,"滬":3062,"滯":3063,"滲":3064,"滴":3065,"滷":3066,"滸":3067,"滾":3068,"滿":3069,"漁":3070,"漂":3071,"漆":3072,"漉":3073,"漏":3074,"漓":3075,"演":3076,"漚":3077,"漠":3078,"漢":3079,"漣":3080,"漥":3081,"漩":3082,"漪":3083,"漫":3084,"漬":3085,"漯":3086,"漱":3087,"漲":3088,"漳":3089,"漸":3090,"漾":3091,"漿":3092,"潁":3093,"潑":3094,"潔":3095,"潘":3096,"潛":3097,"潞":3098,"潟":3099,"潢":3100,"潤":3101,"潦":3102,"潭":3103,"潮":3104,"潯":3105,"潰":3106,"潸":3107,"潺":3108,"潼":3109,"潾":3110,"澀":3111,"澁":3112,"澄":3113,"澆":3114,"澈":3115,"澍":3116,"澎":3117,"澔":3118,"澗":3119,"澡":3120,"澤":3121,"澪":3122,"澯":3123,"澱":3124,"澳":3125,"澹":3126,"激":3127,"濁":3128,"濂":3129,"濃":3130,"濔":3131,"濕":3132,"濘":3133,"濛":3134,"濟":3135,"濡":3136,"濤":3137,"濫":3138,"濬":3139,"濯":3140,"濰":3141,"濱":3142,"濳":3143,"濶":3144,"濺":3145,"濾":3146,"瀆":3147,"瀉":3148,"瀋":3149,"瀏":3150,"瀑":3151,"瀕":3152,"瀚":3153,"瀛":3154,"瀝":3155,"瀟":3156,"瀧":3157,"瀨":3158,"瀬":3159,"瀰":3160,"瀲":3161,"瀼":3162,"瀾":3163,"灌":3164,"灑":3165,"灘":3166,"灣":3167,"灩":3168,"火":3169,"灯":3170,"灰":3171,"灶":3172,"灸":3173,"灼":3174,"災":3175,"炉":3176,"炊":3177,"炎":3178,"炒":3179,"炔":3180,"炕":3181,"炖":3182,"炙":3183,"炫":3184,"炬":3185,"炭":3186,"炮":3187,"炯":3188,"炳":3189,"炷":3190,"炸":3191,"点":3192,"為":3193,"烈":3194,"烊":3195,"烏":3196,"烔":3197,"烘":3198,"烙":3199,"烤":3200,"烯":3201,"烴":3202,"烷":3203,"烹":3204,"烽":3205,"焉":3206,"焊":3207,"焗":3208,"焙":3209,"焚":3210,"無":3211,"焢":3212,"焦":3213,"焯":3214,"焰":3215,"然":3216,"焼":3217,"焿":3218,"煉":3219,"煊":3220,"煌":3221,"煎":3222,"煑":3223,"煒":3224,"煙":3225,"煜":3226,"煞":3227,"煤":3228,"煥":3229,"煦":3230,"照":3231,"煨":3232,"煩":3233,"煮":3234,"煲":3235,"煸":3236,"煽":3237,"熄":3238,"熊":3239,"熏":3240,"熒":3241,"熔":3242,"熙":3243,"熟":3244,"熠":3245,"熨":3246,"熬":3247,"熱":3248,"熹":3249,"熾":3250,"燁":3251,"燃":3252,"燄":3253,"燈":3254,"燉":3255,"燎":3256,"燑":3257,"燒":3258,"燔":3259,"燕":3260,"燗":3261,"燙":3262,"燜":3263,"營":3264,"燥":3265,"燦":3266,"燬":3267,"燭":3268,"燴":3269,"燻":3270,"燼":3271,"燿":3272,"爀":3273,"爆":3274,"爌":3275,"爍":3276,"爐":3277,"爛":3278,"爨":3279,"爪":3280,"爬":3281,"爭":3282,"爰":3283,"爱":3284,"爲":3285,"爵":3286,"父":3287,"爸":3288,"爹":3289,"爺":3290,"爻":3291,"爽":3292,"爾":3293,"牆":3294,"片":3295,"版":3296,"牌":3297,"牒":3298,"牙":3299,"牛":3300,"牝":3301,"牟":3302,"牠":3303,"牡":3304,"牢":3305,"牧":3306,"物":3307,"牯":3308,"牲":3309,"牴":3310,"特":3311,"牽":3312,"犀":3313,"犁":3314,"犇":3315,"犒":3316,"犖":3317,"犛":3318,"犠":3319,"犡":3320,"犢":3321,"犧":3322,"犬":3323,"犯":3324,"犰":3325,"状":3326,"犽":3327,"狀":3328,"狂":3329,"狄":3330,"狆":3331,"狏":3332,"狐":3333,"狒":3334,"狗":3335,"狙":3336,"狠":3337,"狡":3338,"狩":3339,"独":3340,"狳":3341,"狷":3342,"狸":3343,"狹":3344,"狼":3345,"狽":3346,"猖":3347,"猙":3348,"猛":3349,"猜":3350,"猝":3351,"猥":3352,"猩":3353,"猪":3354,"猫":3355,"猬":3356,"猴":3357,"猶":3358,"猷":3359,"猾":3360,"猿":3361,"獄":3362,"獅":3363,"獎":3364,"獒":3365,"獗":3366,"獠":3367,"獨":3368,"獰":3369,"獲":3370,"獴":3371,"獵":3372,"獷":3373,"獸":3374,"獺":3375,"獻":3376,"獼":3377,"獾":3378,"玄":3379,"率":3380,"玉":3381,"王":3382,"玖":3383,"玗":3384,"玟":3385,"玥":3386,"玩":3387,"玫":3388,"玲":3389,"玳":3390,"玷":3391,"玹":3392,"玻":3393,"珀":3394,"珂":3395,"珈":3396,"珉":3397,"珊":3398,"珍":3399,"珐":3400,"珞":3401,"珠":3402,"珣":3403,"珦":3404,"珩":3405,"班":3406,"珮":3407,"現":3408,"琁":3409,"球":3410,"琅":3411,"理":3412,"琇":3413,"琉":3414,"琊":3415,"琚":3416,"琢":3417,"琥":3418,"琦":3419,"琪":3420,"琮":3421,"琲":3422,"琳":3423,"琴":3424,"琵":3425,"琶":3426,"琺":3427,"瑀":3428,"瑁":3429,"瑄":3430,"瑋":3431,"瑕":3432,"瑙":3433,"瑚":3434,"瑛":3435,"瑜":3436,"瑝":3437,"瑞":3438,"瑟":3439,"瑠":3440,"瑣":3441,"瑤":3442,"瑥":3443,"瑩":3444,"瑪":3445,"瑯":3446,"瑰":3447,"瑾":3448,"璀":3449,"璃":3450,"璄":3451,"璇":3452,"璉":3453,"璋":3454,"璞":3455,"璟":3456,"璣":3457,"璧":3458,"璨":3459,"璩":3460,"環":3461,"璽":3462,"璿":3463,"瓊":3464,"瓍":3465,"瓏":3466,"瓜":3467,"瓠":3468,"瓢":3469,"瓣":3470,"瓦":3471,"瓩":3472,"瓶":3473,"瓷":3474,"甄":3475,"甌":3476,"甕":3477,"甗":3478,"甘":3479,"甙":3480,"甚":3481,"甜":3482,"生":3483,"甡":3484,"產":3485,"産":3486,"甥":3487,"甦":3488,"用":3489,"甩":3490,"甫":3491,"甭":3492,"甯":3493,"田":3494,"由":3495,"甲":3496,"申":3497,"电":3498,"男":3499,"甸":3500,"町":3501,"画":3502,"畇":3503,"畊":3504,"界":3505,"畏":3506,"畑":3507,"畔":3508,"留":3509,"畚":3510,"畜":3511,"畝":3512,"畢":3513,"畤":3514,"略":3515,"畦":3516,"番":3517,"畫":3518,"異":3519,"畲":3520,"當":3521,"畸":3522,"畿":3523,"疆":3524,"疇":3525,"疊":3526,"疏":3527,"疑":3528,"疔":3529,"疙":3530,"疚":3531,"疝":3532,"疣":3533,"疤":3534,"疥":3535,"疫":3536,"疱":3537,"疲":3538,"疵":3539,"疸":3540,"疹":3541,"疼":3542,"疽":3543,"疾":3544,"痂":3545,"病":3546,"症":3547,"痊":3548,"痍":3549,"痔":3550,"痕":3551,"痘":3552,"痙":3553,"痛":3554,"痞":3555,"痠":3556,"痢":3557,"痣":3558,"痤":3559,"痧":3560,"痩":3561,"痰":3562,"痲":3563,"痴":3564,"痹":3565,"痺":3566,"痼":3567,"痾":3568,"痿":3569,"瘀":3570,"瘁":3571,"瘋":3572,"瘍":3573,"瘓":3574,"瘖":3575,"瘙":3576,"瘜":3577,"瘟":3578,"瘠":3579,"瘡":3580,"瘤":3581,"瘦":3582,"瘧":3583,"瘩":3584,"瘴":3585,"瘸":3586,"瘻":3587,"瘼":3588,"癀":3589,"療":3590,"癇":3591,"癌":3592,"癎":3593,"癒":3594,"癖":3595,"癟":3596,"癡":3597,"癢":3598,"癤":3599,"癥":3600,"癬":3601,"癮":3602,"癱":3603,"癲":3604,"癸":3605,"発":3606,"登":3607,"發":3608,"白":3609,"百":3610,"皂":3611,"的":3612,"皆":3613,"皇":3614,"皈":3615,"皋":3616,"皎":3617,"皐":3618,"皓":3619,"皙":3620,"皚":3621,"皞":3622,"皮":3623,"皰":3624,"皺":3625,"皿":3626,"盂":3627,"盃":3628,"盅":3629,"盆":3630,"盈":3631,"益":3632,"盎":3633,"盒":3634,"盔":3635,"盗":3636,"盛":3637,"盜":3638,"盞":3639,"盟":3640,"盡":3641,"監":3642,"盤":3643,"盥":3644,"盧":3645,"盪":3646,"目":3647,"盯":3648,"盲":3649,"直":3650,"相":3651,"盹":3652,"盺":3653,"盼":3654,"盾":3655,"省":3656,"眈":3657,"眉":3658,"看":3659,"眞":3660,"真":3661,"眠":3662,"眨":3663,"眩":3664,"眯":3665,"眶":3666,"眷":3667,"眸":3668,"眺":3669,"眼":3670,"眾":3671,"着":3672,"睁":3673,"睌":3674,"睏":3675,"睐":3676,"睛":3677,"睜":3678,"睞":3679,"睡":3680,"睢":3681,"督":3682,"睥":3683,"睦":3684,"睨":3685,"睪":3686,"睫":3687,"睬":3688,"睱":3689,"睹":3690,"睽":3691,"睾":3692,"睿":3693,"瞄":3694,"瞅":3695,"瞇":3696,"瞌":3697,"瞎":3698,"瞑":3699,"瞞":3700,"瞟":3701,"瞠":3702,"瞥":3703,"瞧":3704,"瞪":3705,"瞬":3706,"瞭":3707,"瞰":3708,"瞳":3709,"瞻":3710,"瞼":3711,"瞿":3712,"矇":3713,"矍":3714,"矓":3715,"矗":3716,"矚":3717,"矛":3718,"矜":3719,"矢":3720,"矣":3721,"知":3722,"矩":3723,"矬":3724,"短":3725,"矮":3726,"矯":3727,"石":3728,"矽":3729,"砂":3730,"砌":3731,"砍":3732,"砒":3733,"研":3734,"砣":3735,"砥":3736,"砧":3737,"砭":3738,"砰":3739,"砲":3740,"破":3741,"砷":3742,"砸":3743,"础":3744,"硃":3745,"硐":3746,"硒":3747,"硝":3748,"硨":3749,"硫":3750,"硬":3751,"确":3752,"硯":3753,"硺":3754,"碁":3755,"碇":3756,"碉":3757,"碌":3758,"碎":3759,"碑":3760,"碗":3761,"碘":3762,"碟":3763,"碣":3764,"碥":3765,"碧":3766,"碩":3767,"碰":3768,"碱":3769,"碳":3770,"碴":3771,"確":3772,"碼":3773,"碾":3774,"磁":3775,"磅":3776,"磊":3777,"磋":3778,"磐":3779,"磕":3780,"磚":3781,"磡":3782,"磨":3783,"磯":3784,"磲":3785,"磷":3786,"磺":3787,"礁":3788,"礎":3789,"礑":3790,"礙":3791,"礡":3792,"礦":3793,"礪":3794,"礫":3795,"礬":3796,"礴":3797,"示":3798,"礼":3799,"社":3800,"祀":3801,"祁":3802,"祂":3803,"祇":3804,"祈":3805,"祉":3806,"祐":3807,"祕":3808,"祖":3809,"祗":3810,"祛":3811,"祝":3812,"神":3813,"祟":3814,"祠":3815,"祢":3816,"祥":3817,"票":3818,"祭":3819,"祷":3820,"祺":3821,"祼":3822,"祿":3823,"禀":3824,"禁":3825,"禍":3826,"禎":3827,"福":3828,"禕":3829,"禡":3830,"禢":3831,"禦":3832,"禧":3833,"禪":3834,"禮":3835,"禱":3836,"禹":3837,"禽":3838,"禾":3839,"禿":3840,"秀":3841,"私":3842,"秈":3843,"秉":3844,"秋":3845,"科":3846,"秒":3847,"秖":3848,"秘":3849,"租":3850,"秤":3851,"秦":3852,"秧":3853,"秩":3854,"移":3855,"稀":3856,"稅":3857,"稈":3858,"稉":3859,"程":3860,"稍":3861,"税":3862,"稔":3863,"稗":3864,"稚":3865,"稜":3866,"稟":3867,"稠":3868,"種":3869,"稱":3870,"稲":3871,"稷":3872,"稹":3873,"稻":3874,"稼":3875,"稽":3876,"稿":3877,"穀":3878,"穂":3879,"穆":3880,"穌":3881,"積":3882,"穎":3883,"穏":3884,"穗":3885,"穠":3886,"穢":3887,"穣":3888,"穩":3889,"穫":3890,"穴":3891,"究":3892,"穹":3893,"空":3894,"穿":3895,"突":3896,"窄":3897,"窈":3898,"窒":3899,"窕":3900,"窖":3901,"窗":3902,"窘":3903,"窟":3904,"窠":3905,"窣":3906,"窨":3907,"窩":3908,"窪":3909,"窮":3910,"窯":3911,"窳":3912,"窸":3913,"窺":3914,"窿":3915,"竄":3916,"竅":3917,"竇":3918,"竉":3919,"竊":3920,"立":3921,"竑":3922,"站":3923,"竜":3924,"竟":3925,"章":3926,"竣":3927,"童":3928,"竫":3929,"竭":3930,"端":3931,"競":3932,"竹":3933,"竺":3934,"竽":3935,"竿":3936,"笆":3937,"笈":3938,"笋":3939,"笑":3940,"笙":3941,"笛":3942,"笠":3943,"符":3944,"笨":3945,"笫":3946,"第":3947,"笹":3948,"筅":3949,"筆":3950,"等":3951,"筊":3952,"筋":3953,"筍":3954,"筏":3955,"筐":3956,"筑":3957,"筒":3958,"答":3959,"策":3960,"筞":3961,"筠":3962,"筧":3963,"筱":3964,"筴":3965,"筵":3966,"筷":3967,"箇":3968,"箋":3969,"箍":3970,"箏":3971,"箔":3972,"箕":3973,"箖":3974,"算":3975,"箝":3976,"管":3977,"箭":3978,"箱":3979,"箴":3980,"節":3981,"範":3982,"篆":3983,"篇":3984,"築":3985,"篙":3986,"篛":3987,"篝":3988,"篟":3989,"篠":3990,"篡":3991,"篤":3992,"篩":3993,"篳":3994,"篷":3995,"篸":3996,"簇":3997,"簋":3998,"簌":3999,"簍":4000,"簑":4001,"簡":4002,"簣":4003,"簧":4004,"簪":4005,"簫":4006,"簷":4007,"簸":4008,"簽":4009,"簾":4010,"簿":4011,"籃":4012,"籌":4013,"籍":4014,"籓":4015,"籙":4016,"籟":4017,"籠":4018,"籤":4019,"籬":4020,"籮":4021,"籲":4022,"米":4023,"籽":4024,"粄":4025,"粉":4026,"粑":4027,"粒":4028,"粕":4029,"粗":4030,"粘":4031,"粟":4032,"粥":4033,"粧":4034,"粮":4035,"粱":4036,"粲":4037,"粳":4038,"粵":4039,"粷":4040,"粹":4041,"粼":4042,"粽":4043,"精":4044,"粿":4045,"糅":4046,"糊":4047,"糕":4048,"糖":4049,"糗":4050,"糙":4051,"糜":4052,"糞":4053,"糟":4054,"糠":4055,"糢":4056,"糧":4057,"糨":4058,"糬":4059,"糯":4060,"糰":4061,"糸":4062,"系":4063,"糾":4064,"紀":4065,"紂":4066,"約":4067,"紅":4068,"紈":4069,"紉":4070,"紊":4071,"紋":4072,"納":4073,"紐":4074,"紓":4075,"純":4076,"紕":4077,"紗":4078,"紘":4079,"紙":4080,"級":4081,"紛":4082,"紜":4083,"素":4084,"紡":4085,"索":4086,"紥":4087,"紫":4088,"紮":4089,"累":4090,"細":4091,"紳":4092,"紸":4093,"紹":4094,"紺":4095,"絀":4096,"終":4097,"絃":4098,"組":4099,"絆":4100,"経":4101,"絎":4102,"結":4103,"絕":4104,"絞":4105,"絡":4106,"絢":4107,"給":4108,"絨":4109,"絮":4110,"統":4111,"絲":4112,"絶":4113,"綁":4114,"綏":4115,"綑":4116,"經":4117,"継":4118,"綜":4119,"綠":4120,"綢":4121,"綣":4122,"綫":4123,"維":4124,"綱":4125,"網":4126,"綴":4127,"綵":4128,"綸":4129,"綺":4130,"綻":4131,"綽":4132,"綾":4133,"綿":4134,"緁":4135,"緄":4136,"緊":4137,"緋":4138,"緑":4139,"緒":4140,"緖":4141,"緘":4142,"線":4143,"緝":4144,"緞":4145,"締":4146,"緣":4147,"編":4148,"緩":4149,"緬":4150,"緯":4151,"緲":4152,"練":4153,"緹":4154,"緻":4155,"縈":4156,"縊":4157,"縐":4158,"縛":4159,"縝":4160,"縟":4161,"縣":4162,"縫":4163,"縭":4164,"縮":4165,"縱":4166,"縴":4167,"縷":4168,"縹":4169,"總":4170,"績":4171,"繁":4172,"繃":4173,"繆":4174,"繋":4175,"織":4176,"繕":4177,"繚":4178,"繞":4179,"繡":4180,"繩":4181,"繪":4182,"繫":4183,"繭":4184,"繳":4185,"繹":4186,"繻":4187,"繼":4188,"繽":4189,"繾":4190,"纂":4191,"纇":4192,"續":4193,"纍":4194,"纏":4195,"纓":4196,"纖":4197,"纛":4198,"纜":4199,"红":4200,"约":4201,"级":4202,"纪":4203,"纸":4204,"纹":4205,"终":4206,"经":4207,"绑":4208,"结":4209,"绗":4210,"给":4211,"绝":4212,"统":4213,"绪":4214,"缐":4215,"缘":4216,"缷":4217,"缸":4218,"缺":4219,"缽":4220,"罄":4221,"罈":4222,"罊":4223,"罐":4224,"罔":4225,"罕":4226,"罟":4227,"罡":4228,"罣":4229,"罩":4230,"罪":4231,"置":4232,"罰":4233,"署":4234,"罵":4235,"罷":4236,"罸":4237,"罹":4238,"羅":4239,"羈":4240,"羊":4241,"羋":4242,"羌":4243,"美":4244,"羔":4245,"羚":4246,"羞":4247,"羡":4248,"群":4249,"羥":4250,"羨":4251,"義":4252,"羮":4253,"羯":4254,"羱":4255,"羶":4256,"羸":4257,"羹":4258,"羽":4259,"羿":4260,"翁":4261,"翅":4262,"翊":4263,"翌":4264,"翎":4265,"習":4266,"翔":4267,"翗":4268,"翟":4269,"翠":4270,"翡":4271,"翩":4272,"翮":4273,"翰":4274,"翱":4275,"翳":4276,"翹":4277,"翺":4278,"翻":4279,"翼":4280,"翾":4281,"耀":4282,"老":4283,"考":4284,"者":4285,"耆":4286,"而":4287,"耍":4288,"耐":4289,"耕":4290,"耗":4291,"耘":4292,"耙":4293,"耦":4294,"耳":4295,"耶":4296,"耹":4297,"耽":4298,"耿":4299,"聃":4300,"聆":4301,"聊":4302,"聒":4303,"联":4304,"聖":4305,"聘":4306,"聚":4307,"聞":4308,"聯":4309,"聰":4310,"聲":4311,"聳":4312,"聴":4313,"聶":4314,"職":4315,"聽":4316,"聾":4317,"肄":4318,"肅":4319,"肆":4320,"肇":4321,"肉":4322,"肋":4323,"肌":4324,"肏":4325,"肓":4326,"肖":4327,"肘":4328,"肚":4329,"肛":4330,"肝":4331,"股":4332,"肢":4333,"肥":4334,"肩":4335,"肪":4336,"肯":4337,"肱":4338,"育":4339,"肴":4340,"肺":4341,"肼":4342,"肽":4343,"胃":4344,"胋":4345,"背":4346,"胎":4347,"胖":4348,"胗":4349,"胚":4350,"胛":4351,"胜":4352,"胝":4353,"胞":4354,"胡":4355,"胤":4356,"胭":4357,"胯":4358,"胰":4359,"胱":4360,"胳":4361,"胴":4362,"胸":4363,"胺":4364,"胼":4365,"能":4366,"脂":4367,"脅":4368,"脆":4369,"脇":4370,"脈":4371,"脊":4372,"脖":4373,"脗":4374,"脚":4375,"脛":4376,"脢":4377,"脣":4378,"脩":4379,"脫":4380,"脯":4381,"脱":4382,"脳":4383,"脸":4384,"脹":4385,"脽":4386,"脾":4387,"腆":4388,"腈":4389,"腊":4390,"腋":4391,"腎":4392,"腐":4393,"腑":4394,"腓":4395,"腔":4396,"腕":4397,"腠":4398,"腥":4399,"腦":4400,"腩":4401,"腫":4402,"腭":4403,"腮":4404,"腰":4405,"腱":4406,"腳":4407,"腴":4408,"腸":4409,"腹":4410,"腺":4411,"腿":4412,"膀":4413,"膈":4414,"膊":4415,"膏":4416,"膘":4417,"膚":4418,"膛":4419,"膜":4420,"膝":4421,"膠":4422,"膨":4423,"膩":4424,"膳":4425,"膺":4426,"膻":4427,"膽":4428,"膾":4429,"膿":4430,"臀":4431,"臂":4432,"臃":4433,"臆":4434,"臉":4435,"臊":4436,"臍":4437,"臘":4438,"臚":4439,"臟":4440,"臣":4441,"臥":4442,"臧":4443,"臨":4444,"自":4445,"臬":4446,"臭":4447,"至":4448,"致":4449,"臺":4450,"臻":4451,"臼":4452,"舀":4453,"舅":4454,"與":4455,"興":4456,"舉":4457,"舊":4458,"舌":4459,"舍":4460,"舎":4461,"舐":4462,"舒":4463,"舔":4464,"舖":4465,"舘":4466,"舛":4467,"舜":4468,"舞":4469,"舟":4470,"舨":4471,"航":4472,"舫":4473,"般":4474,"舵":4475,"舶":4476,"舷":4477,"船":4478,"舺":4479,"舾":4480,"艇":4481,"艉":4482,"艋":4483,"艏":4484,"艘":4485,"艙":4486,"艦":4487,"艮":4488,"良":4489,"艱":4490,"色":4491,"艶":4492,"艷":4493,"艸":4494,"艺":4495,"艽":4496,"艾":4497,"芃":4498,"芊":4499,"芋":4500,"芍":4501,"芎":4502,"芒":4503,"芘":4504,"芙":4505,"芝":4506,"芡":4507,"芥":4508,"芫":4509,"芬":4510,"芭":4511,"芮":4512,"芯":4513,"花":4514,"芳":4515,"芸":4516,"芹":4517,"芻":4518,"芽":4519,"苑":4520,"苒":4521,"苓":4522,"苔":4523,"苗":4524,"苛":4525,"苜":4526,"苞":4527,"苟":4528,"苡":4529,"苣":4530,"若":4531,"苦":4532,"苫":4533,"苯":4534,"英":4535,"苳":4536,"苷":4537,"苺":4538,"苿":4539,"茁":4540,"茂":4541,"范":4542,"茄":4543,"茅":4544,"茉":4545,"茗":4546,"茜":4547,"茡":4548,"茨":4549,"茫":4550,"茭":4551,"茯":4552,"茱":4553,"茲":4554,"茴":4555,"茵":4556,"茶":4557,"茸":4558,"茹":4559,"茼":4560,"荃":4561,"草":4562,"荊":4563,"荏":4564,"荐":4565,"荒":4566,"荔":4567,"荖":4568,"荳":4569,"荷":4570,"荸":4571,"荼":4572,"荽":4573,"莆":4574,"莉":4575,"莊":4576,"莎":4577,"莒":4578,"莓":4579,"莖":4580,"莘":4581,"莞":4582,"莠":4583,"莢":4584,"莧":4585,"莪":4586,"莫":4587,"莽":4588,"菁":4589,"菄":4590,"菅":4591,"菇":4592,"菈":4593,"菊":4594,"菌":4595,"菏":4596,"菓":4597,"菖":4598,"菘":4599,"菜":4600,"菟":4601,"菠":4602,"菩":4603,"菫":4604,"華":4605,"菱":4606,"菲":4607,"菸":4608,"萁":4609,"萃":4610,"萄":4611,"萊":4612,"萌":4613,"萍":4614,"萎":4615,"萛":4616,"萣":4617,"萬":4618,"萱":4619,"萵":4620,"萼":4621,"落":4622,"葆":4623,"葇":4624,"葉":4625,"著":4626,"葚":4627,"葛":4628,"葡":4629,"董":4630,"葦":4631,"葩":4632,"葫":4633,"葬":4634,"葯":4635,"葱":4636,"葳":4637,"葵":4638,"葷":4639,"葺":4640,"蒂":4641,"蒐":4642,"蒔":4643,"蒙":4644,"蒜":4645,"蒞":4646,"蒟":4647,"蒡":4648,"蒲":4649,"蒸":4650,"蒺":4651,"蒻":4652,"蒼":4653,"蒿":4654,"蓁":4655,"蓄":4656,"蓆":4657,"蓉":4658,"蓊":4659,"蓋":4660,"蓬":4661,"蓮":4662,"蓴":4663,"蓽":4664,"蓿":4665,"蔑":4666,"蔓":4667,"蔔":4668,"蔗":4669,"蔘":4670,"蔚":4671,"蔡":4672,"蔣":4673,"蔥":4674,"蔦":4675,"蔫":4676,"蔬":4677,"蔭":4678,"蔴":4679,"蔵":4680,"蔻":4681,"蔽":4682,"蔾":4683,"蕁":4684,"蕃":4685,"蕈":4686,"蕉":4687,"蕊":4688,"蕎":4689,"蕓":4690,"蕘":4691,"蕙":4692,"蕨":4693,"蕩":4694,"蕪":4695,"蕭":4696,"蕯":4697,"蕾":4698,"薁":4699,"薄":4700,"薇":4701,"薈":4702,"薊":4703,"薌":4704,"薏":4705,"薑":4706,"薔":4707,"薙":4708,"薛":4709,"薜":4710,"薦":4711,"薩":4712,"薪":4713,"薫":4714,"薯":4715,"薰":4716,"薺":4717,"藉":4718,"藍":4719,"藎":4720,"藏":4721,"藐":4722,"藕":4723,"藜":4724,"藝":4725,"藤":4726,"藥":4727,"藩":4728,"藪":4729,"藴":4730,"藷":4731,"藹":4732,"藻":4733,"藿":4734,"蘆":4735,"蘇":4736,"蘊":4737,"蘋":4738,"蘑":4739,"蘚":4740,"蘢":4741,"蘭":4742,"蘸":4743,"蘿":4744,"虎":4745,"虐":4746,"虔":4747,"處":4748,"虛":4749,"虜":4750,"虞":4751,"號":4752,"虧":4753,"虫":4754,"虯":4755,"虱":4756,"虹":4757,"蚊":4758,"蚌":4759,"蚓":4760,"蚜":4761,"蚣":4762,"蚤":4763,"蚧":4764,"蚩":4765,"蚪":4766,"蚯":4767,"蚱":4768,"蚵":4769,"蚶":4770,"蚺":4771,"蛀":4772,"蛆":4773,"蛇":4774,"蛈":4775,"蛉":4776,"蛋":4777,"蛔":4778,"蛙":4779,"蛛":4780,"蛞":4781,"蛟":4782,"蛤":4783,"蛭":4784,"蛸":4785,"蛹":4786,"蛺":4787,"蛻":4788,"蛾":4789,"蜀":4790,"蜂":4791,"蜃":4792,"蜆":4793,"蜇":4794,"蜈":4795,"蜉":4796,"蜊":4797,"蜍":4798,"蜒":4799,"蜓":4800,"蜘":4801,"蜚":4802,"蜜":4803,"蜢":4804,"蜥":4805,"蜱":4806,"蜴":4807,"蜷":4808,"蜻":4809,"蜿":4810,"蝌":4811,"蝎":4812,"蝓":4813,"蝕":4814,"蝗":4815,"蝙":4816,"蝟":4817,"蝠":4818,"蝣":4819,"蝦":4820,"蝨":4821,"蝮":4822,"蝰":4823,"蝴":4824,"蝶":4825,"蝸":4826,"蝽":4827,"螂":4828,"螃":4829,"融":4830,"螞":4831,"螟":4832,"螢":4833,"螨":4834,"螫":4835,"螯":4836,"螲":4837,"螳":4838,"螵":4839,"螺":4840,"蟀":4841,"蟄":4842,"蟋":4843,"蟌":4844,"蟎":4845,"蟑":4846,"蟒":4847,"蟠":4848,"蟥":4849,"蟬":4850,"蟯":4851,"蟲":4852,"蟳":4853,"蟷":4854,"蟹":4855,"蟻":4856,"蟾":4857,"蠅":4858,"蠋":4859,"蠍":4860,"蠔":4861,"蠕":4862,"蠟":4863,"蠢":4864,"蠣":4865,"蠧":4866,"蠱":4867,"蠵":4868,"蠶":4869,"蠹":4870,"蠻":4871,"血":4872,"衆":4873,"衊":4874,"行":4875,"衍":4876,"術":4877,"街":4878,"衙":4879,"衛":4880,"衝":4881,"衞":4882,"衡":4883,"衣":4884,"表":4885,"衩":4886,"衪":4887,"衫":4888,"衰":4889,"衷":4890,"衾":4891,"袁":4892,"袂":4893,"袈":4894,"袋":4895,"袍":4896,"袒":4897,"袓":4898,"袖":4899,"袤":4900,"袪":4901,"被":4902,"袱":4903,"袴":4904,"裁":4905,"裂":4906,"装":4907,"裊":4908,"裎":4909,"裏":4910,"裔":4911,"裕":4912,"裘":4913,"裙":4914,"補":4915,"裝":4916,"裟":4917,"裡":4918,"裤":4919,"裱":4920,"裳":4921,"裴":4922,"裵":4923,"裸":4924,"裹":4925,"製":4926,"褂":4927,"複":4928,"褐":4929,"褒":4930,"褓":4931,"褔":4932,"褚":4933,"褥":4934,"褪":4935,"褫":4936,"褲":4937,"褵":4938,"褶":4939,"褸":4940,"褻":4941,"襁":4942,"襄":4943,"襖":4944,"襟":4945,"襠":4946,"襤":4947,"襪":4948,"襬":4949,"襯":4950,"襲":4951,"西":4952,"要":4953,"覆":4954,"覇":4955,"見":4956,"規":4957,"覓":4958,"視":4959,"覦":4960,"覧":4961,"親":4962,"覬":4963,"覲":4964,"覷":4965,"覺":4966,"覽":4967,"觀":4968,"角":4969,"觔":4970,"解":4971,"觥":4972,"觴":4973,"觸":4974,"言":4975,"訂":4976,"訃":4977,"計":4978,"訊":4979,"訌":4980,"討":4981,"訐":4982,"訒":4983,"訓":4984,"訕":4985,"訖":4986,"託":4987,"記":4988,"訛":4989,"訝":4990,"訟":4991,"訣":4992,"訥":4993,"訪":4994,"設":4995,"許":4996,"訴":4997,"訶":4998,"訸":4999,"診":5000,"註":5001,"証":5002,"訾":5003,"詆":5004,"詎":5005,"詐":5006,"詔":5007,"評":5008,"詛":5009,"詞":5010,"詠":5011,"詡":5012,"詢":5013,"詣":5014,"試":5015,"詨":5016,"詩":5017,"詫":5018,"詬":5019,"詭":5020,"詮":5021,"詰":5022,"話":5023,"該":5024,"詳":5025,"詹":5026,"詼":5027,"誅":5028,"誆":5029,"誇":5030,"誌":5031,"認":5032,"誒":5033,"誓":5034,"誔":5035,"誕":5036,"誘":5037,"語":5038,"誠":5039,"誡":5040,"誣":5041,"誤":5042,"誦":5043,"誨":5044,"說":5045,"説":5046,"読":5047,"誰":5048,"課":5049,"誹":5050,"誼":5051,"調":5052,"諂":5053,"諄":5054,"談":5055,"諉":5056,"請":5057,"諍":5058,"諏":5059,"諒":5060,"論":5061,"諘":5062,"諛":5063,"諜":5064,"諠":5065,"諢":5066,"諤":5067,"諦":5068,"諧":5069,"諫":5070,"諭":5071,"諮":5072,"諱":5073,"諳":5074,"諶":5075,"諷":5076,"諸":5077,"諺":5078,"諾":5079,"謀":5080,"謁":5081,"謂":5082,"謄":5083,"謅":5084,"謊":5085,"謎":5086,"謐":5087,"謔":5088,"謖":5089,"謗":5090,"謙":5091,"講":5092,"謝":5093,"謠":5094,"謢":5095,"謨":5096,"謬":5097,"謹":5098,"謾":5099,"譁":5100,"證":5101,"譎":5102,"譏":5103,"譓":5104,"識":5105,"譙":5106,"譚":5107,"譜":5108,"譟":5109,"譠":5110,"警":5111,"譫":5112,"譬":5113,"譯":5114,"議":5115,"譲":5116,"譴":5117,"護":5118,"譺":5119,"譽":5120,"讀":5121,"讉":5122,"變":5123,"讎":5124,"讒":5125,"讓":5126,"讖":5127,"讚":5128,"讞":5129,"认":5130,"讨":5131,"议":5132,"记":5133,"论":5134,"评":5135,"识":5136,"话":5137,"该":5138,"语":5139,"说":5140,"请":5141,"课":5142,"谓":5143,"谝":5144,"谷":5145,"谿":5146,"豁":5147,"豆":5148,"豈":5149,"豉":5150,"豊":5151,"豋":5152,"豌":5153,"豎":5154,"豐":5155,"豔":5156,"豕":5157,"豚":5158,"象":5159,"豢":5160,"豪":5161,"豫":5162,"豬":5163,"豹":5164,"貂":5165,"貅":5166,"貉":5167,"貌":5168,"貍":5169,"貓":5170,"貔":5171,"貘":5172,"貝":5173,"貞":5174,"負":5175,"財":5176,"貢":5177,"貧":5178,"貨":5179,"販":5180,"貪":5181,"貫":5182,"責":5183,"貯":5184,"貲":5185,"貳":5186,"貴":5187,"貶":5188,"買":5189,"貸":5190,"費":5191,"貼":5192,"貽":5193,"貿":5194,"賀":5195,"賁":5196,"賂":5197,"賃":5198,"賄":5199,"賅":5200,"資":5201,"賈":5202,"賊":5203,"賑":5204,"賒":5205,"賓":5206,"賜":5207,"賞":5208,"賠":5209,"賡":5210,"賢":5211,"賣":5212,"賤":5213,"賦":5214,"質":5215,"賬":5216,"賭":5217,"賴":5218,"賸":5219,"賺":5220,"購":5221,"賽":5222,"贄":5223,"贅":5224,"贈":5225,"贊":5226,"贍":5227,"贏":5228,"贓":5229,"贖":5230,"贗":5231,"贛":5232,"赏":5233,"赞":5234,"赤":5235,"赦":5236,"赧":5237,"赫":5238,"赭":5239,"走":5240,"赳":5241,"赴":5242,"起":5243,"趁":5244,"超":5245,"越":5246,"趋":5247,"趕":5248,"趙":5249,"趜":5250,"趟":5251,"趣":5252,"趨":5253,"足":5254,"趴":5255,"趺":5256,"趾":5257,"跆":5258,"跋":5259,"跌":5260,"跎":5261,"跑":5262,"跚":5263,"跛":5264,"距":5265,"跟":5266,"跡":5267,"跤":5268,"跨":5269,"跩":5270,"跪":5271,"路":5272,"跳":5273,"跺":5274,"踉":5275,"踊":5276,"踏":5277,"踐":5278,"踝":5279,"踞":5280,"踢":5281,"踨":5282,"踩":5283,"踪":5284,"踮":5285,"踰":5286,"踱":5287,"踴":5288,"踵":5289,"踹":5290,"踺":5291,"蹂":5292,"蹄":5293,"蹇":5294,"蹈":5295,"蹉":5296,"蹊":5297,"蹋":5298,"蹌":5299,"蹓":5300,"蹙":5301,"蹝":5302,"蹟":5303,"蹠":5304,"蹣":5305,"蹤":5306,"蹦":5307,"蹩":5308,"蹬":5309,"蹭":5310,"蹱":5311,"蹲":5312,"蹴":5313,"蹶":5314,"蹺":5315,"蹼":5316,"躁":5317,"躂":5318,"躄":5319,"躅":5320,"躇":5321,"躉":5322,"躊":5323,"躋":5324,"躍":5325,"躑":5326,"躓":5327,"躡":5328,"躪":5329,"身":5330,"躬":5331,"躱":5332,"躲":5333,"躺":5334,"軀":5335,"車":5336,"軋":5337,"軌":5338,"軍":5339,"軒":5340,"軔":5341,"軛":5342,"軟":5343,"転":5344,"軫":5345,"軸":5346,"軻":5347,"軼":5348,"軽":5349,"較":5350,"載":5351,"輊":5352,"輒":5353,"輓":5354,"輔":5355,"輕":5356,"輛":5357,"輝":5358,"輟":5359,"輩":5360,"輪":5361,"輯":5362,"輸":5363,"輻":5364,"輾":5365,"輿":5366,"轄":5367,"轅":5368,"轆":5369,"轉":5370,"轍":5371,"轎":5372,"轟":5373,"轡":5374,"车":5375,"轨":5376,"辛":5377,"辜":5378,"辟":5379,"辣":5380,"辦":5381,"辨":5382,"辬":5383,"辭":5384,"辮":5385,"辯":5386,"辰":5387,"辱":5388,"農":5389,"辺":5390,"辻":5391,"込":5392,"迂":5393,"迄":5394,"迅":5395,"过":5396,"迎":5397,"近":5398,"迓":5399,"返":5400,"这":5401,"迢":5402,"迥":5403,"迦":5404,"迨":5405,"迪":5406,"迫":5407,"迭":5408,"述":5409,"迴":5410,"迷":5411,"迸":5412,"迺":5413,"追":5414,"退":5415,"送":5416,"逃":5417,"逄":5418,"逅":5419,"逆":5420,"逍":5421,"透":5422,"逐":5423,"途":5424,"逕":5425,"逗":5426,"這":5427,"通":5428,"逛":5429,"逝":5430,"逞":5431,"速":5432,"造":5433,"逢":5434,"連":5435,"逤":5436,"逮":5437,"週":5438,"進":5439,"逸":5440,"逹":5441,"逺":5442,"逼":5443,"逾":5444,"遁":5445,"遂":5446,"遇":5447,"遊":5448,"運":5449,"遍":5450,"過":5451,"遏":5452,"遐":5453,"遑":5454,"道":5455,"達":5456,"違":5457,"遙":5458,"遛":5459,"遜":5460,"遞":5461,"遠":5462,"遢":5463,"遣":5464,"遥":5465,"遨":5466,"適":5467,"遭":5468,"遮":5469,"遲":5470,"遴":5471,"遵":5472,"遶":5473,"遷":5474,"選":5475,"遺":5476,"遼":5477,"遽":5478,"避":5479,"邀":5480,"邁":5481,"邂":5482,"邃":5483,"還":5484,"邇":5485,"邊":5486,"邋":5487,"邏":5488,"邑":5489,"邡":5490,"邢":5491,"那":5492,"邦":5493,"邨":5494,"邪":5495,"邯":5496,"邰":5497,"邱":5498,"邵":5499,"邸":5500,"郁":5501,"郅":5502,"郇":5503,"郊":5504,"郎":5505,"郝":5506,"郡":5507,"部":5508,"郭":5509,"郯":5510,"郵":5511,"都":5512,"鄉":5513,"鄒":5514,"鄔":5515,"鄕":5516,"鄙":5517,"鄢":5518,"鄧":5519,"鄭":5520,"鄰":5521,"鄲":5522,"鄺":5523,"酆":5524,"酈":5525,"酉":5526,"酊":5527,"酋":5528,"酌":5529,"配":5530,"酐":5531,"酒":5532,"酗":5533,"酚":5534,"酞":5535,"酢":5536,"酣":5537,"酥":5538,"酩":5539,"酪":5540,"酬":5541,"酮":5542,"酯":5543,"酰":5544,"酵":5545,"酶":5546,"酷":5547,"酸":5548,"醂":5549,"醃":5550,"醇":5551,"醉":5552,"醋":5553,"醍":5554,"醐":5555,"醒":5556,"醚":5557,"醛":5558,"醜":5559,"醞":5560,"醣":5561,"醫":5562,"醬":5563,"醮":5564,"醯":5565,"醺":5566,"釀":5567,"釁":5568,"采":5569,"釉":5570,"釋":5571,"里":5572,"重":5573,"野":5574,"量":5575,"釐":5576,"金":5577,"釘":5578,"釜":5579,"針":5580,"釣":5581,"釦":5582,"釧":5583,"釩":5584,"釵":5585,"釹":5586,"鈀":5587,"鈉":5588,"鈊":5589,"鈍":5590,"鈑":5591,"鈔":5592,"鈕":5593,"鈜":5594,"鈞":5595,"鈣":5596,"鈦":5597,"鈴":5598,"鈷":5599,"鈸":5600,"鈺":5601,"鈽":5602,"鈾":5603,"鉀":5604,"鉄":5605,"鉅":5606,"鉆":5607,"鉉":5608,"鉍":5609,"鉑":5610,"鉗":5611,"鉚":5612,"鉛":5613,"鉤":5614,"鉦":5615,"鉻":5616,"鉾":5617,"銀":5618,"銃":5619,"銅":5620,"銑":5621,"銓":5622,"銖":5623,"銘":5624,"銚":5625,"銜":5626,"銠":5627,"銥":5628,"銦":5629,"銨":5630,"銫":5631,"銬":5632,"銳":5633,"銷":5634,"銹":5635,"銼":5636,"鋁":5637,"鋃":5638,"鋅":5639,"鋌":5640,"鋏":5641,"鋒":5642,"鋤":5643,"鋪":5644,"鋯":5645,"鋰":5646,"鋸":5647,"鋼":5648,"錀":5649,"錄":5650,"錐":5651,"錔":5652,"錕":5653,"錘":5654,"錙":5655,"錚":5656,"錞":5657,"錠":5658,"錢":5659,"錦":5660,"錨":5661,"錫":5662,"錬":5663,"錮":5664,"錯":5665,"録":5666,"錳":5667,"錶":5668,"鍊":5669,"鍋":5670,"鍍":5671,"鍘":5672,"鍚":5673,"鍛":5674,"鍥":5675,"鍬":5676,"鍰":5677,"鍵":5678,"鍶":5679,"鍺":5680,"鍾":5681,"鎂":5682,"鎊":5683,"鎌":5684,"鎏":5685,"鎔":5686,"鎖":5687,"鎘":5688,"鎚":5689,"鎢":5690,"鎦":5691,"鎧":5692,"鎩":5693,"鎬":5694,"鎭":5695,"鎮":5696,"鎰":5697,"鎳":5698,"鎵":5699,"鎷":5700,"鏃":5701,"鏈":5702,"鏖":5703,"鏗":5704,"鏘":5705,"鏞":5706,"鏟":5707,"鏡":5708,"鏢":5709,"鏤":5710,"鏽":5711,"鐐":5712,"鐘":5713,"鐙":5714,"鐡":5715,"鐧":5716,"鐫":5717,"鐮":5718,"鐲":5719,"鐳":5720,"鐵":5721,"鐸":5722,"鐺":5723,"鑄":5724,"鑊":5725,"鑑":5726,"鑒":5727,"鑚":5728,"鑛":5729,"鑠":5730,"鑣":5731,"鑫":5732,"鑰":5733,"鑲":5734,"鑷":5735,"鑼":5736,"鑽":5737,"鑾":5738,"鑿":5739,"铜":5740,"铤":5741,"银":5742,"锈":5743,"長":5744,"长":5745,"門":5746,"閂":5747,"閃":5748,"閆":5749,"閈":5750,"閉":5751,"開":5752,"閎":5753,"閏":5754,"閑":5755,"閒":5756,"間":5757,"閔":5758,"閘":5759,"閞":5760,"閡":5761,"関":5762,"閣":5763,"閤":5764,"閥":5765,"閨":5766,"閩":5767,"閰":5768,"閱":5769,"閲":5770,"閹":5771,"閻":5772,"閾":5773,"闆":5774,"闇":5775,"闈":5776,"闊":5777,"闌":5778,"闐":5779,"闔":5780,"闕":5781,"闖":5782,"闗":5783,"關":5784,"闞":5785,"闡":5786,"闢":5787,"问":5788,"间":5789,"阜":5790,"阡":5791,"阪":5792,"阮":5793,"阱":5794,"防":5795,"阻":5796,"阿":5797,"陀":5798,"附":5799,"际":5800,"陋":5801,"陌":5802,"降":5803,"限":5804,"陛":5805,"陜":5806,"陝":5807,"陞":5808,"陟":5809,"陡":5810,"院":5811,"陣":5812,"除":5813,"陪":5814,"陰":5815,"陲":5816,"陳":5817,"陴":5818,"陵":5819,"陶":5820,"陷":5821,"陸":5822,"陽":5823,"隅":5824,"隆":5825,"隈":5826,"隊":5827,"隋":5828,"隍":5829,"階":5830,"隔":5831,"隕":5832,"隘":5833,"隙":5834,"際":5835,"障":5836,"隠":5837,"隧":5838,"隨":5839,"險":5840,"隱":5841,"隴":5842,"隸":5843,"隻":5844,"隼":5845,"雀":5846,"雁":5847,"雄":5848,"雅":5849,"集":5850,"雇":5851,"雉":5852,"雋":5853,"雌":5854,"雍":5855,"雑":5856,"雕":5857,"雖":5858,"雙":5859,"雛":5860,"雜":5861,"雞":5862,"離":5863,"難":5864,"雨":5865,"雪":5866,"雫":5867,"雯":5868,"雲":5869,"零":5870,"雷":5871,"雹":5872,"電":5873,"需":5874,"霄":5875,"霆":5876,"震":5877,"霈":5878,"霉":5879,"霍":5880,"霎":5881,"霏":5882,"霑":5883,"霓":5884,"霖":5885,"霜":5886,"霞":5887,"霧":5888,"霰":5889,"露":5890,"霸":5891,"霹":5892,"霾":5893,"靂":5894,"靄":5895,"靈":5896,"青":5897,"靓":5898,"靖":5899,"静":5900,"靚":5901,"靛":5902,"靜":5903,"非":5904,"靠":5905,"靡":5906,"面":5907,"靦":5908,"靨":5909,"革":5910,"靳":5911,"靴":5912,"靶":5913,"鞅":5914,"鞋":5915,"鞍":5916,"鞏":5917,"鞘":5918,"鞠":5919,"鞣":5920,"鞦":5921,"鞭":5922,"韁":5923,"韆":5924,"韋":5925,"韌":5926,"韓":5927,"韖":5928,"韜":5929,"韭":5930,"音":5931,"韶":5932,"韻":5933,"韾":5934,"響":5935,"頁":5936,"頂":5937,"頃":5938,"項":5939,"順":5940,"頇":5941,"須":5942,"頌":5943,"頎":5944,"預":5945,"頑":5946,"頒":5947,"頓":5948,"頗":5949,"領":5950,"頜":5951,"頡":5952,"頤":5953,"頭":5954,"頰":5955,"頴":5956,"頷":5957,"頸":5958,"頹":5959,"頻":5960,"頼":5961,"顆":5962,"題":5963,"額":5964,"顎":5965,"顏":5966,"顔":5967,"願":5968,"顛":5969,"類":5970,"顢":5971,"顥":5972,"顧":5973,"顫":5974,"顯":5975,"顰":5976,"顱":5977,"顳":5978,"顴":5979,"项":5980,"题":5981,"風":5982,"颯":5983,"颱":5984,"颳":5985,"颶":5986,"颼":5987,"飄":5988,"飆":5989,"飊":5990,"风":5991,"飛":5992,"食":5993,"飢":5994,"飧":5995,"飩":5996,"飪":5997,"飭":5998,"飯":5999,"飱":6000,"飲":6001,"飴":6002,"飼":6003,"飽":6004,"飾":6005,"餃":6006,"餅":6007,"餉":6008,"養":6009,"餌":6010,"餐":6011,"餒":6012,"餓":6013,"餔":6014,"餘":6015,"餚":6016,"餛":6017,"餞":6018,"餡":6019,"館":6020,"餬":6021,"餮":6022,"餵":6023,"餽":6024,"餾":6025,"餿":6026,"饀":6027,"饃":6028,"饅":6029,"饈":6030,"饋":6031,"饌":6032,"饑":6033,"饒":6034,"饕":6035,"饗":6036,"饜":6037,"饞":6038,"首":6039,"馗":6040,"馘":6041,"香":6042,"馥":6043,"馨":6044,"馬":6045,"馭":6046,"馮":6047,"馱":6048,"馳":6049,"馴":6050,"駁":6051,"駅":6052,"駆":6053,"駐":6054,"駒":6055,"駕":6056,"駙":6057,"駛":6058,"駝":6059,"駟":6060,"駡":6061,"駢":6062,"駭":6063,"駱":6064,"駿":6065,"騁":6066,"騉":6067,"騎":6068,"騒":6069,"験":6070,"騖":6071,"騙":6072,"騰":6073,"騷":6074,"驀":6075,"驁":6076,"驃":6077,"驅":6078,"驊":6079,"驍":6080,"驒":6081,"驕":6082,"驗":6083,"驚":6084,"驛":6085,"驟":6086,"驢":6087,"驥":6088,"骨":6089,"骯":6090,"骰":6091,"骶":6092,"骷":6093,"骸":6094,"骼":6095,"髁":6096,"髋":6097,"髎":6098,"髏":6099,"髒":6100,"髓":6101,"體":6102,"髕":6103,"髖":6104,"高":6105,"髙":6106,"髦":6107,"髪":6108,"髮":6109,"髯":6110,"髻":6111,"鬃":6112,"鬆":6113,"鬍":6114,"鬚":6115,"鬟":6116,"鬢":6117,"鬣":6118,"鬥":6119,"鬧":6120,"鬨":6121,"鬩":6122,"鬪":6123,"鬮":6124,"鬰":6125,"鬱":6126,"鬲":6127,"鬼":6128,"魁":6129,"魂":6130,"魄":6131,"魅":6132,"魉":6133,"魍":6134,"魏":6135,"魔":6136,"魘":6137,"魚":6138,"魟":6139,"魠":6140,"魨":6141,"魩":6142,"魯":6143,"魴":6144,"魷":6145,"魽":6146,"鮋":6147,"鮎":6148,"鮑":6149,"鮟":6150,"鮨":6151,"鮪":6152,"鮫":6153,"鮭":6154,"鮮":6155,"鯉":6156,"鯊":6157,"鯓":6158,"鯖":6159,"鯗":6160,"鯛":6161,"鯡":6162,"鯢":6163,"鯤":6164,"鯧":6165,"鯨":6166,"鯰":6167,"鯷":6168,"鯽":6169,"鰈":6170,"鰍":6171,"鰓":6172,"鰭":6173,"鰱":6174,"鰲":6175,"鰷":6176,"鰹":6177,"鰻":6178,"鰾":6179,"鱅":6180,"鱇":6181,"鱈":6182,"鱉":6183,"鱒":6184,"鱔":6185,"鱗":6186,"鱘":6187,"鱝":6188,"鱟":6189,"鱲":6190,"鱷":6191,"鱸":6192,"鱺":6193,"鱻":6194,"鱼":6195,"鲉":6196,"鲍":6197,"鲫":6198,"鲱":6199,"鳥":6200,"鳩":6201,"鳯":6202,"鳳":6203,"鳴":6204,"鳶":6205,"鴆":6206,"鴇":6207,"鴉":6208,"鴒":6209,"鴕":6210,"鴛":6211,"鴞":6212,"鴟":6213,"鴦":6214,"鴨":6215,"鴻":6216,"鴿":6217,"鵑":6218,"鵜":6219,"鵝":6220,"鵟":6221,"鵡":6222,"鵪":6223,"鵬":6224,"鵰":6225,"鵲":6226,"鶇":6227,"鶉":6228,"鶏":6229,"鶘":6230,"鶩":6231,"鶯":6232,"鶴":6233,"鶺":6234,"鶻":6235,"鶼":6236,"鷂":6237,"鷄":6238,"鷗":6239,"鷥":6240,"鷲":6241,"鷴":6242,"鷸":6243,"鷹":6244,"鷺":6245,"鷼":6246,"鸚":6247,"鸛":6248,"鸞":6249,"鹵":6250,"鹹":6251,"鹼":6252,"鹽":6253,"鹿":6254,"麂":6255,"麋":6256,"麒":6257,"麓":6258,"麖":6259,"麗":6260,"麝":6261,"麟":6262,"麥":6263,"麦":6264,"麩":6265,"麴":6266,"麵":6267,"麹":6268,"麺":6269,"麻":6270,"麼":6271,"麽":6272,"麾":6273,"麿":6274,"黃":6275,"黄":6276,"黍":6277,"黎":6278,"黏":6279,"黑":6280,"黒":6281,"黔":6282,"默":6283,"黛":6284,"黜":6285,"黝":6286,"點":6287,"黟":6288,"黠":6289,"黨":6290,"黯":6291,"黴":6292,"黽":6293,"鼎":6294,"鼐":6295,"鼓":6296,"鼠":6297,"鼬":6298,"鼯":6299,"鼴":6300,"鼻":6301,"鼾":6302,"齁":6303,"齊":6304,"齋":6305,"齒":6306,"齜":6307,"齡":6308,"齣":6309,"齦":6310,"齧":6311,"齪":6312,"齲":6313,"齷":6314,"龍":6315,"龎":6316,"龐":6317,"龔":6318,"龕":6319,"龜":6320,"nu":6321,"num":6322,"er":6323,"per":6324,"lo":6325,"loc":6326,"per0":6327,",<":6328,"or":6329,"org":6330,"en":6331,"loc0":6332,"per1":6333,"><":6334,"loc1":6335,"、<":6336,"org0":6337,",「":6338,">,":6339,"表示":6340,"」,":6341,"nk":6342,"unk":6343,"。」":6344,"per2":6345,">、<":6346,">.":6347,"自己":6348,"loc2":6349,"org1":6350,"、「":6351,"」、「":6352,"沒有":6353,"網友":6354,"可以":6355,"因為":6356,"「<":6357,"per3":6358,"」。":6359,"loc3":6360,"不過":6361,">.<":6362,"一個":6363,":「":6364,"org2":6365,"就是":6366,"。<":6367,"粉絲":6368,"..":6369,"發現":6370,"!」":6371,"可能":6372,"時間":6373,"許多":6374,"目前":6375,"已經":6376,"我們":6377,"今年":6378,"希望":6379,"因此":6380,"最後":6381,"活動":6382,"他們":6383,"民眾":6384,"per4":6385,"認為":6386,"開始":6387,"loc4":6388,"工作":6389,"現在":6390,"指出":6391,"報導":6392,"進行":6393,"雖然":6394,"大家":6395,"不是":6396,"還是":6397,"真的":6398,"一起":6399,"相當":6400,"看到":6401,"什麼":6402,"還有":6403,"除了":6404,">」":6405,":<":6406,"警方":6407,"一名":6408,"這樣":6409,"如果":6410,"朋友":6411,"甚至":6412,"的人":6413,"以及":6414,"影片":6415,"對方":6416,"為了":6417,"不會":6418,"所以":6419,"org3":6420,"日前":6421,"總統":6422,">、":6423,"問題":6424,"對於":6425,"第一":6426,"非常":6427,"發生":6428,"之後":6429,"都是":6430,"覺得":6431,"知道":6432,"成為":6433,"現場":6434,"其實":6435,"公司":6436,">,<":6437,"臉書":6438,"照片":6439,"當時":6440,"也有":6441,"也是":6442,"這個":6443,"生活":6444,"人的":6445,"特別":6446,"per5":6447,"其中":6448,"其他":6449,">-":6450,"loc5":6451,"時候":6452,"不少":6453,"使用":6454,"政府":6455,">。":6456,"另外":6457,"想到":6458,"分享":6459,"不要":6460,"應該":6461,"起來":6462,"未來":6463,"男子":6464,"自己的":6465,"透過":6466,"世界":6467,"影響":6468,"根據":6469,"同時":6470,"無法":6471,"機會":6472,"人員":6473,"?」":6474,"球員":6475,"推出":6476,"喜歡":6477,"相關":6478,"出現":6479,"一直":6480,"一樣":6481,"不同":6482,"網路":6483,"很多":6484,"由於":6485,"關係":6486,"需要":6487,"孩子":6488,"提供":6489,"只是":6490,"造成":6491,"獲得":6492,"方式":6493,"一定":6494,"個月":6495,"包括":6496,"電影":6497,"的是":6498,"沒想到":6499,"部分":6500,"出來":6501,"設計":6502,"萬元":6503,"對此":6504,"加上":6505,"學生":6506,"只要":6507,"媽媽":6508,"今天":6509,"討論":6510,"過去":6511,"這次":6512,"結果":6513,"比較":6514,"個人":6515,"教練":6516,"參加":6517,"歲的":6518,"透露":6519,"重要":6520,"上的":6521,"但是":6522,"節目":6523,"表現":6524,"運動":6525,"比賽":6526,"受到":6527,"服務":6528,"調查":6529,"大的":6530,"都會":6531,"要求":6532,"兩人":6533,"怎麼":6534,"這些":6535,"直接":6536,"合作":6537,"接受":6538,"媒體":6539,"則是":6540,"年的":6541,"決定":6542,"他的":6543,"安全":6544,"org4":6545,"持續":6546,"紛紛":6547,"是否":6548,"loc6":6549,"國家":6550,"了一":6551,"可愛":6552,"只有":6553,"或是":6554,"女兒":6555,"小時":6556,"也不":6557,"代表":6558,"舉辦":6559,"國際":6560,"身體":6561,"支持":6562,"狀況":6563,"這是":6564,"per6":6565,"去年":6566,"就會":6567,"過程":6568,"有人":6569,"中的":6570,"完全":6571,"準備":6572,">:<":6573,"不僅":6574,"更多":6575,"發展":6576,"選擇":6577,"超過":6578,"記者":6579,"球隊":6580,"的一":6581,"在臉書":6582,"市場":6583,"不能":6584,">/":6585,"讓人":6586,"強調":6587,"好的":6588,"」<":6589,"明年":6590,"引起":6591,"社會":6592,"處理":6593,"容易":6594,"針對":6595,"有一":6596,"遊戲":6597,"而且":6598,"下午":6599,"也會":6600,"進入":6601,"手機":6602,"此外":6603,"不斷":6604,"了解":6605,"完成":6606,"回應":6607,"感覺":6608,"訓練":6609,"拍攝":6610,"增加":6611,"提到":6612,"第二":6613,"導致":6614,"分鐘":6615,"冠軍":6616,"建議":6617,"至於":6618,"畫面":6619,"面對":6620,">-<":6621,"都有":6622,"經過":6623,"想要":6624,"下來":6625,"正式":6626,"擔任":6627,"擁有":6628,"留言":6629,"所有":6630,"演出":6631,"女子":6632,"原本":6633,"健康":6634,"期間":6635,"粉絲團":6636,"突然":6637,"地方":6638,"宣布":6639,"加入":6640,"前往":6641,"這麼":6642,"中心":6643,"我的":6644,"繼續":6645,"結束":6646,"成功":6647,"研究":6648,"開心":6649,"引發":6650,"一次":6651,"的事":6652,"能夠":6653,"公開":6654,"雙方":6655,"吸引":6656,"她的":6657,"接著":6658,"動物":6659,"音樂":6660,"不到":6661,"日在":6662,"小孩":6663,"消息":6664,"內容":6665,"家人":6666,"像是":6667,"地區":6668,"最近":6669,"經典":6670,"的時候":6671,"方面":6672,"女性":6673,"必須":6674,"計畫":6675,"這種":6676,"員警":6677,"晚間":6678,"搭配":6679,"努力":6680,"參與":6681,"結婚":6682,"兒子":6683,"系統":6684,"出席":6685,"情況":6686,"系列":6687,"聖誕":6688,"電話":6689,"笑說":6690,"預計":6691,"演唱":6692,"loc7":6693,"原因":6694,"上午":6695,"女友":6696,"近日":6697,"注意":6698,"網站":6699,"提出":6700,"業者":6701,"後來":6702,"當地":6703,"任何":6704,"...":6705,"將在":6706,"之前":6707,"根本":6708,"市長":6709,"意外":6710,"藝人":6711,"環境":6712,"行為":6713,"狗狗":6714,"一點":6715,"再度":6716,"的小":6717,"爸爸":6718,"東西":6719,"一般":6720,"幫助":6721,"更是":6722,"男友":6723,",「<":6724,"消費":6725,"per7":6726,"每天":6727,">/<":6728,"年輕":6729,"這樣的":6730,"全球":6731,"團體":6732,"團隊":6733,"org5":6734,"品牌":6735,"政策":6736,"經濟":6737,"電視":6738,"之外":6739,"主持":6740,"另一":6741,"舉行":6742,"來說":6743,"家庭":6744,"主要":6745,"女生":6746,"投手":6747,"最高":6748,"有些":6749,"產品":6750,"以為":6751,"讓他":6752,"感謝":6753,"如何":6754,"立刻":6755,"協助":6756,"關注":6757,"拿下":6758,"嚴重":6759,"離開":6760,"來的":6761,"一步":6762,"擔心":6763,"分別":6764,"才能":6765,"你們":6766,"醫院":6767,"挑戰":6768,"紀錄":6769,"貓咪":6770,"期待":6771,"駕駛":6772,"通過":6773,"回家":6774,"事件":6775,"感到":6776,"感情":6777,"能力":6778,"才會":6779,"最佳":6780,"作品":6781,"文化":6782,"穿著":6783,"一下":6784,"學校":6785,"醫師":6786,"企業":6787,"是在":6788,"傳出":6789,"利用":6790,"展現":6791,"的大":6792,"單位":6793,"老師":6794,"開放":6795,"確定":6796,"表演":6797,"製作":6798,"之一":6799,"年前":6800,"動作":6801,"歡迎":6802,"知名":6803,"直播":6804,"竟然":6805,"成員":6806,"姓男子":6807,"投資":6808,"角色":6809,"的話":6810,"直呼":6811,"員工":6812,"照顧":6813,"治療":6814,"邀請":6815,"終於":6816,"....":6817,"共同":6818,"老公":6819,"以上":6820,"食品":6821,"空間":6822,"都不":6823,"只能":6824,"執行":6825,"變成":6826,"經驗":6827,"壓力":6828,"提醒":6829,"安打":6830,"玩家":6831,"顯示":6832,">」,":6833,"規定":6834,"幾乎":6835,"正在":6836,"選手":6837,"。」<":6838,"先前":6839,"當天":6840,"新的":6841,"演員":6842,"自然":6843,"他說":6844,"婚姻":6845,"主人":6846,"商品":6847,"附近":6848,"保護":6849,"也在":6850,"得到":6851,"董事":6852,"今日":6853,"事後":6854,"是一":6855,"來自":6856,"技術":6857,"資料":6858,"自由":6859,"目標":6860,"年來":6861,"疑似":6862,"功能":6863,"外界":6864,"你的":6865,"會有":6866,"並且":6867,"機車":6868,"打擊":6869,"新聞":6870,"主角":6871,"成長":6872,"籃板":6873,"觀眾":6874,"賽事":6875,"精神":6876,"事實":6877,"將於":6878,"立委":6879,"幸福":6880,"看起來":6881,"如此":6882,"到了":6883,"故事":6884,"身上":6885,"令人":6886,"就有":6887,"十分":6888,"就能":6889,"明顯":6890,"似乎":6891,"交易":6892,"市府":6893,"食物":6894,"說明":6895,"馬上":6896,"咖啡":6897,"不住":6898,"穩定":6899,"讓她":6900,"發表":6901,"發文":6902,"相信":6903,"互動":6904,"體驗":6905,"記者會":6906,"爆料":6907,"第三":6908,">「":6909,"藝術":6910,"天氣":6911,"人民":6912,"委員":6913,"棒球":6914,"?<":6915,"避免":6916,"近期":6917,"規劃":6918,"提升":6919,"積極":6920,"至今":6921,"順利":6922,"調整":6923,"各種":6924,"在地":6925,"身材":6926,"改變":6927,"曝光":6928,"維持":6929,"老闆":6930,"他也":6931,"直到":6932,"公布":6933,"行動":6934,"loc8":6935,"男人":6936,"幫忙":6937,"願意":6938,"議員":6939,"年度":6940,"隨後":6941,"辦法":6942,"造型":6943,"教育":6944,"老婆":6945,"遭到":6946,"不知道":6947,"即將":6948,"作為":6949,"時代":6950,"經紀":6951,"同樣":6952,"絕對":6953,"以來":6954,"日晚間":6955,"人氣":6956,"專業":6957,"受傷":6958,"遇到":6959,"警察":6960,"資訊":6961,"態度":6962,"休息":6963,"一些":6964,"當然":6965,"演唱會":6966,"連續":6967,"產業":6968,"網路上":6969,"回到":6970,"旅遊":6971,"心情":6972,"好好":6973,"整個":6974,"還要":6975,"習慣":6976,"有網友":6977,"聽到":6978,"per8":6979,"主題":6980,"反應":6981,"將會":6982,"許多人":6983,"一度":6984,"尤其":6985,"情緒":6986,"還在":6987,"一天":6988,"生命":6989,"交通":6990,"會議":6991,"包含":6992,"模樣":6993,"兄弟":6994,"找到":6995,"國外":6996,"歷史":6997,"過程中":6998,"眼睛":6999,"機場":7000,"學習":7001,"美元":7002,"到場":7003,"距離":7004,"進一步":7005,"展開":7006,"牠們":7007,"負責":7008,"那麼":7009,"女孩":7010,"呈現":7011,"帶著":7012,"先發":7013,"原來":7014,"為什麼":7015,"生涯":7016,"時尚":7017,"最新":7018,"減少":7019,"事情":7020,"效果":7021,"身分":7022,"最終":7023,"隨著":7024,"個性":7025,"管理":7026,"不好":7027,"導演":7028,"聯盟":7029,"認識":7030,"購買":7031,"公里":7032,"晚上":7033,"一段":7034,"反而":7035,"再次":7036,"好友":7037,"都在":7038,"受訪":7039,"最大":7040,"一張":7041,"左右":7042,"清楚":7043,"詢問":7044,"產生":7045,"不得":7046,"下的":7047,"男性":7048,"總是":7049,"充滿":7050,"之間":7051,"名單":7052,"國內":7053,"高達":7054,"到底":7055,"如今":7056,"人士":7057,"他在":7058,"日起":7059,"億元":7060,"以後":7061,"不滿":7062,"有點":7063,"力量":7064,"立即":7065,"表達":7066,"配合":7067,"第一次":7068,"曾經":7069,"母親":7070,"的照片":7071,"完整":7072,"的方式":7073,"也能":7074,"死亡":7075,"也讓":7076,"來到":7077,"主席":7078,"全場":7079,"凌晨":7080,"工程":7081,"的新":7082,"簡單":7083,"告訴":7084,"不管":7085,"交往":7086,"此次":7087,"一定要":7088,"長期":7089,"打造":7090,"攻擊":7091,"-<":7092,"!<":7093,"推動":7094,"看了":7095,"不但":7096,"本季":7097,"至少":7098,"一位":7099,"還會":7100,"衣服":7101,"官方":7102,"改善":7103,"平均":7104,"歌手":7105,"取得":7106,"關鍵":7107,"價格":7108,"檢查":7109,"小心":7110,"」,<":7111,"重新":7112,"同學":7113,"感動":7114,"傳統":7115,"日下午":7116,"大學":7117,"綜合":7118,"露出":7119,"旅客":7120,"結合":7121,"適合":7122,"危險":7123,"正常":7124,"高中":7125,"有機會":7126,"明星":7127,"階段":7128,"一年":7129,"就在":7130,"總教練":7131,"公尺":7132,"真的很":7133,"首度":7134,"男生":7135,"當場":7136,"空氣":7137,"org6":7138,"鏡頭":7139,"下去":7140,"價值":7141,"常常":7142,"實在":7143,"是因為":7144,"跟著":7145,"呼籲":7146,"一隻":7147,"安排":7148,"保持":7149,"熱烈":7150,"裡面":7151,"也很":7152,"以前":7153,"然後":7154,"經常":7155,"達到":7156,"日上午":7157,"帶來":7158,"父親":7159,"發言":7160,"出的":7161,"跨年":7162,"少女":7163,"毒品":7164,"溝通":7165,"先生":7166,"整體":7167,"出道":7168,"政治":7169,"合約":7170,"主動":7171,"觀光":7172,"然而":7173,"就要":7174,"需求":7175,"助攻":7176,"傷害":7177,"解釋":7178,"坦言":7179,"不用":7180,"許多網友":7181,"董事長":7182,"公斤":7183,"忍不住":7184,"父母":7185,"事實上":7186,"只見":7187,"全國":7188,"愛的":7189,"風格":7190,"成績":7191,"來越":7192,"也將":7193,"拍照":7194,"觀察":7195,"公分":7196,"召開":7197,"性感":7198,"太多":7199,"越來越":7200,"哈哈":7201,"地點":7202,"餐廳":7203,"每年":7204,"一同":7205,"議題":7206,"城市":7207,"公園":7208,"據了解":7209,"在這":7210,"交流":7211,"享受":7212,"經營":7213,"首次":7214,"鼓勵":7215,"專家":7216,"看完":7217,"當選":7218,"登場":7219,"並不":7220,"科技":7221,"社區":7222,"在家":7223,"的好":7224,"平台":7225,"夫妻":7226,"醫療":7227,"萬人":7228,"下一":7229,"他表示":7230,"都很":7231,"手術":7232,"超級":7233,"消費者":7234,"肯定":7235,"為主":7236,"多次":7237,"解決":7238,"更加":7239,"就算":7240,"申請":7241,"的時間":7242,"優惠":7243,"白色":7244,"關心":7245,"看見":7246,"而是":7247,"演藝":7248,"以下":7249,"經理":7250,"黑色":7251,"在一起":7252,"的地方":7253,"並沒有":7254,"懷孕":7255,"質疑":7256,"平常":7257,"網友們":7258,"司機":7259,"報告":7260,"女方":7261,"的她":7262,"球迷":7263,"隨即":7264,"台幣":7265,"並在":7266,"~<":7267,"早上":7268,"見面":7269,"控制":7270,"方向":7271,"成立":7272,"現身":7273,"有關":7274,"聲音":7275,"選舉":7276,"訊息":7277,"上傳":7278,"女人":7279,"意見":7280,"身為":7281,"可能會":7282,"別人":7283,"緊張":7284,"都能":7285,"於是":7286,"眾人":7287,"開幕":7288,"妻子":7289,"得知":7290,"抗議":7291,"狀態":7292,"就可以":7293,"派出":7294,"這一":7295,"每次":7296,"loc9":7297,"瞬間":7298,"免費":7299,"兩個":7300,"基本":7301,"的心":7302,"表情":7303,"位於":7304,"屬於":7305,"禮物":7306,"騎士":7307,"也要":7308,"不只":7309,"實際":7310,"彼此":7311,"出賽":7312,"典禮":7313,"歌曲":7314,"特色":7315,"皮膚":7316,"即使":7317,"一場":7318,"裡的":7319,"紅色":7320,"有的":7321,"大選":7322,"各地":7323,"一路":7324,"一開始":7325,"希望能":7326,"堅持":7327,"性的":7328,"是個":7329,"舞台":7330,"後的":7331,"逐漸":7332,"女星":7333,"事業":7334,"本來":7335,"小朋友":7336,"投入":7337,"形象":7338,"拒絕":7339,"突破":7340,"不錯":7341,"確認":7342,"飯店":7343,"不想":7344,"回來":7345,"變得":7346,"確實":7347,"領先":7348,"發出":7349,"寶寶":7350,"經典賽":7351,"主持人":7352,"降低":7353,"印象":7354,"飾演":7355,"不可":7356,"消防":7357,"品質":7358,"儘管":7359,"一旁":7360,"分手":7361,"說是":7362,"來看":7363,"影片中":7364,"營運":7365,"廣告":7366,"這段":7367,"陸續":7368,"創作":7369,"寵物":7370,"被問":7371,"通知":7372,"勞工":7373,"微博":7374,"但他":7375,"分析":7376,"文章":7377,"專輯":7378,"每個":7379,"無論":7380,"友人":7381,"停車":7382,"趕緊":7383,"辛苦":7384,"感受":7385,"在臉書上":7386,"少年":7387,"修正":7388,"爭議":7389,"值得":7390,"只好":7391,"症狀":7392,"per9":7393,"妹妹":7394,"人生":7395,"做出":7396,"地說":7397,"很好":7398,"任務":7399,"大量":7400,"攝影":7401,"位置":7402,"的問題":7403,"自行":7404,"都要":7405,"收到":7406,"標準":7407,"訪問":7408,"北部":7409,"具有":7410,"回憶":7411,"美食":7412,"法院":7413,"球團":7414,"同志":7415,"寫下":7416,"更有":7417,"!」、「":7418,"醫生":7419,"好像":7420,"是不是":7421,"市民":7422,"還沒":7423,"尊重":7424,"戲劇":7425,"通常":7426,"接觸":7427,"感染":7428,"耶誕":7429,"證實":7430,"她說":7431,"對手":7432,"店家":7433,"身邊":7434,"組織":7435,"還能":7436,"送醫":7437,"曾在":7438,"達成":7439,"車輛":7440,"批評":7441,"真正":7442,"當中":7443,"資源":7444,"風險":7445,"對象":7446,"也可以":7447,"留下":7448,"加強":7449,"方法":7450,"航空":7451,"當下":7452,"行程":7453,"可是":7454,">:":7455,"同意":7456,"坐在":7457,"無奈":7458,"的他":7459,"的事情":7460,"就像":7461,"疾病":7462,"詐騙":7463,"全部":7464,"多數":7465,"」、「<":7466,"開車":7467,"不同的":7468,"提高":7469,"謝謝":7470,"採用":7471,"家長":7472,">~<":7473,"上班":7474,"宣傳":7475,"南部":7476,"為何":7477,"人數":7478,"家中":7479,"快速":7480,"考慮":7481,"重點":7482,"反對":7483,"集團":7484,"也有人":7485,"很有":7486,"合照":7487,"的情況":7488,"的感覺":7489,"都沒有":7490,"可能是":7491,"推薦":7492,"證明":7493,"等人":7494,"靠著":7495,"垃圾":7496,"報案":7497,"條件":7498,"出門":7499,"她們":7500,"放在":7501,"給予":7502,"被害":7503,"閱讀":7504,"智慧":7505,"氣氛":7506,"可愛的":7507,"之下":7508,"一切":7509,"並非":7510,"想法":7511,"內的":7512,"營業":7513,"協商":7514,"紀念":7515,"全新":7516,"記得":7517,"責任":7518,"預算":7519,"建築":7520,"製造":7521,"親自":7522,"主任":7523,"也沒有":7524,"委員會":7525,"人在":7526,"生日":7527,"方便":7528,"辦理":7529,"飲料":7530,"高的":7531,"修法":7532,"放棄":7533,"行政":7534,"不足":7535,"男女":7536,"祝福":7537,"頭髮":7538,"工作人員":7539,"在網路上":7540,"遊客":7541,"不敢":7542,"道歉":7543,"愛情":7544,"汽車":7545,"逮捕":7546,"唯一":7547,"統計":7548,"監視":7549,"變化":7550,"精彩":7551,"金額":7552,"快樂":7553,"豐富":7554,"同性":7555,"人類":7556,"緊急":7557,"溫暖":7558,"心的":7559,"聖誕節":7560,"即可":7561,"加油":7562,"球季":7563,"符合":7564,"聲明":7565,"購物":7566,"紛紛留言":7567,"喜愛":7568,"參賽":7569,"得分":7570,"坦承":7571,"重要的":7572,"退休":7573,"球場":7574,"練習":7575,"慢慢":7576,"畢業":7577,"這位":7578,"銀行":7579,"共有":7580,"興趣":7581,"出去":7582,"經紀人":7583,"千萬":7584,"或許":7585,"站在":7586,"藉由":7587,"完美":7588,"接獲":7589,"她也":7590,"店員":7591,"恢復":7592,"不知":7593,"旁邊":7594,"看著":7595,"房間":7596,"月底":7597,"有沒有":7598,"不少網友":7599,"介紹":7600,"平時":7601,"社群":7602,"數據":7603,"旅行":7604,"輕鬆":7605,"速度":7606,"並未":7607,"公社":7608,"開發":7609,"創意":7610,"尚未":7611,"有效":7612,"發揮":7613,"舒服":7614,"救援":7615,"會在":7616,"區域":7617,"好奇":7618,"組成":7619,"偶像":7620,"多元":7621,"有著":7622,"累積":7623,"面的":7624,"患者":7625,"營養":7626,"話題":7627,"不太":7628,"經歷":7629,"受訪時":7630,"家屬":7631,"帶領":7632,"......":7633,"剛好":7634,"才是":7635,"這件":7636,"有趣":7637,"投票":7638,"名的":7639,"捷運":7640,"模式":7641,"考量":7642,"三分":7643,"就好":7644,"法律":7645,"爭取":7646,"路上":7647,"的美":7648,"會讓":7649,"這名":7650,"也被":7651,"審查":7652,"程度":7653,"飛機":7654,"小姐":7655,"打開":7656,"例如":7657,"廠商":7658,"應該是":7659,"特地":7660,"作業":7661,"歌迷":7662,"貼文":7663,"過的":7664,"org7":7665,"性侵":7666,"最大的":7667,"程序":7668,"名字":7669,"排名":7670,"販售":7671,"失去":7672,"打算":7673,"例一":7674,"年底":7675,"時期":7676,"全身":7677,"最多":7678,"困難":7679,"上前":7680,"上網":7681,"主辦":7682,"存在":7683,"國人":7684,"穿上":7685,"違反":7686,"刺激":7687,"就連":7688,"年紀":7689,"衝突":7690,"一邊":7691,"情形":7692,"競爭":7693,"統一":7694,"電子":7695,"興奮":7696,"面臨":7697,"類似":7698,"但在":7699,"半年":7700,"大賽":7701,"報警":7702,"她在":7703,"目的":7704,"有多":7705,"生產":7706,"的高":7707,"職棒":7708,"貼出":7709,"不起":7710,"離婚":7711,"例一休":7712,"愛心":7713,"公共":7714,"懷疑":7715,"時許":7716,"讓我":7717,"版本":7718,"發言人":7719,"客人":7720,"難以":7721,"兒童":7722,"回答":7723,"料理":7724,"最好":7725,"甜蜜":7726,"力的":7727,"大批":7728,"派出所":7729,"不再":7730,"方案":7731,"見到":7732,"拿出":7733,"外野":7734,"家裡":7735,"笑翻":7736,"中央":7737,"婦人":7738,"全面":7739,"家的":7740,"檢方":7741,"移送":7742,"資格":7743,"不少人":7744,"下車":7745,"外型":7746,"讓網友":7747,"開玩":7748,"擴大":7749,"短短":7750,"費用":7751,"吃飯":7752,"銷售":7753,"偵辦":7754,"外交":7755,"東北":7756,"氣溫":7757,"總經理":7758,"從小":7759,"幾天":7760,"loc10":7761,"熱烈討論":7762,"不了":7763,"我是":7764,"睡覺":7765,"一例一休":7766,"婚禮":7767,"對話":7768,"永遠":7769,"當初":7770,"障礙":7771,"本次":7772,"顏色":7773,"體育":7774,"園區":7775,"正確":7776,"車站":7777,"網友在":7778,"瘋狂":7779,"廁所":7780,"還不":7781,"丈夫":7782,"否認":7783,"得獎":7784,"弟弟":7785,"爆出":7786,"維護":7787,"評估":7788,"推特":7789,"預期":7790,"女神":7791,"看看":7792,"車禍":7793,"一家":7794,"也說":7795,"做好":7796,"業務":7797,"勇士":7798,"很難":7799,"他們的":7800,"中午":7801,"出生":7802,"掀起":7803,"等等":7804,"電腦":7805,"壘打":7806,"情侶":7807,"若是":7808,"道路":7809,"演藝圈":7810,"一種":7811,"主場":7812,"劇情":7813,"日凌晨":7814,"衛生":7815,"per10":7816,"監視器":7817,"實施":7818,"熱情":7819,"貢獻":7820,"先是":7821,"大眾":7822,"建立":7823,"案件":7824,"結束後":7825,"心理":7826,"我國":7827,"浪漫":7828,"職業":7829,"的朋友":7830,"爆發":7831,"清潔":7832,"訊後":7833,"教授":7834,"滿足":7835,"掌握":7836,"漂亮":7837,"土地":7838,"成本":7839,"特殊":7840,"意思":7841,"接下來":7842,"肚子":7843,"大方":7844,"觀看":7845,"救護":7846,"機率":7847,"真實":7848,"都可以":7849,"也沒":7850,"地址":7851,"破壞":7852,"迎接":7853,"售價":7854,"拿到":7855,"時的":7856,"滿滿":7857,"車上":7858,"大型":7859,"呼吸":7860,"總冠軍":7861,"這隻":7862,"建設":7863,"進口":7864,"台灣":7865,"那個":7866,"被問到":7867,"相處":7868,":「<":7869,"上市":7870,"不一樣":7871,"後續":7872,"性愛":7873,"擊敗":7874,"金馬":7875,"全力":7876,"動畫":7877,"可見":7878,"太陽":7879,"實力":7880,"負擔":7881,"重大":7882,"小組":7883,"運用":7884,"天的":7885,"局長":7886,"都沒":7887,"一個人":7888,"飛行":7889,"嘗試":7890,"必要":7891,"生態":7892,"男方":7893,"全壘打":7894,"創造":7895,"奧運":7896,"年齡":7897,"測試":7898,"也表示":7899,"指數":7900,"這項":7901,"流行":7902,"第四":7903,"創新":7904,"抵達":7905,"居民":7906,"意義":7907,"收入":7908,"蛋糕":7909,"談到":7910,"制度":7911,"多年":7912,"台北":7913,"機關":7914,"陪伴":7915,"最後一":7916,"法官":7917,"長的":7918,"一定會":7919,"時常":7920,"樣子":7921,"等到":7922,"假日":7923,"限制":7924,"隊友":7925,"被害人":7926,"保養":7927,"承諾":7928,"一陣":7929,"上場":7930,"而已":7931,"出面":7932,"判決":7933,"各界":7934,"獨立":7935,"通報":7936,"驚喜":7937,"子的":7938,"專案":7939,"想像":7940,"計程":7941,"設置":7942,"保險":7943,"我覺得":7944,"清晨":7945,"人物":7946,"近來":7947,"真的是":7948,"公益":7949,"因應":7950,"整理":7951,"校園":7952,"獎金":7953,"相同":7954,"執政":7955,"昨天":7956,"的生活":7957,"釐清":7958,"飼主":7959,"概念":7960,"罪嫌":7961,"的影片":7962,"畢竟":7963,"的機會":7964,"飲食":7965,"眾多":7966,"的民眾":7967,"補助":7968,"所幸":7969,"這裡":7970,"用的":7971,"但仍":7972,"支援":7973,"這場":7974,"?」、「":7975,"形成":7976,"拍到":7977,"酒駕":7978,"縣市":7979,"外套":7980,"當年":7981,"不小心":7982,"將近":7983,"味道":7984,"登上":7985,"說法":7986,"搞笑":7987,"讓你":7988,"意識":7989,"辦公":7990,"口味":7991,"多少":7992,"計程車":7993,"認真":7994,"數量":7995,"大樓":7996,"等待":7997,"帥氣":7998,"哥哥":7999,"就被":8000,"一出":8001,"十足":8002,"互相":8003,"依舊":8004,"指控":8005,"人家":8006,"固定":8007,"我們的":8008,"不然":8009,"科學":8010,"美麗":8011,"螢幕":8012,"進步":8013,"頒獎":8014,"機構":8015,"選人":8016,"玻璃":8017,"不論":8018,"立場":8019,"以往":8020,"報名":8021,"已有":8022,"平權":8023,"的模樣":8024,"在今年":8025,"引來":8026,"的手":8027,"上映":8028,"共識":8029,"社團":8030,"我要":8031,"大約":8032,"才發現":8033,"搭乘":8034,"會不會":8035,"權益":8036,"措施":8037,"黨團":8038,"上一":8039,"國中":8040,"本身":8041,"給我":8042,"超商":8043,"主管":8044,"停止":8045,"線上":8046,"釋出":8047,"很多人":8048,"不及":8049,"姿勢":8050,"讓粉絲":8051,"項目":8052,"改革":8053,"下方":8054,"回歸":8055,"保留":8056,"小的":8057,"工具":8058,"都被":8059,"高度":8060,"公聽":8061,"的狀況":8062,"中文":8063,"史上":8064,"核災":8065,"女主角":8066,"聊天":8067,"賽後":8068,"冬天":8069,"大讚":8070,"錄影":8071,"保障":8072,"劇中":8073,"原則":8074,"帶回":8075,"同時也":8076,"依照":8077,"全案":8078,"服裝":8079,"還有人":8080,"出發":8081,"基礎":8082,"有許多":8083,"秘書":8084,"同步":8085,"發行":8086,"重視":8087,"綜合報導":8088,"的關係":8089,"不停":8090,"提前":8091,"有時候":8092,"一事":8093,"元的":8094,"勝利":8095,"廣場":8096,"欣賞":8097,"。「":8098,"可惜":8099,"不夠":8100,"因素":8101,"水果":8102,"公聽會":8103,"有所":8104,"每個人":8105,"課程":8106,"卻被":8107,"法案":8108,"承認":8109,"設備":8110,"來源":8111,"害怕":8112,"藥物":8113,"起訴":8114,"長大":8115,"即日起":8116,"溫度":8117,"!!":8118,"年級":8119,"規模":8120,"比例":8121,"範圍":8122,">」、「":8123,"則說":8124,"族群":8125,"中間":8126,"大概":8127,"罹患":8128,"肌肉":8129,"理由":8130,"床上":8131,"戀愛":8132,"現象":8133,"的前":8134,"專頁":8135,"」。<":8136,"一間":8137,"播出":8138,"看過":8139,"找來":8140,"激烈":8141,"那些":8142,"限定":8143,"我想":8144,"睡眠":8145,"詳細":8146,"金融":8147,"限量":8148,"乘客":8149,"保育":8150,"巨人":8151,"戰鬥":8152,"公車":8153,"接近":8154,"肌膚":8155,"身高":8156,"不見":8157,"更新":8158,"路口":8159,"強烈":8160,"思考":8161,"我就":8162,"臨時":8163,"魅力":8164,"公告":8165,"有時":8166,"哪裡":8167,"時刻":8168,"焦點":8169,"跟我":8170,"不佳":8171,"志工":8172,"當作":8173,"笑容":8174,"冬季":8175,"幸運":8176,"的原因":8177,"機器":8178,"組合":8179,"門口":8180,"陷入":8181,"仍然":8182,"則表示":8183,"幾年":8184,"拿著":8185,"死者":8186,"隔天":8187,"卻在":8188,"是一個":8189,"稱為":8190,"隨時":8191,"但她":8192,"健身":8193,"動力":8194,"旗下":8195,"英文":8196,"過來":8197,"尋找":8198,"據悉":8199,"新台幣":8200,"檢察":8201,"熱門":8202,"的畫面":8203,"直言":8204,"領域":8205,"帶動":8206,"平安":8207,"能量":8208,"照片中":8209,"不在":8210,"舉動":8211,"防禦":8212,"阿嬤":8213,"加班":8214,"--":8215,"信心":8216,"奪下":8217,"拍戲":8218,"發布":8219,"戀情":8220,"的工作":8221,"趕快":8222,"而言":8223,"自動":8224,"長達":8225,"關懷":8226,"了一個":8227,"熱議":8228,"不適":8229,"大多":8230,"後方":8231,"補充":8232,"」!":8233,"單身":8234,"大幅":8235,"暫時":8236,"涉嫌":8237,"籃球":8238,"難得":8239,"低溫":8240,"季後":8241,"聯繫":8242,"角度":8243,"設施":8244,"青年":8245,"基地":8246,"打出":8247,"入圍":8248,"出國":8249,"大部分":8250,"而在":8251,"戰力":8252,"最好的":8253,"自我":8254,"色的":8255,"黃金":8256,"扮演":8257,"下載":8258,"對外":8259,"排除":8260,"日於":8261,"環保":8262,"一片":8263,"失誤":8264,"成果":8265,"日的":8266,"法人":8267,"玩具":8268,"隊長":8269,"住在":8270,"即便":8271,"相對":8272,"還說":8273,"酒店":8274,"大家都":8275,"巨蛋":8276,"底下":8277,"迅速":8278,"年輕人":8279,"夢想":8280,"我會":8281,"管制":8282,"街頭":8283,"總統大選":8284,"民主":8285,"聯絡":8286,"就醫":8287,"權證":8288,"和平":8289,"寶貝":8290,"成了":8291,"協議":8292,"大聲":8293,"感受到":8294,"甜美":8295,"進去":8296,"出現在":8297,"正面":8298,"loc11":8299,"時代力量":8300,"生的":8301,"日前在":8302,"自拍":8303,"per11":8304,"主打":8305,"日常":8306,"爆紅":8307,"取消":8308,"周邊":8309,"娛樂":8310,"年後":8311,"裝置":8312,"工廠":8313,"或者":8314,"接到":8315,"路線":8316,"優勢":8317,"克力":8318,"幾個":8319,"更好":8320,"足球":8321,"創下":8322,"各項":8323,"基金":8324,"徒刑":8325,"攻下":8326,"深刻":8327,"也都":8328,"便利":8329,"化的":8330,"抹茶":8331,"指揮":8332,"為止":8333,"病毒":8334,"關於":8335,"包裝":8336,"威脅":8337,"雙手":8338,"內部":8339,"新年":8340,"無人":8341,"薪資":8342,"認定":8343,"大小":8344,"記憶":8345,"依然":8346,"心裡":8347,"確保":8348,"一輛":8349,"他是":8350,"形容":8351,"半場":8352,"國民":8353,"新人":8354,"該名":8355,"事發":8356,"的水":8357,"細節":8358,"親子":8359,"近年":8360,"不料":8361,"言論":8362,"爆料公社":8363,"神經":8364,"給他":8365,"真是":8366,"行經":8367,"經紀公司":8368,"司法":8369,"恐怕":8370,"備受":8371,"吃的":8372,"否則":8373,"澄清":8374,"上面":8375,"明天":8376,"流感":8377,"看好":8378,"部落":8379,"不如":8380,"初步":8381,"協會":8382,"律師":8383,"打點":8384,"排隊":8385,"本人":8386,"體重":8387,"導彈":8388,"心中":8389,"有了":8390,"上路":8391,"主演":8392,"也不會":8393,"夜市":8394,"的重要":8395,"稱讚":8396,"上漲":8397,"不多":8398,"並將":8399,"了吧":8400,"有個":8401,"正妹":8402,"敏感":8403,"觀念":8404,"許多粉絲":8405,"上任":8406,"傻眼":8407,"貼心":8408,"獨特":8409,"自信":8410,"讓大家":8411,"難過":8412,"報導指出":8413,"但卻":8414,"慶祝":8415,"爸媽":8416,"眼鏡":8417,"禁止":8418,"錯誤":8419,"預告":8420,"候選人":8421,"白天":8422,"高潮":8423,"很大":8424,"景點":8425,"算是":8426,"事故":8427,"溫馨":8428,"藉此":8429,"院長":8430,"前來":8431,"協調":8432,"民調":8433,"犯罪":8434,"誇張":8435,"警方調查":8436,"食材":8437,"開玩笑":8438,"名為":8439,"專屬":8440,"小時候":8441,"拍下":8442,"獎項":8443,"經費":8444,"轎車":8445,"還可以":8446,"目前已":8447,"國小":8448,"說話":8449,"違規":8450,"預估":8451,"人口":8452,"句話":8453,"巧克力":8454,"年終":8455,"模特":8456,"現代":8457,"自主":8458,"雜誌":8459,"婚姻平權":8460,"又有":8461,"從事":8462,"挑選":8463,"此事":8464,"二壘":8465,"低調":8466,"眼神":8467,"身心":8468,"隊伍":8469,"應該要":8470,"沒辦法":8471,"!」<":8472,"強化":8473,"仍有":8474,"住民":8475,"是由":8476,"厲害":8477,"操作":8478,"日子":8479,"頭部":8480,"甚至還":8481,"尤其是":8482,"他認為":8483,"居然":8484,"恐怖":8485,"物品":8486,"追求":8487,"辦公室":8488,"傷勢":8489,"很快":8490,"打電話":8491,"約會":8492,"粉絲專頁":8493,"在外":8494,"這部":8495,"採取":8496,"者的":8497,"也就是":8498,"代言":8499,"再加上":8500,"宣告":8501,"發動":8502,"指定":8503,"早餐":8504,"參考":8505,"戰機":8506,"月份":8507,"出一":8508,"故意":8509,"相較":8510,"依法":8511,"首先":8512,"乾淨":8513,"夥伴":8514,"春節":8515,"是要":8516,"但我":8517,"寫道":8518,"消失":8519,"趨勢":8520,"但也":8521,"嫌犯":8522,"舒適":8523,"不容易":8524,"延伸":8525,"彷彿":8526,"預防":8527,"麵包":8528,"不願":8529,"加盟":8530,"合法":8531,"是什麼":8532,"牠的":8533,"理事":8534,"警員":8535,"org8":8536,"便宜":8537,"海外":8538,"聯合":8539,"背景":8540,"警方表示":8541,"大會":8542,"目擊":8543,"萬美元":8544,"追蹤":8545,"們的":8546,"啟動":8547,"在場":8548,"害羞":8549,"年代":8550,"心臟":8551,"武器":8552,"滿意":8553,"車子":8554,"一旦":8555,"困擾":8556,"模特兒":8557,"生物":8558,"看來":8559,"一件":8560,"不明":8561,"代理":8562,"登記":8563,"進而":8564,"不久":8565,"僅有":8566,"所謂":8567,"氛圍":8568,"還好":8569,"回去":8570,"提告":8571,"軍事":8572,"也曾":8573,"可以看到":8574,"姓女子":8575,"抱著":8576,"衝擊":8577,"過度":8578,"並無":8579,"同事":8580,"招牌":8581,"一口":8582,"並不是":8583,"主委":8584,"多了":8585,"多人":8586,"尷尬":8587,"弱勢":8588,"仔細":8589,"部位":8590,"利益":8591,"指導":8592,"熟悉":8593,"驚訝":8594,"伴侶":8595,"友善":8596,"敲出":8597,"見的":8598,"視為":8599,"身穿":8600,"近年來":8601,"運輸":8602,"是否有":8603,"公務":8604,"卻是":8605,"受害":8606,"月初":8607,"繳出":8608,"自己是":8609,"媒報導":8610,"我很":8611,"短暫":8612,"資金":8613,"連勝":8614,"遺憾":8615,"片中":8616,"自殺":8617,"面前":8618,"一半":8619,"做的":8620,"對著":8621,"擊出":8622,"用餐":8623,"將他":8624,"意願":8625,"推廣":8626,"老人":8627,"能在":8628,"舞蹈":8629,"保送":8630,"型的":8631,"車的":8632,"此戰":8633,"過了":8634,"人民幣":8635,"但其實":8636,"山區":8637,"時表示":8638,"深夜":8639,"鄰居":8640,"點閱":8641,"仍是":8642,"同仁":8643,"就讀":8644,"百貨":8645,"究竟":8646,"視覺":8647,"依據":8648,"這時":8649,"還被":8650,"綠色":8651,"中華":8652,"交換":8653,"多的":8654,"戰績":8655,"權利":8656,"此時":8657,"金馬獎":8658,"禮服":8659,"各式":8660,"女網友":8661,"攝取":8662,"早已":8663,"野生":8664,"兩位":8665,"心疼":8666,"只剩":8667,"吃到":8668,"整合":8669,"下降":8670,"也可":8671,"放鬆":8672,"旅館":8673,"記錄":8674,"投球":8675,"秘密":8676,"義大":8677,"高溫":8678,"打球":8679,"是很":8680,"有很多":8681,"研發":8682,"第一個":8683,"另一半":8684,"崩潰":8685,"生氣":8686,"盡量":8687,"解散":8688,"路人":8689,"車主":8690,"退出":8691,"這首":8692,"開啟":8693,"差點":8694,">」。":8695,"不可能":8696,"仍在":8697,"休假":8698,"全世界":8699,"失敗":8700,"的球員":8701,"的行為":8702,"的東西":8703,"兩岸":8704,"化妝":8705,"星期":8706,"看得":8707,">..":8708,"一大":8709,"局上":8710,"語言":8711,"以免":8712,"痛苦":8713,"賽季":8714,"防守":8715,"晉級":8716,"胸部":8717,"對抗":8718,"撞上":8719,"營收":8720,"血管":8721,"促進":8722,"新高":8723,"痛批":8724,"不合":8725,"亮眼":8726,"告知":8727,"展示":8728,"演技":8729,"從來":8730,"是我":8731,"果然":8732,"查獲":8733,"的網友":8734,"移動":8735,"軟體":8736,"各國":8737,"地球":8738,"強制":8739,"薪水":8740,"藍色":8741,"了嗎":8742,"培養":8743,"成熟":8744,"一條":8745,"內心":8746,"出爐":8747,"危機":8748,"現金":8749,"的樣子":8750,"加速":8751,"樂園":8752,"激動":8753,"便當":8754,"各自":8755,"提案":8756,"象徵":8757,"賠償":8758,"還沒有":8759,"例行":8760,"出手":8761,"刻意":8762,"尖叫":8763,"認同":8764,"出來的":8765,"太空":8766,"攜帶":8767,"暴力":8768,"火箭":8769,"臉上":8770,"元素":8771,"回饋":8772,"官員":8773,"條例":8774,"檢驗":8775,"男星":8776,"部份":8777,"主辦單位":8778,"也因此":8779,"人體":8780,"可說是":8781,"喝酒":8782,"留在":8783,"鎖定":8784,">,「":8785,"子宮":8786,"一連":8787,"延長":8788,"我也":8789,"機制":8790,"等級":8791,"聯賽":8792,"不已":8793,"前的":8794,"就不":8795,"落實":8796,"讓民眾":8797,"停車場":8798,"人才":8799,"到案":8800,"單純":8801,"即時":8802,"屆時":8803,"的不":8804,"背後":8805,"設定":8806,"遊行":8807,"忘記":8808,"涉及":8809,"的消息":8810,"這也是":8811,"這件事":8812,"出了":8813,"地下":8814,"場比賽":8815,"最快":8816,"獨家":8817,"私下":8818,"一份":8819,"局下":8820,"影像":8821,"流浪":8822,"疫苗":8823,"穿搭":8824,"點多":8825,"親密":8826,"違法":8827,"一個月":8828,"現在的":8829,"一人":8830,"大膽":8831,"天然":8832,"好幾":8833,"官網":8834,"抱怨":8835,"採訪":8836,"甜點":8837,"用戶":8838,"預測":8839,"動態":8840,"多久":8841,"延續":8842,"技巧":8843,"會員":8844,"校長":8845,"為此":8846,"試圖":8847,"躺在":8848,"陣容":8849,"三壘":8850,"不治":8851,"嘴巴":8852,"外出":8853,"實驗":8854,"空軍":8855,"良好":8856,"資深":8857,"食用":8858,"以外":8859,"參觀":8860,"命中":8861,"花了":8862,"中職":8863,"始終":8864,"展覽":8865,"日出席":8866,"現實":8867,"的外":8868,".<":8869,">。<":8870,"戶外":8871,"接收":8872,"自身":8873,"裝備":8874,"做了":8875,"後面":8876,"效力":8877,"早在":8878,"男孩":8879,"領導":8880,"季風":8881,"把握":8882,"海軍":8883,"直說":8884,"肇事":8885,"農曆":8886,"醫學":8887,"人力":8888,"內衣":8889,"姊妹":8890,"帶給":8891,"的女":8892,"的部分":8893,"簽下":8894,"倒數":8895,"工業":8896,"幽默":8897,"新鮮":8898,"獨自":8899,"議會":8900,"逗趣":8901,"面積":8902,"也有網友":8903,"對決":8904,"屁股":8905,"海洋":8906,"路邊":8907,"就是要":8908,"一看":8909,"宣導":8910,"度的":8911,"送到":8912,">」<":8913,"~~":8914,"強的":8915,"得很":8916,"樂團":8917,"英雄":8918,"蘋果":8919,"身份":8920,"還是要":8921,"人們":8922,"數位":8923,"作用":8924,"儀式":8925,"告白":8926,"房子":8927,"這款":8928,"來了":8929,"分為":8930,"唱歌":8931,"溫泉":8932,"車道":8933,"減肥":8934,"發射":8935,"間的":8936,"專訪":8937,"急救":8938,"按摩":8939,"期望":8940,"美女":8941,"的情況下":8942,"檢察官":8943,"不舒服":8944,"出口":8945,"數字":8946,"火鍋":8947,"結構":8948,"自稱":8949,"這對":8950,"東北季風":8951,"中南部":8952,"明明":8953,"對方的":8954,"執行長":8955,"上台":8956,"才剛":8957,"漸漸":8958,"球星":8959,"男主角":8960,"進攻":8961,"部門":8962,"震驚":8963,"頻頻":8964,"本屆":8965,"決議":8966,"血液":8967,"設計師":8968,"日期":8969,"流傳":8970,"福利":8971,"美的":8972,"羨慕":8973,"電動":8974,"秘書長":8975,"他人":8976,"列車":8977,"手指":8978,"才知道":8979,"本土":8980,"計劃":8981,"霸氣":8982,"的態度":8983,"讓他們":8984,"國外網站":8985,"以上的":8986,"兩年":8987,"打破":8988,"日圓":8989,"樣的":8990,"深受":8991,"男童":8992,"票價":8993,"陽光":8994,"一對":8995,"入選":8996,"姐姐":8997,"終場":8998,"驚人":8999,"會被":9000,"比起":9001,"氣質":9002,"漫畫":9003,"看不":9004,"被網友":9005,"per12":9006,"其實是":9007,"一時":9008,"休閒":9009,"各位":9010,"有可能":9011,"脂肪":9012,"讓自己":9013,"小熊":9014,"正是":9015,"理解":9016,"過於":9017,"如果你":9018,"修改":9019,"各大":9020,"大喊":9021,"太大":9022,"循環":9023,"證據":9024,"陣子":9025,"亮相":9026,"區的":9027,"店內":9028,"策略":9029,"鄉民":9030,"並於":9031,"中信":9032,"答案":9033,"簽名":9034,"要在":9035,"不禁":9036,"不行":9037,"付出":9038,"但因為":9039,"全家":9040,"塑膠":9041,"平衡":9042,"描述":9043,"有限":9044,"派對":9045,"不管是":9046,"不妨":9047,"支付":9048,"病人":9049,"之中":9050,"也希望":9051,"人潮":9052,"企圖":9053,"可望":9054,"成的":9055,"長輩":9056,"三振":9057,"台上":9058,"在於":9059,"場面":9060,"早就":9061,"有助":9062,"選秀":9063,"防禦率":9064,"換上":9065,"洗澡":9066,"的表現":9067,"看似":9068,"贏得":9069,"過世":9070,"人事":9071,"場地":9072,"就這樣":9073,"連結":9074,"頻道":9075,"世界大賽":9076,"一整":9077,"大生":9078,"定期":9079,"想起":9080,"攻勢":9081,"毫無":9082,"病患":9083,"上去":9084,"落後":9085,"驚呼":9086,"供稱":9087,"助理":9088,"求婚":9089,"百萬":9090,"計算":9091,"決賽":9092,"看法":9093,"上季":9094,"loc12":9095,"下班":9096,"不慎":9097,"使得":9098,"嚇得":9099,"妳的":9100,"巡邏":9101,"度過":9102,"所長":9103,"搶救":9104,"最低":9105,"行銷":9106,"面上":9107,"喊話":9108,"感恩":9109,"打扮":9110,"蛋白":9111,"走到":9112,"原住民":9113,"奪冠":9114,"疼痛":9115,"長相":9116,"難道":9117,"預警":9118,"騎車":9119,"只會":9120,"回收":9121,"家族":9122,"寫著":9123,"就像是":9124,"搜索":9125,"規格":9126,"輔導":9127,"推出的":9128,"以為是":9129,"社群網站":9130,"一處":9131,"當成":9132,"住處":9133,"傷口":9134,"億美元":9135,"劇組":9136,"好了":9137,"我不":9138,"所有人":9139,"追查":9140,"事務":9141,"理念":9142,"理想":9143,"貿易":9144,"內褲":9145,"公佈":9146,"就業":9147,"檢討":9148,"每日":9149,"原先":9150,"場景":9151,"嬰兒":9152,"提早":9153,"收視":9154,"口感":9155,"商業":9156,"明確":9157,"營造":9158,"上演":9159,"下次":9160,"地震":9161,"大腿":9162,"差距":9163,"支安打":9164,"樂觀":9165,"靠近":9166,"不對":9167,"充分":9168,"全隊":9169,"到現在":9170,"商店":9171,"實現":9172,"獲報":9173,"孩子的":9174,"親友":9175,"但因":9176,"引進":9177,"牛肉":9178,"綜藝":9179,"自從":9180,"除此":9181,"頭的":9182,"顯得":9183,"還是會":9184,"自由球員":9185,"健保":9186,"合體":9187,"後就":9188,"昨日":9189,"森林":9190,"歷經":9191,"的支持":9192,"規則":9193,"住宅":9194,"元旦":9195,"尋求":9196,"缺乏":9197,"具備":9198,"送給":9199,"馬拉":9200,"報到":9201,"大陸":9202,"校方":9203,"此役":9204,"警局":9205,"加碼":9206,"微笑":9207,"半部":9208,"地上":9209,"教學":9210,"日本":9211,"脖子":9212,"開季":9213,"他命":9214,"保證":9215,"引擎":9216,"我在":9217,"是最":9218,"時光":9219,"歡樂":9220,"舉辦的":9221,"之間的":9222,"很大的":9223,"指標":9224,"攜手":9225,"日表示":9226,"檢舉":9227,"航母":9228,"重量":9229,"門市":9230,"喜歡的":9231,"力挺":9232,"如同":9233,"憂鬱":9234,"用心":9235,"異常":9236,"能讓":9237,"覺得很":9238,"電視劇":9239,"一顆":9240,"大使":9241,"好手":9242,"朝野":9243,"週年":9244,"理事長":9245,"優質":9246,"培訓":9247,"民國":9248,"神秘":9249,"賽前":9250,"黨產":9251,"三星":9252,"兩天":9253,"守備":9254,"戴著":9255,"獲利":9256,"過年":9257,"開打":9258,"高興":9259,"除此之外":9260,"奇怪":9261,"的比賽":9262,"部長":9263,"實在太":9264,"是有":9265,"煙火":9266,"颱風":9267,"但還是":9268,"獎勵":9269,"足夠":9270,"阻止":9271,"供應":9272,"個小時":9273,"優秀":9274,"前進":9275,"回覆":9276,"大笑":9277,"就已經":9278,"散步":9279,"通車":9280,"到來":9281,"民間":9282,"的就是":9283,"監督":9284,"房屋":9285,"犀牛":9286,"癌症":9287,"的設計":9288,"細胞":9289,"過敏":9290,"門票":9291,"在地上":9292,"全程":9293,"相機":9294,"籃網":9295,"青春":9296,"表示自己":9297,"頒獎典禮":9298,"但這":9299,"判斷":9300,"則在":9301,"是為了":9302,"植物":9303,"複雜":9304,"調閱":9305,"跑到":9306,"分別是":9307,">!":9308,"帳號":9309,"接連":9310,"每週":9311,"知識":9312,"一致":9313,"則有":9314,"剛剛":9315,"材質":9316,"活潑":9317,"女童":9318,"應用":9319,"療癒":9320,"鼻子":9321,"不幸":9322,"就開始":9323,"市集":9324,"成分":9325,"殺人":9326,"答應":9327,"西裝":9328,"送往":9329,"媒體報導":9330,"引發網友":9331,"根本是":9332,"也因為":9333,"公主":9334,"姊姊":9335,"客戶":9336,"對戰":9337,"聰明":9338,"一群":9339,"可怕":9340,"春訓":9341,"牛奶":9342,"處於":9343,"領養":9344,"這次的":9345,"不需要":9346,"主力":9347,"取代":9348,"單曲":9349,"成就":9350,"之處":9351,"具體":9352,"娃娃":9353,"手上":9354,"查詢":9355,"示範":9356,"說出":9357,"說要":9358,"性別":9359,"的聲音":9360,"研判":9361,"一旁的":9362,"不動":9363,"前後":9364,"指甲":9365,"海域":9366,"熱鬧":9367,"馬拉松":9368,"位在":9369,"天天":9370,"期盼":9371,"氣勢":9372,"的過程":9373,"自家":9374,"陰道":9375,"顧客":9376,"不時":9377,"再來":9378,"單場":9379,"帶有":9380,"的故事":9381,"行車":9382,"送出":9383,"分別為":9384,"也許":9385,"地位":9386,"對我":9387,"帳戶":9388,"截至":9389,"有什麼":9390,"用品":9391,"起床":9392,"錯過":9393,"紛紛表示":9394,"討厭":9395,"說道":9396,"部隊":9397,"之際":9398,"圖片":9399,"指示":9400,"空中":9401,"質詢":9402,"一臉":9403,"太過":9404,"情感":9405,"決心":9406,"的確":9407,"禮拜":9408,"逃逸":9409,"開出":9410,"其餘":9411,"包包":9412,"期徒刑":9413,"笑稱":9414,"診所":9415,"陌生":9416,"出局":9417,"女的":9418,"的那":9419,"設立":9420,"詐欺":9421,"跑步":9422,"麻煩":9423,"見面會":9424,"外觀":9425,"天使":9426,"日在臉書":9427,"星人":9428,"湯圓":9429,"耳朵":9430,"逆轉":9431,"人選":9432,"半身":9433,"安心":9434,"感冒":9435,"核心":9436,"犯案":9437,"萬聖":9438,"超越":9439,"鬼鬼":9440,"/<":9441,"作戰":9442,"千元":9443,"嚴格":9444,"奶奶":9445,"按照":9446,"搶先":9447,"歧視":9448,"評論":9449,"上了":9450,"下周":9451,"優先":9452,"公路":9453,"最重要":9454,"輩子":9455,"集中":9456,"召開記者會":9457,"介入":9458,"冷氣":9459,"含有":9460,"周年":9461,"宛如":9462,"相比":9463,"看出":9464,"風波":9465,"上衣":9466,"估計":9467,"勇敢":9468,"少棒":9469,"秋冬":9470,"最高的":9471,"核災食品":9472,"人工":9473,"升級":9474,"感嘆":9475,"這張":9476,"乖乖":9477,"分之":9478,"單品":9479,"熱愛":9480,"org9":9481,"推特上":9482,"五月":9483,"冷空氣":9484,"每一":9485,"特定":9486,"真相":9487,"救護車":9488,"全數":9489,"對他":9490,"很久":9491,"擁抱":9492,"日舉行":9493,"行李":9494,"可以在":9495,"報導請":9496,"」、":9497,"前方":9498,"守護":9499,"洋裝":9500,"深入":9501,"爆炸":9502,"的愛":9503,"的經驗":9504,"節奏":9505,"不喜歡":9506,"大獎":9507,"月中":9508,"臉部":9509,"酒測":9510,"投資人":9511,"另一個":9512,"外表":9513,"聚集":9514,"認證":9515,"希望大家":9516,"節目中":9517,"有些人":9518,"吸收":9519,"太太":9520,"女優":9521,"巡迴":9522,"排行":9523,"是以":9524,"未能":9525,"第一名":9526,"防止":9527,"場上":9528,"女學生":9529,"對上":9530,"年多":9531,"往往":9532,"稍微":9533,"遭遇":9534,"默默":9535,"大三":9536,"失望":9537,"隊員":9538,"領取":9539,"類的":9540,"引起網友":9541,"推薦閱讀":9542,"做到":9543,"偶爾":9544,"合併":9545,"學會":9546,"審理":9547,"幸好":9548,"氣得":9549,"現行":9550,"談話":9551,"自己在":9552,"點閱下方":9553,"手臂":9554,"氣象":9555,"發起":9556,"的車":9557,"精緻":9558,"診斷":9559,"賣場":9560,"完全不":9561,"更多的":9562,"完整報導請":9563,"同性婚姻":9564,"完整報導請點閱下方":9565,"全民":9566,"兩隻":9567,"升息":9568,"嘉賓":9569,"客家":9570,"想說":9571,"機票":9572,"途中":9573,"信任":9574,"公投":9575,"分泌":9576,"專注":9577,"約有":9578,"被發現":9579,"見狀":9580,"歡迎加入":9581,"選舉人":9582,"上訴":9583,"不當":9584,"人都":9585,"來回":9586,"南下":9587,"政黨":9588,"最重要的":9589,"簡直":9590,"適應":9591,"餐點":9592,"夫妻倆":9593,"失控":9594,"工會":9595,"平日":9596,"損失":9597,"曬出":9598,"會長":9599,"溫柔":9600,"碰到":9601,"細菌":9602,"附近的":9603,"台下":9604,"夢幻":9605,"文字":9606,"正義":9607,"水準":9608,"版的":9609,"行駛":9610,"表明":9611,">「<":9612,"傳聞":9613,"光是":9614,"又是":9615,"基因":9616,"有一個":9617,"第五":9618,"線條":9619,"規範":9620,"趁著":9621,"飼養":9622,"優雅":9623,"團員":9624,"新增":9625,"物質":9626,"競賽":9627,"紅毯":9628,"資產":9629,"連署":9630,"無論是":9631,"三個":9632,"不良":9633,"出血":9634,"正好":9635,"的可能":9636,"觀賞":9637,"過後":9638,"偷偷":9639,"多名":9640,"所得":9641,"抄截":9642,"的表情":9643,"私人":9644,"航線":9645,"跟他":9646,"成交":9647,"時機":9648,"生意":9649,"瘋傳":9650,"竊盜":9651,"衣物":9652,"警消":9653,"預賽":9654,"體力":9655,"完全沒有":9656,"不便":9657,"到現場":9658,"增強":9659,"收容":9660,"日正式":9661,"業績":9662,"氣候":9663,"論壇":9664,"風景":9665,"per13":9666,">、、":9667,"更多精彩":9668,"上課":9669,"不懂":9670,"也不是":9671,"接手":9672,"貨車":9673,"送上":9674,"不要再":9675,"攝影師":9676,"他還":9677,"的角色":9678,"世代":9679,"交給":9680,"所屬":9681,"查看":9682,"身旁":9683,"返家":9684,"。」「":9685,"的一年":9686,"上述":9687,"也相當":9688,"國軍":9689,"增添":9690,"模仿":9691,"歌詞":9692,"球衣":9693,"相似":9694,"電視台":9695,"上有":9696,"公平":9697,"捐贈":9698,"晚會":9699,"添加":9700,"的活動":9701,"蔬菜":9702,"財務":9703,"重建":9704,"畫面中":9705,"個多":9706,"徹底":9707,"草莓":9708,"為了讓":9709,"其他人":9710,"這麼多":9711,"負責人":9712,"不捨":9713,"中部":9714,"季節":9715,"美味":9716,"萬聖節":9717,"做愛":9718,"條文":9719,"當局":9720,"移民":9721,"較為":9722,"選出":9723,"信義":9724,"多位":9725,"小巨蛋":9726,"成年":9727,"捕手":9728,"月薪":9729,"沒事":9730,"無限":9731,"簽約":9732,"?」<":9733,"上週":9734,"代謝":9735,"列出":9736,"展出":9737,"考試":9738,"處分":9739,"勞動":9740,"危害":9741,"大多數":9742,"室內":9743,"年初":9744,"這就是":9745,">+":9746,"反映":9747,"大運":9748,"是誰":9749,"有意":9750,"海岸":9751,"的影響":9752,"諮詢":9753,"賺錢":9754,"顧問":9755,"也特別":9756,"座位":9757,"搜尋":9758,"的老":9759,"總裁":9760,"考驗":9761,"肩膀":9762,"能源":9763,"調漲":9764,"不出":9765,"到處":9766,"前總統":9767,"贊助":9768,"走向":9769,"做為":9770,"吃了":9771,"怎樣":9772,"推測":9773,"的說":9774,"而他":9775,"講話":9776,"高齡":9777,"三分球":9778,"她表示":9779,"安慰":9780,"就很":9781,"誤會":9782,"通訊":9783,"怎麼辦":9784,"主張":9785,"全新的":9786,"合理":9787,"外國":9788,"年金":9789,"疑慮":9790,"草案":9791,"表態":9792,"農場":9793,"第一時間":9794,"恐嚇":9795,"暫停":9796,"步驟":9797,"每月":9798,"火辣":9799,"老翁":9800,"預定":9801,"一名網友":9802,"個月的":9803,"主義":9804,"劇本":9805,"抱歉":9806,"浪費":9807,"猜測":9808,"現任":9809,"花費":9810,"過往":9811,"機器人":9812,"」,「":9813,"上下":9814,"在大":9815,"廚房":9816,"戴上":9817,"更為":9818,"清洗":9819,"潮流":9820,"美國":9821,"這起":9822,"開設":9823,"隨便":9824,"下台":9825,"出訪":9826,"找不到":9827,"標示":9828,"致詞":9829,"起司":9830,">。」":9831,"主播":9832,"出動":9833,"天后":9834,"火腿":9835,"長髮":9836,"教練團":9837,"同性戀":9838,"並表示":9839,"全都":9840,"出身":9841,"分打點":9842,"獲勝":9843,"珍惜":9844,"用來":9845,"色彩":9846,"融化":9847,"血壓":9848,"要有":9849,"季後賽":9850,"三大":9851,"博士":9852,"爺爺":9853,"總召":9854,"重返":9855,"黨主席":9856,"亮點":9857,"共計":9858,"動手":9859,"拍賣":9860,"熱量":9861,"的食物":9862,"糾紛":9863,"騷擾":9864,"不少粉絲":9865,"勤務":9866,"卻又":9867,"壓制":9868,"性能":9869,"放閃":9870,"日將":9871,"普遍":9872,"材料":9873,"瞭解":9874,"若有":9875,"金牌":9876,"真正的":9877,"入口":9878,"嚇到":9879,"在此":9880,"少了":9881,"後再":9882,"昏迷":9883,"檢測":9884,"現年":9885,"的粉絲":9886,"輻射":9887,"發生在":9888,"假期":9889,"即將在":9890,"忘了":9891,"才有":9892,"生下":9893,"長照":9894,"陪同":9895,"體內":9896,"loc13":9897,"知名度":9898,"局部":9899,"年在":9900,"教室":9901,"既然":9902,"的動作":9903,"而不是":9904,"長時間":9905,"今年的":9906,"不只是":9907,"我有":9908,"日職":9909,"最愛":9910,"東區":9911,"走路":9912,"已經有":9913,"詐騙集團":9914,"上升":9915,"也太":9916,"受歡迎":9917,"的特":9918,"稍早":9919,"被打":9920,"裁判":9921,"要不要":9922,"錄製":9923,"長得":9924,"一名男子":9925,"接收更多精彩":9926,"接收更多精彩賽事":9927,"分局":9928,"好評":9929,"婚後":9930,"差異":9931,"忙碌":9932,"搭載":9933,"景觀":9934,"東部":9935,"開口":9936,"髮型":9937,"未來的":9938,"吵架":9939,"婚紗":9940,"污染":9941,"犧牲":9942,"祭出":9943,"終結":9944,"聲稱":9945,"餐飲":9946,"沒有人":9947,"地安":9948,"小三":9949,"年起":9950,"性交":9951,"按讚":9952,"授權":9953,"的孩子":9954,"號碼":9955,"試試":9956,"修正案":9957,"世大運":9958,"並以":9959,"專門":9960,"改編":9961,"月間":9962,"的機率":9963,"等於":9964,"般的":9965,"說的":9966,"警告":9967,"開唱":9968,"是否會":9969,"原來是":9970,"當選人":9971,"一舉":9972,"受邀":9973,"密切":9974,"找回":9975,"更好的":9976,"牙齒":9977,"票選":9978,"走出":9979,"透明":9980,"所有的":9981,"主要是":9982,"野生動物":9983,"上周":9984,"住家":9985,"及時":9986,"外面":9987,"拿起":9988,"新一":9989,"新生":9990,"檢視":9991,"沒人":9992,"用手":9993,"的目標":9994,"被拍到":9995,"車內":9996,"特別是":9997,"入場":9998,"大戰":9999,"少數":10000,"從未":10001,"懂得":10002,"氣息":10003,"衛星":10004,"遼寧":10005,"配上":10006,"例行賽":10007,"制服":10008,"好朋友":10009,"已在":10010,"服飾":10011,"要讓":10012,"打擊率":10013,"創辦":10014,"印地安":10015,"後悔":10016,"的第一":10017,"開罰":10018,"餅乾":10019,"一支":10020,"兩人的":10021,"急診":10022,"憤怒":10023,"捕捉":10024,"曾有":10025,"桃園":10026,"活力":10027,"游泳":10028,"的超":10029,"生活中":10030,"做法":10031,"基層":10032,"場所":10033,"大道":10034,"我都":10035,"會中":10036,"跟你":10037,"轉型":10038,"還未":10039,"青少年":10040,"形式":10041,"撒嬌":10042,"效率":10043,"爆笑":10044,"高鐵":10045,"網友看完":10046,"預計在":10047,"是一種":10048,"上陣":10049,"廣播":10050,"樂趣":10051,"步道":10052,"男的":10053,"體能":10054,"和解":10055,"寫真":10056,"性格":10057,"掉了":10058,"新北":10059,"的天氣":10060,"股價":10061,"興建":10062,"議事":10063,"默契":10064,"的人生":10065,"口罩":10066,"在他":10067,"指稱":10068,"玫瑰":10069,"生理":10070,"要去":10071,"路段":10072,"基於":10073,"對不起":10074,"運作":10075,"曝光後":10076,"五月天":10077,"戰爭":10078,"戰略":10079,"是他":10080,"案例":10081,"立法":10082,"胞胎":10083,"讓我們":10084,"身亡":10085,"送辦":10086,"明星賽":10087,"享有":10088,"兩次":10089,"前一":10090,"圖案":10091,"學者":10092,"沒什麼":10093,"的海":10094,"美好":10095,"財產":10096,"也成為":10097,"桃猿":10098,"棒的":10099,"此舉":10100,"法辦":10101,"火車":10102,"當事":10103,"隊史":10104,"簡單的":10105,"世紀":10106,"場合":10107,"平等":10108,"睽違":10109,"美金":10110,"肢體":10111,"降雨":10112,"沒有任何":10113,"已經是":10114,"列為":10115,"宗教":10116,"專心":10117,"小學":10118,"很開心":10119,"手法":10120,"生病":10121,"處長":10122,"走了":10123,"迷你":10124,"統一獅":10125,"一身":10126,"兩種":10127,"因而":10128,"在意":10129,"情報":10130,"感的":10131,"找出":10132,"景氣":10133,"發炎":10134,"退役":10135,"連敗":10136,"黃色":10137,"總統當選人":10138,"...」":10139,"保暖":10140,"停在":10141,"到的":10142,"地的":10143,"大聯盟":10144,"拉麵":10145,"月的":10146,"次數":10147,"獅子":10148,"腳步":10149,"過多":10150,"電池":10151,"有助於":10152,"場均":10153,"將由":10154,"很容易":10155,"打工":10156,"日中午":10157,"用於":10158,"隱藏":10159,"震撼":10160,"風味":10161,"上次":10162,"不排除":10163,"倆口":10164,"圖書":10165,"最強":10166,"演練":10167,"無辜":10168,"當晚":10169,"。」、「":10170,"身分證":10171,"傳奇":10172,"全體":10173,"兩大":10174,"前面":10175,"合唱":10176,"多項":10177,"完工":10178,"宣佈":10179,"有興趣":10180,"緊緊":10181,"職務":10182,"適當":10183,"都相當":10184,"重複":10185,"目前在":10186,"一堆":10187,"個股":10188,"免疫":10189,"大人":10190,"好想":10191,"復健":10192,"拿來":10193,"有期徒刑":10194,"火力":10195,"競選":10196,"給她":10197,"融入":10198,"試著":10199,"隊的":10200,"零食":10201,"萬元的":10202,"一共":10203,"不願意":10204,"今晚":10205,"住院":10206,"冷靜":10207,"啤酒":10208,"大師":10209,"將有":10210,"幹嘛":10211,"彈性":10212,"接種":10213,"模擬":10214,"每位":10215,"率先":10216,"總共":10217,"護理":10218,"返回":10219,"進度":10220,"高級":10221,"萬人次":10222,"豐富的":10223,"偵查":10224,"反同":10225,"留意":10226,"褲子":10227,"轉戰":10228,"飛彈":10229,"推出新":10230,"一句":10231,"亞洲":10232,"復興":10233,"本周":10234,"即日起至":10235,"不該":10236,"多種":10237,"小倆口":10238,"承擔":10239,"把自己":10240,"教師":10241,"更能":10242,"演講":10243,"熱潮":10244,"職場":10245,"開刀":10246,"可憐":10247,"大腦":10248,"待在":10249,"文中":10250,"會再":10251,"的想法":10252,"盡力":10253,"負面":10254,"一家人":10255,"地圖":10256,"實境":10257,"年內":10258,"教官":10259,"的女性":10260,"滿滿的":10261,"但如果":10262,"勞基":10263,"小小":10264,"尺寸":10265,"技能":10266,"收費":10267,"法規":10268,"焦慮":10269,"的男子":10270,"籌備":10271,"精品":10272,"給你":10273,"希望可以":10274,"情況下":10275,"製作人":10276,"藝術家":10277,"下跌":10278,"作者":10279,"公所":10280,"將與":10281,"工人":10282,"心態":10283,"搖滾":10284,"時段":10285,"沒多久":10286,"糖尿":10287,"罰鍰":10288,"邀約":10289,"陣中":10290,"命中率":10291,"印地安人":10292,"只想":10293,"各個":10294,"堪稱":10295,"天假":10296,"妨害":10297,"更換":10298,"歹徒":10299,"的環境":10300,"的效果":10301,"關卡":10302,"使用的":10303,"使用者":10304,"比較好":10305,"記者會上":10306,"在這裡":10307,"外野手":10308,"名稱":10309,"器官":10310,"孕婦":10311,"完後":10312,"幼兒":10313,"後發現":10314,"性行為":10315,"檢警":10316,"淇淋":10317,"納入":10318,"總計":10319,"裝飾":10320,"離去":10321,"設計的":10322,"準備好":10323,"勞基法":10324,"一軍":10325,"一頭":10326,"一系列":10327,"姓女":10328,"早期":10329,"普通":10330,"股東":10331,"轉發":10332,"董事會":10333,"你會":10334,"商圈":10335,"夫婦":10336,"就曾":10337,"汙染":10338,"消化":10339,"的國家":10340,"加班費":10341,"拜託":10342,"文件":10343,"腳踏":10344,"詮釋":10345,"閨蜜":10346,"特別的":10347,"一段時間":10348,"參選":10349,"地板":10350,"她是":10351,"居家":10352,"往前":10353,"放上":10354,"纖維":10355,"號召":10356,"下滑":10357,"兌換":10358,"對比":10359,"獲獎":10360,"罰金":10361,"腸胃":10362,"還得":10363,"集結":10364,"雙胞胎":10365,"驚傳":10366,"去看":10367,"叫做":10368,"外媒報導":10369,"奪得":10370,"實質":10371,"強度":10372,"改造":10373,"日宣布":10374,"更在":10375,"紅包":10376,"腫瘤":10377,"萬的":10378,"領隊":10379,"相關的":10380,"人權":10381,"前陣子":10382,"感性":10383,"替代":10384,"極限":10385,"毫不":10386,"洋將":10387,"農業":10388,"不會有":10389,"意味":10390,"會的":10391,"紅燈":10392,"航班":10393,"骨折":10394,"人次":10395,"但由於":10396,"作家":10397,"在野":10398,"好笑":10399,"姐妹":10400,"會場":10401,"走進":10402,"跑者":10403,"鄰近":10404,"同時也是":10405,"但現在":10406,"住戶":10407,"來不及":10408,"對待":10409,"很少":10410,"撞擊":10411,"無預警":10412,"的方法":10413,"行徑":10414,"跳舞":10415,"邁入":10416,"那時候":10417,"動物園":10418,"不讓":10419,"久的":10420,"影音":10421,"後也":10422,"手套":10423,"打到":10424,"探索":10425,"撞到":10426,"變更":10427,"!」「":10428,"目前已經":10429,"事前":10430,"國防":10431,"外的":10432,"旗艦":10433,"雷達":10434,"顏值":10435,"這首歌":10436,"乾脆":10437,"大呼":10438,"婦女":10439,"患有":10440,"數十":10441,"求救":10442,"被依":10443,"說自己":10444,"買了":10445,"都市":10446,"顯然":10447,"高速":10448,"印象深刻":10449,"上車":10450,"下體":10451,"利率":10452,"封面":10453,"念頭":10454,"毆打":10455,"王子":10456,"膝蓋":10457,"被告":10458,"集訓":10459,"認為是":10460,"大三元":10461,"勇氣":10462,"卻不":10463,"在微博":10464,"多達":10465,"大哥":10466,"女團":10467,"差不多":10468,"機的":10469,"混合":10470,"華麗":10471,"跟鞋":10472,"開賣":10473,"首戰":10474,"注意到":10475,"終於在":10476,"相較於":10477,"傾向":10478,"年開始":10479,"聚會":10480,"育有":10481,"致力":10482,"致死":10483,"通通":10484,"領袖":10485,"飼料":10486,"可以讓":10487,"一早":10488,"一番":10489,"交手":10490,"又被":10491,"就以":10492,"強大":10493,"恐懼":10494,"搭檔":10495,"為由":10496,"爭執":10497,"的狀態":10498,"立體":10499,"級的":10500,"車手":10501,"遊玩":10502,"重的":10503,"非法":10504,"作法":10505,"另有":10506,"夏天":10507,"將持續":10508,"打氣":10509,"承受":10510,"攤位":10511,"新任":10512,"氧化":10513,"讓許多":10514,"長者":10515,"難度":10516,"類型":10517,"工作的":10518,"真的太":10519,"一提":10520,"下巴":10521,"並請":10522,"彩虹":10523,"手工":10524,"正當":10525,"無數":10526,"的空間":10527,"累計":10528,"自慰":10529,"說過":10530,"辯稱":10531,"靈感":10532,"上班族":10533,"營業時間":10534,"紛紛留言表示":10535,"人心":10536,"國手":10537,"就可":10538,"打卡":10539,"收藏":10540,"斷交":10541,"最有":10542,"無力":10543,"訴求":10544,"封為":10545,"小貓":10546,"後才":10547,"放下":10548,"犯規":10549,"珍珠":10550,"當你":10551,"的心情":10552,"的關鍵":10553,"盡快":10554,"裝扮":10555,"身上的":10556,"轉移":10557,"這份":10558,"的一面":10559,"冒險":10560,"居住":10561,"屋主":10562,"惡意":10563,"落在":10564,"見證":10565,"那是":10566,"一項":10567,"不易":10568,"乾燥":10569,"出場":10570,"卡片":10571,"周遭":10572,"式的":10573,"生素":10574,"緋聞":10575,"酒精":10576,"門檻":10577,"香蕉":10578,"國家的":10579,"實際上":10580,"分開":10581,"座談":10582,"改為":10583,"放心":10584,"日與":10585,"服用":10586,"金屬":10587,"防護":10588,"餵食":10589,"per14":10590,"loc14":10591,"過去的":10592,"事項":10593,"何時":10594,"卡通":10595,"吸睛":10596,"哪些":10597,"子女":10598,"客運":10599,"心跳":10600,"情人":10601,"手段":10602,"投出":10603,"沙發":10604,"治安":10605,"燈光":10606,"相約":10607,"被人":10608,"贏球":10609,"那種":10610,"驅逐":10611,"一款":10612,"低頭":10613,"兩名":10614,"好吃":10615,"已是":10616,"帶來的":10617,"打完":10618,"深度":10619,"湧入":10620,"補強":10621,"評審":10622,"開場":10623,"之餘":10624,"保存":10625,"先進":10626,"刪除":10627,"到達":10628,"化學":10629,"半夜":10630,"可達":10631,"尾牙":10632,"想過":10633,"打了":10634,"日早上":10635,"站上":10636,"給了":10637,"網球":10638,"說不":10639,"金錢":10640,"頭上":10641,"糖尿病":10642,"內野":10643,"和小":10644,"就沒有":10645,"晚餐":10646,"珍貴":10647,"的學生":10648,"超高":10649,"輕輕":10650,"轉換":10651,"了一下":10652,"一部":10653,"假裝":10654,"做什麼":10655,"化身":10656,"將是":10657,"的主":10658,"的家":10659,"的同時":10660,"粉紅色":10661,"鞋子":10662,"覺得自己":10663,"型態":10664,"尾巴":10665,"常見的":10666,"年菜":10667,"慢性":10668,"招呼":10669,"期許":10670,"目光":10671,"評價":10672,"關節":10673,"阿姨":10674,"聖誕樹":10675,"訪問時":10676,"但也有人":10677,"回頭":10678,"宿舍":10679,"復出":10680,"日晚上":10681,"歲時":10682,"民意":10683,"熱心":10684,"生長":10685,"的電影":10686,"票房":10687,"義務":10688,"育兒":10689,"進駐":10690,"甚至有":10691,"傳播":10692,"兩國":10693,"分的":10694,"堅定":10695,"專線":10696,"彈劾":10697,"爆廢":10698,"聯手":10699,"談判":10700,"酒後":10701,"防制":10702,"基本上":10703,"基金會":10704,"你是":10705,"剩下":10706,"另一名":10707,"市議員":10708,"很喜歡":10709,"潛艇":10710,"為主題":10711,"猥褻":10712,"的中":10713,"短期":10714,"請上":10715,"趁機":10716,"選民":10717,"都不會":10718,"配備":10719,"高層":10720,"冷氣團":10721,"一雙":10722,"卻發現":10723,"吃完":10724,"名人":10725,"學員":10726,"已於":10727,"恭喜":10728,"提問":10729,"為人":10730,"牛仔":10731,"背部":10732,"一段影片":10733,"多個":10734,"大片":10735,"招募":10736,"曖昧":10737,"榮獲":10738,"清理":10739,"漲價":10740,"販賣":10741,"錄音":10742,"他們在":10743,"中信兄弟":10744,"收容所":10745,"爆廢公社":10746,"施工":10747,"甚麼":10748,"發放":10749,"的作品":10750,"眼淚":10751,"美景":10752,"跡象":10753,"一波":10754,"不像":10755,"受惠":10756,"學長":10757,"小型":10758,"就職":10759,"店面":10760,"得以":10761,"新歌":10762,"生存":10763,"的個性":10764,"腹部":10765,"走在":10766,"近距離":10767,"難免":10768,"電梯":10769,"因為我":10770,"不過他":10771,"不顧":10772,"但有":10773,"來賓":10774,"熱水":10775,"而她":10776,"自爆":10777,"辨識":10778,"迴響":10779,"養成":10780,"當時的":10781,"一手":10782,"一把":10783,"不去":10784,"也提到":10785,"予以":10786,"分數":10787,"大礙":10788,"她還":10789,"屍體":10790,"帶走":10791,"成人":10792,"文創":10793,"會是":10794,"月起":10795,"相互":10796,"真心":10797,"表決":10798,"說到":10799,"通緝":10800,"公司的":10801,"信用":10802,"優異":10803,"幾次":10804,"悲劇":10805,"每個月":10806,"氣的":10807,"進來":10808,"阿伯":10809,"一直以來":10810,"選舉人票":10811,"之旅":10812,"低於":10813,"實體":10814,"有線":10815,"權力":10816,"的首":10817,"管道":10818,"而非":10819,"能否":10820,"融合":10821,"衝撞":10822,"角落":10823,"遇上":10824,"還可":10825,"釋放":10826,"真的有":10827,"創辦人":10828,"一動":10829,"個案":10830,"偵訊":10831,"卻因為":10832,"吸毒":10833,"外籍":10834,"好可愛":10835,"幫我":10836,"簽署":10837,"缺席":10838,"美容":10839,"老鼠":10840,"警力":10841,"遺體":10842,"甚至是":10843,"一直在":10844,"一樣的":10845,"一一":10846,"不大":10847,"修復":10848,"哪個":10849,"後援":10850,"採購":10851,"每人":10852,"毛小孩":10853,"犯行":10854,"總監":10855,"與其他":10856,"身影":10857,"輸入":10858,"都非常":10859,"開著":10860,"影響到":10861,"但也有":10862,"四處":10863,"回升":10864,"大麻":10865,"孩童":10866,"完畢":10867,"將以":10868,"房市":10869,"東半部":10870,"襯衫":10871,"跌倒":10872,"重心":10873,"重現":10874,"金酒":10875,"錦標":10876,"有人說":10877,"不受":10878,"傍晚":10879,"夜間":10880,"委託":10881,"就把":10882,"年僅":10883,"廣大":10884,"往後":10885,"散發":10886,"有民眾":10887,"片段":10888,"的天":10889,"經由":10890,"那邊":10891,"值得一提":10892,"移送法辦":10893,"一組":10894,"判處":10895,"實的":10896,"對她":10897,"干擾":10898,"椅子":10899,"的精神":10900,"的位置":10901,"通路":10902,"食安":10903,"也透露":10904,"定位":10905,"市政":10906,"忽略":10907,"房價":10908,"會上":10909,"痕跡":10910,"的臉":10911,"的對象":10912,"股票":10913,"行使":10914,"還曾":10915,"孩子們":10916,"上半場":10917,"充電":10918,"入住":10919,"創業":10920,"動員":10921,"受損":10922,"商機":10923,"在現場":10924,"堅強":10925,"常見":10926,"影迷":10927,"很重要":10928,"持有":10929,"播放":10930,"的能力":10931,"行的":10932,"賓士":10933,"因為他":10934,"公分的":10935,"總冠軍賽":10936,"~」":10937,"保守":10938,"外線":10939,"心得":10940,"打者":10941,"穿越":10942,"要把":10943,"防治":10944,"如果是":10945,"位數":10946,"冰淇淋":10947,"出遊":10948,"吉祥":10949,"啟用":10950,"在新":10951,"大大":10952,"師傅":10953,"帽子":10954,"幅度":10955,"幫他":10956,"影后":10957,"截圖":10958,"接下":10959,"濃厚":10960,"第六":10961,"頭痛":10962,"一日":10963,"不上":10964,"了許多":10965,"女士":10966,"層樓":10967,"帶回家":10968,"星座":10969,"查緝":10970,"涉案":10971,"為例":10972,"矚目":10973,"給自己":10974,"開會":10975,"驕傲":10976,"世界上":10977,"服務業":10978,"同期":10979,"向警方":10980,"地價":10981,"市區":10982,"很想":10983,"提起":10984,"效應":10985,"燃燒":10986,"物館":10987,"自製":10988,"請求":10989,"進場":10990,"鑑定":10991,"馬路":10992,"點滴":10993,"大家的":10994,"一連串":10995,"布局":10996,"方的":10997,"歌唱":10998,"游擊":10999,"起飛":11000,"適用":11001,"遵守":11002,"風潮":11003,"高峰":11004,"媽媽的":11005,"工程師":11006,"千萬不要":11007,"美麗的":11008,"假的":11009,"周圍":11010,"日開":11011,"真人":11012,"紅人":11013,"聊到":11014,"車廂":11015,"道具":11016,"配件":11017,"鮮肉":11018,"大批網友":11019,"訊後依":11020,"傳達":11021,"失蹤":11022,"安撫":11023,"客車":11024,"小說":11025,"情的":11026,"會造成":11027,"水氣":11028,"維修":11029,"編輯":11030,"開玩笑說":11031,"不論是":11032,"當事人":11033,"錦標賽":11034,"不怕":11035,"二軍":11036,"他和":11037,"住宿":11038,"分配":11039,"務必":11040,"悄悄":11041,"成效":11042,"我愛":11043,"淘汰":11044,"的相關":11045,"的說法":11046,"盯著":11047,"秀出":11048,"自在":11049,"開了":11050,"除非":11051,"首位":11052,"如果有":11053,"冠軍戰":11054,"老闆娘":11055,"不清楚":11056,"並與":11057,"交由":11058,"北區":11059,"反擊":11060,"唱片":11061,"廢棄":11062,"強勢":11063,"據點":11064,"星光":11065,"查證":11066,"混亂":11067,"濃度":11068,"美好的":11069,"虛擬":11070,"里長":11071,"雞蛋":11072,"電競":11073,"題材":11074,"已經在":11075,"有一天":11076,"上門":11077,"之所以":11078,"公民":11079,"分差":11080,"到醫院":11081,"副總統":11082,"卻沒有":11083,"地面":11084,"地表示":11085,"巨星":11086,"從此":11087,"毛衣":11088,"程式":11089,"粉紅":11090,"素顏":11091,"耳機":11092,"原本的":11093,"嚴重的":11094,"絕對是":11095,"獨特的":11096,"一面":11097,"傳承":11098,"捐款":11099,"月在":11100,"有無":11101,"的內容":11102,"看不到":11103,"笑著":11104,"美術":11105,"這兩":11106,"適逢":11107,"飲品":11108,"不下":11109,"仍未":11110,"你知道":11111,"先後":11112,"出版":11113,"別人的":11114,"又在":11115,"受不了":11116,"回顧":11117,"大隊":11118,"強迫":11119,"揚言":11120,"月時":11121,"男神":11122,"的女生":11123,"禮貌":11124,"股市":11125,"與其":11126,"該如何":11127,"附上":11128,"第二次":11129,"監視器畫面":11130,"值得一提的是":11131,"不分":11132,"他笑說":11133,"初期":11134,"勞資":11135,"國定":11136,"外傳":11137,"對自己":11138,"月經":11139,"火車站":11140,"玩耍":11141,"讓牠":11142,"體質":11143,"受訪時表示":11144,"綜藝節目":11145,"?」,":11146,"也非常":11147,"出不":11148,"和其他":11149,"培育":11150,"工時":11151,"左手":11152,"張照片":11153,"我跟":11154,"放置":11155,"有好":11156,"某些":11157,"歌聲":11158,"異性":11159,"登錄":11160,"訴訟":11161,"誠意":11162,"走上":11163,"運勢":11164,"那就":11165,"因此在":11166,"----":11167,"圖書館":11168,"多年的":11169,"差別":11170,"年時":11171,"彩繪":11172,"循線":11173,"支出":11174,"洗衣":11175,"百分":11176,"行人":11177,"認知":11178,"這篇":11179,"運動員":11180,"也跟著":11181,"卡在":11182,"最愛的":11183,"每一個":11184,"滋味":11185,"煞車":11186,"睡著":11187,"美照":11188,"財團":11189,"轉變":11190,"高跟鞋":11191,"完整的":11192,"哈哈哈":11193,"一來":11194,"之路":11195,"傳染":11196,"傳遞":11197,"半小時":11198,"向前":11199,"噁心":11200,"女大生":11201,"學家":11202,"專區":11203,"店長":11204,"從中":11205,"整個人":11206,"暗示":11207,"縣長":11208,"跳出來":11209,"難怪":11210,"節目上":11211,"不僅是":11212,"機場捷運":11213,"先發投手":11214,"也紛紛":11215,"低潮":11216,"南區":11217,"博物館":11218,"口腔":11219,"夜店":11220,"提及":11221,"日舉辦":11222,"會面":11223,"有更多":11224,"科醫師":11225,"線的":11226,"要怎麼":11227,"跟大家":11228,"追平":11229,"黑豹":11230,"地區的":11231,"另一方面":11232,"交保":11233,"人名單":11234,"冷凍":11235,"創立":11236,"台南":11237,"大力":11238,"天堂":11239,"好看":11240,"將其":11241,"搭上":11242,"的概念":11243,"眼前":11244,"裁定":11245,"這群":11246,"都已經":11247,"頓時":11248,"org10":11249,"主題曲":11250,"網友們看完":11251,"體育館":11252,"延伸閱讀":11253,"募款":11254,"勢必":11255,"名額":11256,"官兵":11257,"引爆":11258,"我還":11259,"我現在":11260,"桌上":11261,"潛力":11262,"獻上":11263,"美式":11264,"證件":11265,"變形":11266,"車頭":11267,"頒發":11268,"顆星":11269,"支持者":11270,"多多":11271,"就知道":11272,"愛犬":11273,"我真的":11274,"收在":11275,"救出":11276,"的情形":11277,"花園":11278,"要是":11279,"開門":11280,"闖入":11281,"電信":11282,"體會":11283,"高中生":11284,"也無法":11285,"外帶":11286,"契約":11287,"它的":11288,"日開始":11289,"未料":11290,"棉花":11291,"爾蒙":11292,"的過程中":11293,"被迫":11294,"適時":11295,"隔壁":11296,"霸凌":11297,"二壘安打":11298,"五官":11299,"亮麗":11300,"兼具":11301,"判刑":11302,"卻有":11303,"右手":11304,"嚇壞":11305,"抓住":11306,"收購":11307,"曾被":11308,"當日":11309,"的遊戲":11310,"而出":11311,"著手":11312,"轄區":11313,"轉為":11314,"隔年":11315,"香氣":11316,"還有網友":11317,"憂鬱症":11318,"排行榜":11319,"也指出":11320,"俱樂":11321,"偷拍":11322,"前輩":11323,"困境":11324,"場的":11325,"宣稱":11326,"展望":11327,"愛滋":11328,"戰術":11329,"新制":11330,"服役":11331,"案發":11332,"演戲":11333,"熱身":11334,"祝賀":11335,"給人":11336,"耐心":11337,"菜單":11338,"退伍":11339,"連鎖":11340,"點心":11341,"粉絲們":11342,"身體狀況":11343,"一台":11344,"一生":11345,"店裡":11346,"法第":11347,"病房":11348,"百年":11349,"號稱":11350,"讀書":11351,"隨機":11352,"頂著":11353,"不一樣的":11354,"!」,":11355,"中有":11356,"事先":11357,"倒地":11358,"冰箱":11359,"可在":11360,"喝水":11361,"國道":11362,"就不會":11363,"師生":11364,"建造":11365,"愛上":11366,"替補":11367,"最喜歡":11368,"本週":11369,"機械":11370,"機能":11371,"理性":11372,"眼尖":11373,"租金":11374,"軍方":11375,"這回":11376,"遲遲":11377,"頻繁":11378,"一直到":11379,"在家裡":11380,"黑豹旗":11381,"以北":11382,"允許":11383,"劈腿":11384,"午餐":11385,"名義":11386,"子彈":11387,"度假":11388,"渴望":11389,"的風險":11390,"秉持":11391,"網紅":11392,"血糖":11393,"選在":11394,"領軍":11395,"驚嚇":11396,"生活的":11397,"世界盃":11398,"不僅如此":11399,"俱樂部":11400,"、、":11401,"不堪":11402,"不變":11403,"了啦":11404,"他強調":11405,"反彈":11406,"大門":11407,"好事":11408,"已被":11409,"帶到":11410,"手中":11411,"新秀":11412,"比數":11413,"為期":11414,"牛棚":11415,"的音樂":11416,"聯名":11417,"肥胖":11418,"輔助":11419,"進軍":11420,"正確的":11421,"所謂的":11422,"一口氣":11423,"從來沒有":11424,"蛋白質":11425,"參訪":11426,"形狀":11427,"房東":11428,"橋段":11429,"漁民":11430,"的發展":11431,"短片":11432,"聽證":11433,"輕易":11434,"配置":11435,"自己也":11436,"他會":11437,"件事":11438,"全年":11439,"喵星人":11440,"外資":11441,"好嗎":11442,"忙著":11443,"想不到":11444,"愉快":11445,"施打":11446,"日至":11447,"毛巾":11448,"瀏海":11449,"用力":11450,"的黑":11451,"脾氣":11452,"較高":11453,"選票":11454,"開票":11455,"相關單位":11456,"造成的":11457,"交代":11458,"伸手":11459,"姓駕駛":11460,"擺出":11461,"放入":11462,"款式":11463,"歲生日":11464,"每周":11465,"無聊":11466,"現今":11467,"群眾":11468,"聽見":11469,"腕錶":11470,"蘿蔔":11471,"要到":11472,"視野":11473,"認養":11474,"韓劇":11475,"預報":11476,"活動的":11477,"一般人":11478,"公克":11479,"口水":11480,"嘴唇":11481,"器材":11482,"夜晚":11483,"心中的":11484,"手腳":11485,"會出現":11486,"有機":11487,"終身":11488,"落幕":11489,"行列":11490,"裡頭":11491,"請問":11492,"豆腐":11493,"貸款":11494,"鄉親":11495,"防空":11496,"還是有":11497,"政府的":11498,"小時的":11499,"上任後":11500,"上線":11501,"他與":11502,"刑事":11503,"場次":11504,"失業":11505,"手的":11506,"日後":11507,"的第":11508,"碰上":11509,"糖果":11510,"約在":11511,"而這":11512,"行情":11513,"輸球":11514,"那裡":11515,"點半":11516,"朋友的":11517,"更多人":11518,"上架":11519,"則為":11520,"反覆":11521,"告別":11522,"多年來":11523,"嫌疑":11524,"投訴":11525,"救災":11526,"教導":11527,"敬請":11528,"日清晨":11529,"比對":11530,"決策":11531,"疫情":11532,"站出來":11533,"等地":11534,"繽紛":11535,"萬名":11536,"表揚":11537,"讓現場":11538,"退場":11539,"間接":11540,"發生一起":11541,"必須要":11542,"之一的":11543,"發文表示":11544,"上廁所":11545,"別再":11546,"在網路":11547,"失分":11548,"媽咪":11549,"戒指":11550,"所需":11551,"拖吊":11552,"昨晚":11553,"有問題":11554,"樓梯":11555,"球鞋":11556,"稽查":11557,"編列":11558,"練球":11559,"長腿":11560,"離職":11561,">.「":11562,"衛生紙":11563,"年金改革":11564,"一杯":11565,"但最後":11566,"保全":11567,"售票":11568,"在內":11569,"慈善":11570,"捐血":11571,"擅長":11572,"有種":11573,"珠寶":11574,"生殖":11575,"追問":11576,"連連":11577,"過失":11578,"遭受":11579,"邊的":11580,"頻率":11581,"點的":11582,"兩人在":11583,"健康的":11584,"酒測值":11585,"不法":11586,"但目前":11587,"到不行":11588,"去做":11589,"婆婆":11590,"年間":11591,"得好":11592,"球速":11593,"種種":11594,"精心":11595,"親吻":11596,"逐步":11597,"這不是":11598,"都說":11599,"義大犀牛":11600,"個多月":11601,"又要":11602,"她和":11603,"姓名":11604,"擔憂":11605,"整天":11606,"是被":11607,"照護":11608,"煩惱":11609,"特價":11610,"眼光":11611,"秩序":11612,"軌道":11613,"隨意":11614,"預約":11615,"預購":11616,"頸部":11617,"龍頭":11618,"未來將":11619,"三讀":11620,"主導":11621,"再生":11622,"吃東西":11623,"就沒":11624,"屋內":11625,"急著":11626,"抓到":11627,"極大":11628,"次三振":11629,"的雙":11630,"的日子":11631,"結局":11632,"蒐集":11633,"蔬果":11634,"被警方":11635,"親切":11636,"豪華":11637,"迎戰":11638,"通話":11639,"邊緣":11640,"阻擋":11641,"風情":11642,"也不能":11643,"有一些":11644,"不可以":11645,"不應該":11646,"並不會":11647,"人妻":11648,"你可以":11649,"俏皮":11650,"北上":11651,"可獲得":11652,"喜愛的":11653,"單一":11654,"多樣":11655,"新娘":11656,"未經":11657,"東森":11658,"率領":11659,"終止":11660,"賽程":11661,"趣味":11662,"趴在":11663,"近日在":11664,"邦交":11665,"陸客":11666,"隨身":11667,"社會大眾":11668,"有網友在":11669,"耶誕節":11670,"入主":11671,"其次":11672,"力道":11673,"命運":11674,"富邦":11675,"射手":11676,"工藝":11677,"往下":11678,"折扣":11679,"旅程":11680,"更容易":11681,"有望":11682,"激勵":11683,"玩法":11684,"班機":11685,"的感情":11686,"租屋":11687,"美人":11688,"落淚":11689,"超有":11690,"軍人":11691,"這間":11692,"連霸":11693,"部署":11694,"體型":11695,"高階":11696,"民眾的":11697,"訓練營":11698,"來看看":11699,"不忘":11700,"但若":11701,"向來":11702,"哭了":11703,"商務":11704,"團結":11705,"在我":11706,"她笑說":11707,"安置":11708,"將來":11709,"幫你":11710,"很好的":11711,"打招呼":11712,"最新的":11713,"未滿":11714,"民宅":11715,"浴室":11716,"獲選":11717,"的三":11718,"直升":11719,"社交":11720,"神奇":11721,"神情":11722,"自嘲":11723,"色系":11724,"這條":11725,"電玩":11726,"駕車":11727,"高喊":11728,"發現有":11729,"最後的":11730,"原因是":11731,"自行車":11732,"完美的":11733,"不開":11734,"休旅":11735,"出演":11736,"則以":11737,"在她":11738,"在去年":11739,"安裝":11740,"抽獎":11741,"日進行":11742,"海鮮":11743,"無線":11744,"等問題":11745,"誕生":11746,"這類":11747,"醫護":11748,"願望":11749,"的可能性":11750,"不確定":11751,"中獎":11752,"來臨":11753,"動的":11754,"寶座":11755,"心力":11756,"愛愛":11757,"我知道":11758,"病情":11759,"的成績":11760,"精采":11761,"醒來":11762,"響應":11763,"順便":11764,"頭皮":11765,"per15":11766,"目前正在":11767,"當地的":11768,"受害者":11769,"只剩下":11770,"」?":11771,"亞軍":11772,"克服":11773,"動保":11774,"協定":11775,"增進":11776,"太可愛":11777,"好不容易":11778,"情節":11779,"支撐":11780,"法令":11781,"簡訊":11782,"處罰":11783,"謠言":11784,"跑去":11785,"闖進":11786,"青睞":11787,"飛往":11788,"騎乘":11789,"最後一次":11790,"什麼事":11791,">/.<":11792,"公務員":11793,"不等":11794,"也對":11795,"兩隊":11796,"包圍":11797,"吞下":11798,"周末":11799,"姓婦人":11800,"就說":11801,"日到":11802,"業界":11803,"私訊":11804,"罰款":11805,"訂單":11806,"走入":11807,"躲在":11808,"鐵路":11809,"魔術":11810,"下雨":11811,"台語":11812,"各方":11813,"多處":11814,"封鎖":11815,"很像":11816,"慘遭":11817,"新政府":11818,"時會":11819,"次的":11820,"求助":11821,"無緣":11822,"用了":11823,"監控":11824,"總理":11825,"聯網":11826,"那天":11827,"其中有":11828,"合作的":11829,"音樂會":11830,"科學家":11831,"信用卡":11832,"三天":11833,"上百":11834,"事宜":11835,"傳言":11836,"品嚐":11837,"好處":11838,"我自己":11839,"捍衛":11840,"月開始":11841,"炸彈":11842,"監測":11843,"腎臟":11844,"致電":11845,"花錢":11846,"遇見":11847,"重傷":11848,"雲端":11849,"每天都":11850,"一輩子":11851,"債務":11852,"則由":11853,"卻突然":11854,"天團":11855,"女朋友":11856,"奶茶":11857,"會談":11858,"會影響":11859,"毀損":11860,"火勢":11861,"聽說":11862,"背包":11863,"解放":11864,"農民":11865,"進出":11866,"關閉":11867,"所以我":11868,"空氣品質":11869,"一股":11870,"一角":11871,"上來":11872,"下半身":11873,"之意":11874,"他有":11875,"在後":11876,"村民":11877,"歲末":11878,"的研究":11879,"盤查":11880,"筆電":11881,"紅襪":11882,"而來":11883,"loc15":11884,"航空公司":11885,"主管機關":11886,"一整天":11887,"事隔":11888,"公頃":11889,"台詞":11890,"地在":11891,"完善":11892,"小吃":11893,"幼稚":11894,"會先":11895,"疑惑":11896,"繁殖":11897,"能不能":11898,"舉例":11899,"莫名":11900,"落差":11901,"被稱為":11902,"都覺得":11903,"希望能夠":11904,"出現了":11905,"知名的":11906,"一向":11907,"下週":11908,"也為":11909,"了不少":11910,"他透露":11911,"作客":11912,"前科":11913,"勞團":11914,"同居":11915,"大衣":11916,"專法":11917,"幫她":11918,"年華":11919,"幻想":11920,"手槍":11921,"是非常":11922,"書記":11923,"東方":11924,"模糊":11925,"死了":11926,"熱戀":11927,"狂歡":11928,"的互動":11929,"的意思":11930,"禁區":11931,"等罪":11932,"細心":11933,"網羅":11934,"造訪":11935,"配角":11936,"難忘":11937,"在家中":11938,"東北風":11939,"之稱":11940,"劇場":11941,"可疑":11942,"各有":11943,"命案":11944,"天王":11945,"天空":11946,"好康":11947,"安靜":11948,"我方":11949,"是從":11950,"期限":11951,"沒關係":11952,"理論":11953,"的路":11954,"的舉動":11955,"車門":11956,"開槍":11957,"陰莖":11958,"頂級":11959,"網友看了":11960,"工作室":11961,"怎麼會":11962,"根本就是":11963,"送醫後":11964,"久了":11965,"他將":11966,"制止":11967,"卻因":11968,"口角":11969,"執導":11970,"學童":11971,"宇宙":11972,"寒冷":11973,"巴士":11974,"控球":11975,"收集":11976,"改成":11977,"泡麵":11978,"減輕":11979,"的長":11980,"的運動":11981,"的合照":11982,"縮小":11983,"調皮":11984,"踴躍":11985,"還將":11986,"里約":11987,"青棒":11988,"首都":11989,"我們會":11990,"下一代":11991,"智慧型":11992,"享用":11993,"前妻":11994,"口氣":11995,"女王":11996,"幕後":11997,"引人":11998,"復古":11999,"民族":12000,"火災":12001,"用藥":12002,"登板":12003,"的頭":12004,"結帳":12005,"街上":12006,"譴責":12007,"質感":12008,"起身":12009,"黨內":12010,"提供的":12011,"健身房":12012,">!」":12013,"並由":12014,"失智":12015,"子裡":12016,"我沒有":12017,"打臉":12018,"深深":12019,"混血":12020,"清新":12021,"減弱":12022,"灰色":12023,"紅的":12024,"能有":12025,"開播":12026,"雇主":12027,"魔法":12028,"一般的":12029,"展現出":12030,"消防員":12031,"一壘":12032,"下水":12033,"不敵":12034,"也已":12035,"你要":12036,"列入":12037,"受困":12038,"嗆聲":12039,"嘔吐":12040,"工資":12041,"強力":12042,"很不":12043,"最受":12044,"有別":12045,"標的":12046,"濃濃":12047,"的習慣":12048,"約定":12049,"聽了":12050,"謹慎":12051,"鑰匙":12052,"隱形":12053,"點數":12054,"一定是":12055,"駕駛座":12056,"鏡頭前":12057,"上分享":12058,"你有":12059,"儘速":12060,"口袋":12061,"同一":12062,"在第":12063,"填寫":12064,"天生":12065,"快點":12066,"拜訪":12067,"新的一年":12068,"明白":12069,"派遣":12070,"營區":12071,"的媽媽":12072,"維生素":12073,"該劇":12074,"貴賓":12075,"趕到":12076,"這時候":12077,"選項":12078,"真的好":12079,"就有機會":12080,"不好意思":12081,"營養師":12082,"短暫雨":12083,"腳踏車":12084,"上個月":12085,"大賞":12086,"左投":12087,"抗爭":12088,"政務":12089,"種植":12090,"罕見":12091,"脫離":12092,"舌頭":12093,"蒐證":12094,"親手":12095,"阿公":12096,"陰影":12097,"網友的":12098,"第三節":12099,"新一代":12100,"也可能":12101,"他就":12102,"以來的":12103,"四大":12104,"在社群網站":12105,"大秀":12106,"大罵":12107,"店的":12108,"性慾":12109,"情勢":12110,"把它":12111,"標語":12112,"此案":12113,"氣球":12114,"物價":12115,"發作":12116,"的兒子":12117,"的女孩":12118,"篩選":12119,"與他":12120,"良好的":12121,"轉播":12122,"鮮少":12123,"不過在":12124,"分享到":12125,"接著說":12126,"為什麼要":12127,"跨年晚會":12128,"收視率":12129,"一塊":12130,"下手":12131,"也提醒":12132,"保母":12133,"出入":12134,"副主席":12135,"召集":12136,"問到":12137,"姓少年":12138,"提款":12139,"日公布":12140,"景象":12141,"有不少":12142,"本報":12143,"無關":12144,"熱搜":12145,"盛大":12146,"精湛":12147,"自小":12148,"被逮":12149,"進到":12150,"都將":12151,"都知道":12152,"面試":12153,"額外":12154,"馬桶":12155,"驚艷":12156,"新聞雲":12157,"有線電視":12158,"一座":12159,"下一個":12160,"不清":12161,"不出來":12162,"並有":12163,"十大":12164,"和他":12165,"增長":12166,"家鄉":12167,"對岸":12168,"年薪":12169,"恩愛":12170,"打線":12171,"查出":12172,"榮譽":12173,"的味道":12174,"請寄":12175,"路跑":12176,"路過":12177,"門診":12178,"雙雙":12179,"骨頭":12180,"總統候選人":12181,"網路紅人":12182,"了一段":12183,"當地時間":12184,"發表聲明":12185,"升格":12186,"友誼":12187,"回想":12188,"國王":12189,"好玩":12190,"尺度":12191,"捨不得":12192,"時就":12193,"案情":12194,"標誌":12195,"水分":12196,"的原":12197,"的衣服":12198,"笑話":12199,"聽過":12200,"許久":12201,"超前":12202,"這支":12203,"這邊":12204,"達人":12205,"驚覺":12206,"活動期間":12207,"受到影響":12208,"有一次":12209,"留言表示":12210,"棒球場":12211,"不得不":12212,"不實":12213,"任職":12214,"外遇":12215,"大哭":12216,"引導":12217,"拉開":12218,"插畫":12219,"整形":12220,"為他":12221,"白皙":12222,"的花":12223,"葡萄":12224,"被視為":12225,"要注意":12226,"買到":12227,"近幾年":12228,"迷人":12229,"還需要":12230,"許多民眾":12231,"除了有":12232,"醫師表示":12233,"一張照片":12234,"里約奧運":12235,"一到":12236,"三角":12237,"不安":12238,"不適合":12239,"勢力":12240,"單季":12241,"年約":12242,"幹部":12243,"幾個月":12244,"張選舉人票":12245,"手感":12246,"放大":12247,"期的":12248,"死刑":12249,"男朋友":12250,"相隔":12251,"睡前":12252,"短髮":12253,"積分":12254,"製成":12255,"希望他":12256,"甚至連":12257,"直升機":12258,"一戰":12259,"備戰":12260,"八卦":12261,"公寓":12262,"出貨":12263,"則認為":12264,"及其":12265,"回溫":12266,"奶油":12267,"審議":12268,"市政府":12269,"強行":12270,"拿出來":12271,"敬業":12272,"整整":12273,"漢堡":12274,"獸醫":12275,"的結果":12276,"的造型":12277,"節日":12278,"聲請":12279,"自助":12280,"與人":12281,"讓對方":12282,"賣出":12283,"走過":12284,"這家":12285,"選拔":12286,"雙眼":12287,"網友表示":12288,"競爭力":12289,"自主訓練":12290,"不完":12291,"但對":12292,"出戰":12293,"出軌":12294,"品項":12295,"在這個":12296,"客廳":12297,"巨大":12298,"才不會":12299,"把他":12300,"新專輯":12301,"曾是":12302,"欺負":12303,"汽油":12304,"注重":12305,"的主要":12306,"菁英":12307,"藥品":12308,"解除":12309,"贈送":12310,"超大":12311,"週五":12312,"靈魂":12313,"一直是":12314,"紛紛回應":12315,"發動機":12316,"塑膠袋":12317,"一周":12318,"不算":12319,"中山":12320,"也與":12321,"二度":12322,"代替":12323,"伸展":12324,"共襄":12325,"加重":12326,"嘉年華":12327,"大腸":12328,"實用":12329,"將人":12330,"就直接":12331,"心靈":12332,"戰場":12333,"文學":12334,"會後":12335,"的形象":12336,"空檔":12337,"設有":12338,"較大":12339,"輸給":12340,"降至":12341,"題目":12342,"希望透過":12343,"甚至還有":12344,"資料顯示":12345,"打造出":12346,"畢業後":12347,"喜劇":12348,"外媒":12349,"套房":12350,"寂寞":12351,"投注":12352,"歡呼":12353,"毛孩":12354,"永續":12355,"泡泡":12356,"派員":12357,"激素":12358,"現階段":12359,"盛舉":12360,"石頭":12361,"而成":12362,"許可":12363,"警車":12364,"醬油":12365,"重申":12366,"降到":12367,"隱私":12368,"頂尖":12369,"首席":12370,"有一隻":12371,"共襄盛舉":12372,"不必":12373,"主唱":12374,"仍會":12375,"前幾天":12376,"吸食":12377,"問他":12378,"建置":12379,"溫差":12380,"漁船":12381,"砲轟":12382,"藻礁":12383,"製的":12384,"讓孩子":12385,"跟她":12386,"連接":12387,"金曲":12388,"首節":12389,"鼓鼓":12390,"提出的":12391,"明顯的":12392,"受訪表示":12393,"越來越多":12394,"有趣的是":12395,"公共危險":12396,"整理出":12397,"身心障礙":12398,"國定假日":12399,"一再":12400,"一方面":12401,"中藥":12402,"你在":12403,"反抗":12404,"吃下":12405,"哽咽":12406,"將她":12407,"應對":12408,"打得":12409,"接吻":12410,"搜救":12411,"有感":12412,"樹林":12413,"爭奪":12414,"看電影":12415,"網購":12416,"緊接著":12417,"續約":12418,"聲浪":12419,"螢光":12420,"行走":12421,"見過":12422,"訂定":12423,"踢踢":12424,"辭職":12425,"還原":12426,"發生了":12427,"透露自己":12428,"小時內":12429,"之戰":12430,"企劃":12431,"來愈":12432,"只不過":12433,"咳嗽":12434,"喇叭":12435,"圓滿":12436,"報價":12437,"天後":12438,"慾望":12439,"拆除":12440,"東北部":12441,"樣貌":12442,"歲以上":12443,"注射":12444,"熱銷":12445,"爭吵":12446,"當兵":12447,"發票":12448,"精華":12449,"細膩":12450,"經貿":12451,"聽聞":12452,"起火":12453,"陸軍":12454,"點名":12455,"如果沒有":12456,"便利商店":12457,"朝野協商":12458,"不愛":12459,"佩服":12460,"前夕":12461,"原諒":12462,"合格":12463,"喜悅":12464,"圍觀":12465,"天下":12466,"奇蹟":12467,"就已":12468,"愈來愈":12469,"探測":12470,"收下":12471,"是一名":12472,"有過":12473,"朝聖":12474,"水中":12475,"消耗":12476,"的男人":12477,"私密":12478,"藉著":12479,"處女":12480,"號的":12481,"視線":12482,"解讀":12483,"言語":12484,"豪宅":12485,"超市":12486,"轉身":12487,"逃離":12488,"麥克":12489,"今年在":12490,"雖然沒有":12491,"只要有":12492,"安全感":12493,"安全的":12494,"女兒的":12495,"開心的":12496,"攝影機":12497,"保有":12498,"優於":12499,"前男友":12500,"原價":12501,"在明年":12502,"多加":12503,"如下":12504,"小女孩":12505,"尾聲":12506,"很高":12507,"我可以":12508,"打進":12509,"拉扯":12510,"昔日":12511,"曲線":12512,"漲幅":12513,"熱火":12514,"種子":12515,"腳踝":12516,"藉口":12517,"諷刺":12518,"走紅":12519,"酒吧":12520,"體系":12521,"上壘":12522,"了幾":12523,"包裹":12524,"口號":12525,"台中":12526,"名男子":12527,"大關":12528,"好轉":12529,"就此":12530,"得主":12531,"放進":12532,"書法":12533,"板凳":12534,"病例":12535,"的女兒":12536,"的經典":12537,"禮盒":12538,"群組":12539,"背心":12540,"該怎麼":12541,"跑車":12542,"迎來":12543,"進帳":12544,"遺傳":12545,"安全帽":12546,"領導人":12547,"人是":12548,"但沒有":12549,"共鳴":12550,"切除":12551,"副市長":12552,"加工":12553,"南瓜":12554,"受理":12555,"可透過":12556,"孤單":12557,"實況":12558,"層次":12559,"性交易":12560,"控訴":12561,"收納":12562,"更大":12563,"機上":12564,"歷程":12565,"熱血":12566,"王牌":12567,"的政策":12568,"看待":12569,"童年":12570,"等症狀":12571,"精準":12572,"給大家":12573,"纖細":12574,"美腿":12575,"臉頰":12576,"虐待":12577,"該公司":12578,"已經被":12579,"市場的":12580,"保險套":12581,"上頭":12582,"二代":12583,"兩者":12584,"在床上":12585,"大學生":12586,"定義":12587,"容量":12588,"擺脫":12589,"日也":12590,"氣憤":12591,"水的":12592,"海上":12593,"滑雪":12594,"犯嫌":12595,"發聲":12596,"的地":12597,"缺點":12598,"羈押":12599,"自拍照":12600,"蕾絲":12601,"見諒":12602,"註明":12603,"讚賞":12604,"退貨":12605,"那就是":12606,"里程":12607,"金色":12608,"非他命":12609,"黑白":12610,"一起來":12611,"影片後":12612,"任何人":12613,"的話題":12614,"正常的":12615,"第四節":12616,"下半場":12617,"中毒":12618,"份量":12619,"先行":12620,"兼顧":12621,"出任":12622,"分成":12623,"到最後":12624,"埋伏":12625,"後又":12626,"得逞":12627,"施政":12628,"暖男":12629,"有錢":12630,"注入":12631,"的力量":12632,"的父親":12633,"示威":12634,"第七":12635,"等相關":12636,"親近":12637,"變身":12638,"讚嘆":12639,"車隊":12640,"重回":12641,"震盪":12642,"飽受":12643,">-,":12644,"一定的":12645,"比賽中":12646,"發展的":12647,"的事件":12648,"感到相當":12649,"一陣子":12650,"戰鬥機":12651,"上方":12652,"中和":12653,"也未":12654,"伸出":12655,"使出":12656,"來稿":12657,"停飛":12658,"兔子":12659,"內建":12660,"則會":12661,"勃起":12662,"品味":12663,"善良":12664,"屋頂":12665,"工商":12666,"年與":12667,"延燒":12668,"待遇":12669,"想辦法":12670,"抵抗":12671,"拿去":12672,"支全壘打":12673,"放假":12674,"標籤":12675,"法庭":12676,"海邊":12677,"為自己":12678,"疲勞":12679,"的名字":12680,"緩慢":12681,"老爸":12682,"複賽":12683,"這天":12684,"這波":12685,"通電話":12686,"週末":12687,"一套":12688,"上節目":12689,"佳績":12690,"信仰":12691,"傳說":12692,"反正":12693,"強大的":12694,"抑制":12695,"改進":12696,"文表示":12697,"日在臉書上":12698,"是她":12699,"有隻":12700,"死因":12701,"海報":12702,"消除":12703,"直指":12704,"競技":12705,"豬肉":12706,"起初":12707,"高等":12708,"黑人":12709,"一名女子":12710,"出現的":12711,"拍攝的":12712,"經典的":12713,"來稿請寄":12714,"下面":12715,"不著":12716,"不被":12717,"主廚":12718,"優點":12719,"到期":12720,"反觀":12721,"另行":12722,"可夢":12723,"在國際":12724,"她認為":12725,"應變":12726,"懷念":12727,"撫摸":12728,"權限":12729,"清醒":12730,"畫素":12731,"的反應":12732,"著名":12733,"請來":12734,"都更":12735,"集體":12736,"雙腳":12737,"風暴":12738,"雖然是":12739,"這樣做":12740,"臉書粉絲團":12741,"女孩們":12742,"開幕戰":12743,"本來就":12744,"不錯的":12745,"就好了":12746,"不動產":12747,"不成":12748,"也因":12749,"全裸":12750,"公會":12751,"十年":12752,"多半":12753,"多雲":12754,"婚宴":12755,"室友":12756,"寒冬":12757,"寶可夢":12758,"尊嚴":12759,"導入":12760,"探討":12761,"求償":12762,"界的":12763,"秋訓":12764,"縣府":12765,"老虎":12766,"與粉絲":12767,"進食":12768,"郵局":12769,"首長":12770,"朋友們":12771,"這個問題":12772,"手機遊戲":12773,"下來的":12774,"舞台上":12775,"人人":12776,"但後來":12777,"再以":12778,"功課":12779,"勇於":12780,"唇膏":12781,"四肢":12782,"國產":12783,"太久":12784,"好心":12785,"客場":12786,"微微":12787,"必備":12788,"旗下的":12789,"更重要":12790,"橘子":12791,"災害":12792,"玉米":12793,"給付":12794,"讀者":12795,"足以":12796,"還記得":12797,"部會":12798,"隧道":12799,"雞排":12800,"驚險":12801,"org11":12802,"因為有":12803,"雖然在":12804,"真的要":12805,"甚至在":12806,"提醒民眾":12807,"到場後":12808,"救護人員":12809,"吉祥物":12810,"~」、「":12811,"交付":12812,"單獨":12813,"嗓音":12814,"天內":12815,"好身材":12816,"安非他命":12817,"後座":12818,"批踢踢":12819,"接駁":12820,"日夜":12821,"最美":12822,"殺害":12823,"的情緒":12824,"節慶":12825,"翻譯":12826,"表面":12827,"說了":12828,"讓玩家":12829,"都無法":12830,"陣營":12831,"靈活":12832,"自己有":12833,"第一天":12834,"怎麼樣":12835,"遊戲中":12836,"公斤的":12837,"一級":12838,"不利":12839,"他對":12840,"休養":12841,"依賴":12842,"前三":12843,"又不":12844,"句點":12845,"大廳":12846,"帥哥":12847,"心目":12848,"快閃":12849,"惡化":12850,"接任":12851,"有利":12852,"正反":12853,"男在":12854,"的服務":12855,"社長":12856,"自認":12857,"該片":12858,"讓觀眾":12859,"過境":12860,"長官":12861,">...":12862,"過去曾":12863,"一點都不":12864,"實在是":12865,"這一切":12866,"也開始":12867,"倒是":12868,"公牛":12869,"初審":12870,"南向":12871,"可說":12872,"合計":12873,"急性":12874,"恐龍":12875,"慶生":12876,"截止":12877,"拍了":12878,"損害":12879,"新品":12880,"深厚":12881,"火星":12882,"的世界":12883,"的症狀":12884,"約談":12885,"應該會":12886,"上學":12887,"主人的":12888,"也強調":12889,"保濕":12890,"則回應":12891,"密集":12892,"幕僚":12893,"彩妝":12894,"很愛":12895,"成一":12896,"拯救":12897,"於今年":12898,"洋基":12899,"熱帶":12900,"生前":12901,"產地":12902,"的健康":12903,"的紀錄":12904,"皆為":12905,"看的":12906,"站起來":12907,"竟是":12908,"等著":12909,"結論":12910,"請假":12911,"起的":12912,"長約":12913,"面膜":12914,"首歌":12915,"臉書粉絲專頁":12916,"出席活動":12917,"跨年夜":12918,"法官認為":12919,"敬請見諒":12920,"三人":12921,"去找":12922,"吃得":12923,"哭笑":12924,"坐著":12925,"學歷":12926,"平板":12927,"往上":12928,"快要":12929,"愛好":12930,"抱持":12931,"揭開":12932,"新光":12933,"暑假":12934,"特徵":12935,"瓦斯":12936,"的產品":12937,"的功能":12938,"皆有":12939,"立馬":12940,"總會":12941,"荷爾蒙":12942,"賠率":12943,"過關":12944,"錯了":12945,"長度":12946,"高人氣":12947,"警方在":12948,"根據報導":12949,"電動車":12950,"遼寧艦":12951,"一週":12952,"也以":12953,"再用":12954,"凍結":12955,"同婚":12956,"套餐":12957,"好多":12958,"好禮":12959,"季的":12960,"導師":12961,"後果":12962,"我家":12963,"操控":12964,"教頭":12965,"未成年":12966,"校友":12967,"流程":12968,"登台":12969,"的狗狗":12970,"的立場":12971,"臀部":12972,"色情":12973,"論文":12974,"超跑":12975,"迄今":12976,"通告":12977,"道理":12978,"第一位":12979,"專業的":12980,"觀光客":12981,"日常生活":12982,"一樓":12983,"也從":12984,"他曾":12985,"剛開始":12986,"勝選":12987,"天才":12988,"小狗":12989,"層面":12990,"往年":12991,"挑釁":12992,"條款":12993,"榮耀":12994,"男人的":12995,"發售":12996,"的狗":12997,"篩檢":12998,"編隊":12999,"臉蛋":13000,"與會":13001,"西區":13002,"觀點":13003,"財政":13004,"超可愛":13005,"速食":13006,"配音":13007,"開的":13008,"闖關":13009,"順暢":13010,"最後在":13011,"最後一天":13012,"世界各地":13013,"開心地":13014,"獲報後":13015,"東森新聞雲":13016,"主因":13017,"交情":13018,"保健":13019,"做的事":13020,"凸顯":13021,"動漫":13022,"古蹟":13023,"叫我":13024,"喝醉":13025,"在一旁":13026,"好消息":13027,"掙扎":13028,"推進":13029,"新戲":13030,"旋轉":13031,"是對":13032,"曙光":13033,"更要":13034,"有異":13035,"枕頭":13036,"櫃台":13037,"滿壘":13038,"發燒":13039,"的演出":13040,"的玩家":13041,"皇家":13042,"蝴蝶":13043,"被爆":13044,"調降":13045,"請大家":13046,"近況":13047,"連帶":13048,"不過她":13049,"?」「":13050,"社會的":13051,"研究發現":13052,"年前的":13053,"報警處理":13054,"執政黨":13055,"心臟病":13056,"滿意度":13057,"專訪時":13058,"不吃":13059,"中國":13060,"中繼":13061,"大眼":13062,"夫人":13063,"已婚":13064,"常被":13065,"是用":13066,"有在":13067,"海盜":13068,"燦爛":13069,"發佈":13070,"粉色":13071,"語音":13072,"轉隊":13073,"長久":13074,"目前的":13075,"不會再":13076,"發生的":13077,"分享育兒":13078,"只要在":13079,"一下子":13080,"直播節目":13081,"幸福的":13082,"這件事情":13083,"哭笑不得":13084,"低迷":13085,"依序":13086,"公升":13087,"和朋友":13088,"國父":13089,"就跟":13090,"巫師":13091,"巴掌":13092,"會比":13093,"有一名":13094,"為她":13095,"牽手":13096,"症候":13097,"痛哭":13098,"私底下":13099,"編劇":13100,"誠實":13101,"貓奴":13102,"資遣":13103,"輪流":13104,"道的":13105,"選前":13106,"雞肉":13107,"風光":13108,"時間內":13109,"目前正":13110,"我們要":13111,"上限":13112,"交友":13113,"兩個人":13114,"到一半":13115,"地產":13116,"壓迫":13117,"大規模":13118,"小小的":13119,"性關係":13120,"提名":13121,"搖擺":13122,"有位":13123,"樂天":13124,"櫻花":13125,"母子":13126,"比照":13127,"沿著":13128,"清查":13129,"滅火":13130,"猶豫":13131,"的錢":13132,"的一個":13133,"的努力":13134,"科罰金":13135,"穿的":13136,"胸前":13137,"華人":13138,"行業":13139,"被騙":13140,"親人":13141,"遊樂":13142,"那時":13143,"網友也":13144,"什麼時候":13145,"在臉書社團":13146,"投手教練":13147,"那麼多":13148,"呈現出":13149,"症候群":13150,"下了":13151,"下半":13152,"人群":13153,"入侵":13154,"卻意外":13155,"含量":13156,"喜訊":13157,"單車":13158,"在路上":13159,"學術":13160,"家電":13161,"寫的":13162,"將成為":13163,"強賽":13164,"復原":13165,"惡劣":13166,"打經典賽":13167,"抬頭":13168,"擦撞":13169,"有如":13170,"深情":13171,"無所":13172,"無效":13173,"班次":13174,"粉專":13175,"緊密":13176,"著名的":13177,"解析":13178,"說我":13179,"說服":13180,"談戀愛":13181,"貼上網":13182,"這句話":13183,"雷霆":13184,"面向":13185,"顯見":13186,"香味":13187,"驚人的":13188,"黨部":13189,"loc16":13190,"有一位":13191,"修正草案":13192,"優良":13193,"前女友":13194,"加熱":13195,"區長":13196,"大雨":13197,"家裡的":13198,"引述":13199,"得太":13200,"性騷擾":13201,"拿鐵":13202,"指責":13203,"新興":13204,"書籍":13205,"有名":13206,"東家":13207,"板上":13208,"男團":13209,"發育":13210,"致命":13211,"被爆出":13212,"角逐":13213,"造假":13214,"連忙":13215,"連線":13216,"開跑":13217,"沒有什麼":13218,"一起去":13219,"也不知道":13220,"研究指出":13221,"千萬別":13222,"他指出":13223,"促銷":13224,"俐落":13225,"個國家":13226,"再見":13227,"分子":13228,"匯款":13229,"在哪裡":13230,"在推特上":13231,"地主":13232,"委屈":13233,"孫子":13234,"屆金馬獎":13235,"往來":13236,"快艇":13237,"愛吃":13238,"找尋":13239,"搖頭":13240,"放送":13241,"旁的":13242,"會比較":13243,"特休假":13244,"發電":13245,"白眼":13246,"盜壘":13247,"簡介":13248,"老化":13249,"臨床":13250,"誤解":13251,"諸多":13252,"譽為":13253,"讓全場":13254,"貼上":13255,"身手":13256,"車牌":13257,"載著":13258,"轉彎":13259,"農藥":13260,"進化":13261,"醜聞":13262,"首波":13263,"per16":13264,"特別的是":13265,"則是在":13266,"消防人員":13267,"試試看":13268,"並強調":13269,"中正":13270,"主權":13271,"作收":13272,"傷心":13273,"出色":13274,"前鋒":13275,"原創":13276,"原料":13277,"口交":13278,"大增":13279,"專用":13280,"思維":13281,"我不知道":13282,"換成":13283,"時裝":13284,"本作":13285,"無可":13286,"特性":13287,"的球隊":13288,"的現象":13289,"相差":13290,"自責":13291,"要他":13292,"身形":13293,"轟下":13294,"雙位數":13295,"鞋款":13296,"首輪":13297,"接受媒體":13298,"小時後":13299,"關注的":13300,"新聞稿":13301,"呼籲民眾":13302,"致力於":13303,"下架":13304,"不代表":13305,"共享":13306,"功夫":13307,"卡車":13308,"合適":13309,"和老公":13310,"地獄":13311,"大了":13312,"學到":13313,"很可能":13314,"數學":13315,"時至":13316,"未遂":13317,"柔軟":13318,"格外":13319,"檳榔":13320,"母女":13321,"演習":13322,"玩樂":13323,"登山":13324,"的壓力":13325,"知情":13326,"而被":13327,"脫口":13328,"萬次":13329,"藍鳥":13330,"要跟":13331,"貓的":13332,"貴的":13333,"轟炸":13334,"追逐":13335,"遠離":13336,"遭人":13337,"開賽":13338,"香水":13339,"個月內":13340,"咖啡廳":13341,"到底是":13342,"流感疫苗":13343,"宣告不治":13344,"休旅車":13345,"不需":13346,"並要求":13347,"做成":13348,"分店":13349,"功力":13350,"勝出":13351,"善意":13352,"國會":13353,"外國人":13354,"妥善":13355,"姓司機":13356,"威力":13357,"家具":13358,"將可":13359,"從頭":13360,"復合":13361,"悲傷":13362,"情事":13363,"懲罰":13364,"才開始":13365,"摸摸":13366,"故障":13367,"本案":13368,"歐巴":13369,"活躍":13370,"滾地球":13371,"的速度":13372,"盡情":13373,"突發":13374,"老年":13375,"老舊":13376,"衍生":13377,"被抓":13378,"說什麼":13379,"輸出":13380,"郵件":13381,"銷量":13382,"顯著":13383,"高麗":13384,"日前往":13385,"當時在":13386,"都會有":13387,"分鐘的":13388,"來自於":13389,"下一秒":13390,"唯一的":13391,"大聲說":13392,"代言人":13393,"座談會":13394,"「」":13395,"一秒":13396,"不應":13397,"也想":13398,"也認為":13399,"他提到":13400,"但對於":13401,"傷亡":13402,"在乎":13403,"在學校":13404,"報復":13405,"我認為":13406,"收盤":13407,"敵人":13408,"新片":13409,"最具":13410,"最為":13411,"會持續":13412,"民法":13413,"玩遊戲":13414,"現狀":13415,"的權利":13416,"站台":13417,"笑聲":13418,"等罪嫌":13419,"純粹":13420,"補給":13421,"要如何":13422,"試驗":13423,"談論":13424,"讓許多人":13425,"買賣":13426,"輕生":13427,"還特別":13428,"鋼鐵":13429,"零售":13430,"霧霾":13431,"香菇":13432,"麻醉":13433,"之後再":13434,"分享了":13435,"了一張":13436,"吸引許多":13437,"國內外":13438,"溫暖的":13439,"不起訴":13440,"目擊者":13441,"對著鏡頭":13442,"牛仔褲":13443,"+<":13444,"不穩":13445,"人為":13446,"做過":13447,"先把":13448,"刺青":13449,"博覽":13450,"原味":13451,"名叫":13452,"單價":13453,"圍巾":13454,"外景":13455,"她與":13456,"實習":13457,"想想":13458,"掉落":13459,"控衛":13460,"攔截":13461,"步入":13462,"湖人":13463,"濃郁":13464,"特質":13465,"男大生":13466,"當家":13467,"的訓練":13468,"的男性":13469,"立院":13470,"約為":13471,"紙箱":13472,"總額":13473,"處置":13474,"製品":13475,"覆蓋":13476,"話說":13477,"認愛":13478,"輕微":13479,"金球":13480,"閃電":13481,"陳情":13482,"電力":13483,"點綴":13484,"龐大":13485,"這是一個":13486,"重點是":13487,"飛行員":13488,"不一定":13489,"中表示":13490,"付款":13491,"傑出":13492,"到大":13493,"加薪":13494,"啊啊":13495,"喜好":13496,"土豪":13497,"在台上":13498,"學院":13499,"干政":13500,"幾位":13501,"心血管":13502,"怎料":13503,"情趣":13504,"應景":13505,"或其他":13506,"拍片":13507,"提議":13508,"改裝":13509,"早日":13510,"早點":13511,"明年的":13512,"暖暖":13513,"柴油":13514,"簽訂":13515,"紫色":13516,"被撞":13517,"要價":13518,"觀測":13519,"警報":13520,"護士":13521,"護照":13522,"買家":13523,"較少":13524,"離家":13525,"電台":13526,"駭客":13527,"身體健康":13528,"有一點":13529,"代價":13530,"偏鄉":13531,"吃起來":13532,"察覺":13533,"將牠":13534,"對立":13535,"就得":13536,"撕裂":13537,"撥打":13538,"教堂":13539,"會把":13540,"會讓人":13541,"油脂":13542,"洋蔥":13543,"牆壁":13544,"瘦身":13545,"的歌曲":13546,"研議":13547,"素人":13548,"脫下":13549,"衛冕":13550,"讓不少":13551,"轟動":13552,"遇過":13553,"都不是":13554,"額頭":13555,"髒話":13556,"點在":13557,"無法接受":13558,"分鐘後":13559,"公尺的":13560,"必要的":13561,"專案小組":13562,"新北市":13563,"醫護人員":13564,"三越":13565,"上身":13566,"也不要":13567,"乳房":13568,"副主委":13569,"勝投":13570,"去了":13571,"回報":13572,"奢華":13573,"後衛":13574,"忠孝":13575,"思議":13576,"憤而":13577,"披薩":13578,"換了":13579,"效益":13580,"更高":13581,"會對":13582,"會用":13583,"流出":13584,"猩猩":13585,"用途":13586,"的方向":13587,"直覺":13588,"眼影":13589,"眼眶":13590,"確診":13591,"稱呼":13592,"綠燈":13593,"締造":13594,"義消":13595,"菜鳥":13596,"蠟燭":13597,"衝動":13598,"識別":13599,"讓許多網友":13600,"過得":13601,"邁向":13602,"閨密":13603,"香港":13604,"原本是":13605,"消息指出":13606,"熱身賽":13607,">:「":13608,"一則":13609,"一號":13610,"也已經":13611,"交接":13612,"人行":13613,"內有":13614,"前一天":13615,"十二":13616,"受影響":13617,"合影":13618,"和男友":13619,"咖哩":13620,"國泰":13621,"年就":13622,"影帝":13623,"愛女":13624,"扯鈴":13625,"拍完":13626,"日以":13627,"是許多":13628,"未婚":13629,"某天":13630,"殊榮":13631,"洲際":13632,"物種":13633,"現有":13634,"產後":13635,"笑到":13636,"美妝":13637,"若要":13638,"萬畫素":13639,"親戚":13640,"議長":13641,"買的":13642,"資本":13643,"起了":13644,"超模":13645,"逛街":13646,"進展":13647,"那一":13648,"降溫":13649,"黃蜂":13650,"沒有辦法":13651,"粉絲的":13652,"其中一名":13653,"球隊的":13654,"處理器":13655,"分鐘內":13656,"中心的":13657,"預計明年":13658,"消費滿":13659,"另一位":13660,"製作單位":13661,"絕對不會":13662,"公里的":13663,"建築物":13664,"組成的":13665,"時代力量立委":13666,"在野黨":13667,"有別於":13668,"一併":13669,"再添":13670,"千人":13671,"取締":13672,"向上":13673,"嚴肅":13674,"固醇":13675,"大自然":13676,"封閉":13677,"屁孩":13678,"已無":13679,"快感":13680,"想去":13681,"我已經":13682,"提領":13683,"放到":13684,"早盤":13685,"星星":13686,"每當":13687,"比分":13688,"海拔":13689,"潛水":13690,"班底":13691,"目睹":13692,"萬個":13693,"詭異":13694,"超強":13695,"院會":13696,"面貌":13697,"希望在":13698,"非常有":13699,"這是我":13700,"只能說":13701,"穩定的":13702,"不滿意":13703,"大量的":13704,"史上最":13705,"!」。":13706,"上半身":13707,"下半年":13708,"內外":13709,"全是":13710,"外貌":13711,"家中的":13712,"座椅":13713,"很高興":13714,"心動":13715,"才在":13716,"排水":13717,"揭露":13718,"據報導":13719,"於今日":13720,"旁人":13721,"更大的":13722,"殺青":13723,"水晶":13724,"溫和":13725,"相繼":13726,"看電視":13727,"等候":13728,"聽完":13729,"芝麻":13730,"補償":13731,"視訊":13732,"親民":13733,"講述":13734,"辣椒":13735,"這座":13736,"選購":13737,"邊境":13738,"開拍":13739,"高於":13740,"發現自己":13741,"完全沒":13742,"歷史的":13743,"保養品":13744,"月中旬":13745,">+<":13746,"旗艦店":13747,"中學":13748,"付費":13749,"休二":13750,"做得":13751,"兩場":13752,"刊登":13753,"和家人":13754,"士兵":13755,"壽司":13756,"大開":13757,"就讓":13758,"拓展":13759,"搶購":13760,"教訓":13761,"旅展":13762,"沙灘":13763,"漸層":13764,"然大":13765,"片場":13766,"甜甜":13767,"的合作":13768,"的聖誕":13769,"眼裡":13770,"綽號":13771,"緩解":13772,"考古":13773,"腦袋":13774,"落地":13775,"要看":13776,"視力":13777,"訪談":13778,"超萌":13779,"針織":13780,"防疫":13781,"雞腿":13782,"騎機車":13783,"其中一":13784,"地價稅":13785,"邦交國":13786,"」「":13787,"三種":13788,"不容":13789,"中最":13790,"仍以":13791,"企鵝":13792,"依規定":13793,"倒在":13794,"先將":13795,"公關":13796,"分領先":13797,"卻遭":13798,"又會":13799,"太平":13800,"女裝":13801,"她穿著":13802,"安樂":13803,"康復":13804,"我就是":13805,"棉被":13806,"毫克":13807,"熊貓":13808,"的名":13809,"的貓":13810,"的安全":13811,"的女子":13812,"的需求":13813,"相識":13814,"落敗":13815,"該處":13816,"較去年":13817,"金鐘":13818,"鋼琴":13819,"面板":13820,"革命":13821,"現在已經":13822,"大家一起":13823,"一名網友在":13824,"成功的":13825,"製作的":13826,"竟然是":13827,"生命跡象":13828,"麥克風":13829,"一聲":13830,"不一":13831,"不好的":13832,"之內":13833,"來得":13834,"傳來":13835,"僅剩":13836,"出售":13837,"出境":13838,"友邦":13839,"吉他":13840,"家暴":13841,"工地":13842,"平面":13843,"年和":13844,"心碎":13845,"日深夜":13846,"果汁":13847,"查扣":13848,"核定":13849,"洗手":13850,"無比":13851,"疼愛":13852,"的白":13853,"的國際":13854,"的動物":13855,"碰撞":13856,"縮短":13857,"股權":13858,"要用":13859,"試辦":13860,"議論":13861,"走訪":13862,"這幾天":13863,"那樣":13864,"雙人":13865,"馬麻":13866,"高血壓":13867,"臉書社團":13868,"當時他":13869,"電影中":13870,"市場上":13871,"研究人員":13872,"分手後":13873,"這段影片":13874,"遼寧號":13875,"高麗菜":13876,"一哥":13877,"但他們":13878,"併發":13879,"司令":13880,"品種":13881,"壓軸":13882,"壟斷":13883,"帶點":13884,"平方":13885,"意圖":13886,"揭曉":13887,"日時":13888,"春聯":13889,"有天":13890,"核食":13891,"模型":13892,"瀏覽":13893,"的最佳":13894,"的回憶":13895,"能為":13896,"談起":13897,"贊成":13898,"還不錯":13899,"都以":13900,"體位":13901,"因此被":13902,"今天的":13903,"消息一出":13904,"生命危險":13905,"裡面的":13906,"接獲報案":13907,"在外面":13908,"登記結婚":13909,"到案說明":13910,"一模":13911,"一職":13912,"中風":13913,"動脈":13914,"包容":13915,"及其他":13916,"同為":13917,"堅決":13918,"報紙":13919,"外送":13920,"大勝":13921,"女警":13922,"她透露":13923,"巷弄":13924,"心肌":13925,"擄獲":13926,"月台":13927,"款項":13928,"民宿":13929,"淡定":13930,"牛排":13931,"疑問":13932,"破表":13933,"破裂":13934,"節省":13935,"精選":13936,"絕佳":13937,"腸道":13938,"裝潢":13939,"逃跑":13940,"過量":13941,"雙腿":13942,"可以用":13943,"可能有":13944,"根本沒":13945,"機車騎士":13946,"進一步釐清":13947,"一年一度":13948,"消防局":13949,"偶像劇":13950,"大批粉絲":13951,"的重要性":13952,"足夠的":13953,"意味著":13954,",,":13955,"不定":13956,"並向":13957,"人死亡":13958,"偷走":13959,"偽造":13960,"僅是":13961,"入境":13962,"入鏡":13963,"剩餘":13964,"劇烈":13965,"加以":13966,"同名":13967,"執法":13968,"墨鏡":13969,"媳婦":13970,"富含":13971,"常會":13972,"年資":13973,"怪的":13974,"戲碼":13975,"新型":13976,"景色":13977,"檸檬":13978,"永豐":13979,"獻唱":13980,"的母親":13981,"的價值":13982,"的議題":13983,"直擊":13984,"給對方":13985,"網頁":13986,"老將":13987,"艦艇":13988,"變換":13989,"變裝":13990,"這也":13991,"通勤":13992,"連任":13993,"都想":13994,"防衛":13995,"雙邊":13996,"領獎":13997,"per17":13998,"相當於":13999,"非常好":14000,"完全是":14001,"不斷的":14002,"女性的":14003,"確實有":14004,"不可思議":14005,"達成共識":14006,"參賽者":14007,"旅行社":14008,"無人機":14009,"合法化":14010,"各式各":14011,"血液循環":14012,"一票":14013,"一線":14014,"不符":14015,"中指出":14016,"也就":14017,"他又":14018,"但我們":14019,"但對方":14020,"前提":14021,"國旗":14022,"套裝":14023,"它們":14024,"宣示":14025,"實踐":14026,"小孩子":14027,"年半":14028,"忠實":14029,"恰恰":14030,"憲法":14031,"應是":14032,"我不是":14033,"把關":14034,"抽菸":14035,"挹注":14036,"放過":14037,"日式":14038,"易科罰金":14039,"會將":14040,"清除":14041,"漁港":14042,"物資":14043,"的要求":14044,"的印象":14045,"移轉":14046,"童話":14047,"腹瀉":14048,"觸控":14049,"調度":14050,"變遷":14051,"超好":14052,"跨越":14053,"較多":14054,"這點":14055,"關切":14056,"電線":14057,"項鍊":14058,"飲用":14059,"體制":14060,"黃男":14061,"其他網友":14062,"個月後":14063,"第二名":14064,"狗狗的":14065,"傳統的":14066,"交流道":14067,"生殖器":14068,"金球獎":14069,"一帶":14070,"中途":14071,"亮的":14072,"但也有網友":14073,"作風":14074,"傷者":14075,"克斯":14076,"同樂":14077,"和對方":14078,"喉嚨":14079,"大廠":14080,"夯的":14081,"寬鬆":14082,"小黃":14083,"左側":14084,"年末":14085,"徵召":14086,"所在":14087,"搶眼":14088,"擔綱":14089,"是可以":14090,"會期":14091,"歸隊":14092,"注目":14093,"清晰":14094,"睫毛":14095,"自覺":14096,"藏在":14097,"買下":14098,"賦予":14099,"鑽石":14100,"食慾":14101,"高手":14102,"相當有":14103,"的人氣":14104,"另外還有":14105,"讓人看了":14106,"研究顯示":14107,"年輕球員":14108,"紀錄片":14109,"在網路上引發":14110,"太陽能":14111,"跟我說":14112,"調閱監視器":14113,"新生代":14114,"廢棄物":14115,"上也":14116,"上半年":14117,"下場":14118,"了很多":14119,"任意":14120,"依違反":14121,"充足":14122,"兇手":14123,"分裂":14124,"功效":14125,"商家":14126,"因傷":14127,"國籍":14128,"存活":14129,"對你":14130,"急忙":14131,"性生活":14132,"想吃":14133,"意志":14134,"擴張":14135,"時事":14136,"有媽媽":14137,"極度":14138,"槍枝":14139,"歲了":14140,"沒錢":14141,"波及":14142,"減重":14143,"火花":14144,"父子":14145,"病變":14146,"矚目的":14147,"窗戶":14148,"而不":14149,"衰竭":14150,"道德":14151,"遮住":14152,"配套":14153,"配色":14154,"鍵盤":14155,"騎著":14156,"就是在":14157,"所以才":14158,"個月大的":14159,"小孩的":14160,"最近在":14161,"的大型":14162,"邀請到":14163,"有趣的":14164,"幼兒園":14165,">?":14166,"不希望":14167,"人文":14168,"但又":14169,"停下":14170,"兩款":14171,"出庭":14172,"分左右":14173,"前夫":14174,"卵巢":14175,"四個":14176,"奧客":14177,"妝容":14178,"小編":14179,"彩排":14180,"復發":14181,"您來":14182,"我相信":14183,"戰士":14184,"抱抱":14185,"捲入":14186,"收回":14187,"旅外":14188,"無罪":14189,"的身分":14190,"的訊息":14191,"罩杯":14192,"要先":14193,"註冊":14194,"貼圖":14195,"資方":14196,"車身":14197,"辦事":14198,"逮到":14199,"開朗":14200,"網友紛紛":14201,"可以說是":14202,"最後還":14203,"結果出爐":14204,"不斷地":14205,"至今已":14206,"之美":14207,"任期":14208,"倒臥":14209,"傳喚":14210,"儲存":14211,"分布":14212,"原廠":14213,"取出":14214,"可用":14215,"命令":14216,"在全球":14217,"多家":14218,"她日前":14219,"官司":14220,"就先":14221,"就將":14222,"年至":14223,"慣例":14224,"成這樣":14225,"扭曲":14226,"抨擊":14227,"擺放":14228,"收養":14229,"整齊":14230,"曾表示":14231,"泡湯":14232,"準時":14233,"熱舞":14234,"爵士":14235,"的紅":14236,"神似":14237,"空難":14238,"簽證":14239,"聚餐":14240,"藝文":14241,"解答":14242,"送至":14243,"週一":14244,"過大":14245,"開庭":14246,"高舉":14247,"鳳梨":14248,"黨員":14249,"可能在":14250,"關係的":14251,"了一隻":14252,"...」、「":14253,"時代的":14254,"產生的":14255,"至少有":14256,"不少網友看到":14257,"陌生人":14258,"議事錄":14259,"三圍":14260,"公仔":14261,"各類":14262,"周六":14263,"唱到":14264,"國務":14265,"大於":14266,"將從":14267,"導體":14268,"就覺得":14269,"市價":14270,"彩券":14271,"從沒":14272,"怪獸":14273,"想著":14274,"掌控":14275,"會很":14276,"會更":14277,"極為":14278,"構成":14279,"民生":14280,"無疑":14281,"現況":14282,"笑了":14283,"罰球":14284,"要將":14285,"認出":14286,"調味":14287,"警戒":14288,"貼紙":14289,"貼近":14290,"趣事":14291,"轉向":14292,"逐年":14293,"這輛":14294,"隨之":14295,"首映":14296,"駕照":14297,"高三":14298,"因為在":14299,"分享自己":14300,"而且還":14301,"感覺到":14302,"都不知道":14303,"退休金":14304,"公益活動":14305,"智慧型手機":14306,"另行通知":14307,"一審":14308,"不小":14309,"不離":14310,"也推出":14311,"作出":14312,"做事":14313,"偵測":14314,"再將":14315,"天文":14316,"女人的":14317,"姿態":14318,"學弟":14319,"年以上":14320,"廣泛":14321,"搭機":14322,"改版":14323,"是自己":14324,"暴龍":14325,"機身":14326,"次長":14327,"殘留":14328,"流失":14329,"清爽":14330,"特展":14331,"的金":14332,"的表演":14333,"硬體":14334,"秘訣":14335,"罷免":14336,"腦部":14337,"艦載":14338,"街道":14339,"遺產":14340,"鏡子":14341,"首播":14342,"高雄":14343,"loc17":14344,"我們在":14345,"提供給":14346,"只是想":14347,"經濟成長":14348,"牠們的":14349,"主席台":14350,"基本的":14351,"戲劇圈":14352,"分享育兒心得":14353,"不甘":14354,"交叉":14355,"他更":14356,"伴手":14357,"併購":14358,"兒女":14359,"加快":14360,"原地":14361,"又以":14362,"反駁":14363,"同伴":14364,"名牌":14365,"在當地":14366,"嫁給":14367,"心想":14368,"把她":14369,"排出":14370,"日接受":14371,"晶片":14372,"案的":14373,"死的":14374,"氣墊":14375,"沒了":14376,"球的":14377,"知的":14378,"總部":14379,"罰單":14380,"處的":14381,"試營運":14382,"貼身":14383,"都認為":14384,"限時":14385,"鞠躬":14386,"可能要":14387,"今天在":14388,"有一種":14389,"關鍵字":14390,"網友們對此":14391,"本來就是":14392,"年終獎金":14393,"對我來說":14394,"幼稚園":14395,"自小客車":14396,"不爽":14397,"也向":14398,"也將在":14399,"任總統":14400,"位子":14401,"兩側":14402,"冬至":14403,"判定":14404,"副局長":14405,"半導體":14406,"去買":14407,"同台":14408,"問我":14409,"大大的":14410,"奉獻":14411,"小腿":14412,"巧妙":14413,"得手":14414,"性質":14415,"把牠":14416,"投進":14417,"改建":14418,"攻佔":14419,"敗給":14420,"早晚":14421,"格局":14422,"為之":14423,"烘焙":14424,"無敵":14425,"的決定":14426,"種族":14427,"穿梭":14428,"第十":14429,"聆聽":14430,"與家人":14431,"英語":14432,"衝進":14433,"讓妳":14434,"負荷":14435,"貨櫃":14436,"赫然":14437,"較低":14438,"這塊":14439,"連身":14440,"選戰":14441,"重啟":14442,"錢包":14443,"隨行":14444,"頻傳":14445,"高調":14446,"點頭":14447,"過去在":14448,"有人認為":14449,"注意力":14450,"一點點":14451,"爸爸經":14452,"幫助球隊":14453,"今日上午":14454,"發出聲明":14455,"現代人":14456,"敲出安打":14457,">..」,":14458,"不便之處":14459,"不說":14460,"也跟":14461,"他一":14462,"便是":14463,"停留":14464,"公職":14465,"六月":14466,"出租":14467,"切入":14468,"利亞":14469,"加持":14470,"友好":14471,"可選擇":14472,"可上訴":14473,"各隊":14474,"回事":14475,"就對":14476,"展演":14477,"年增":14478,"成軍":14479,"排放":14480,"斬獲":14481,"日召開":14482,"是真的":14483,"會以":14484,"月曆":14485,"波動":14486,"番茄":14487,"發全壘打":14488,"花生":14489,"西方":14490,"變動":14491,"讓不少網友":14492,"賭場":14493,"購票":14494,"轉任":14495,"還包括":14496,"邏輯":14497,"重重":14498,"鍛鍊":14499,"陪著":14500,"驚奇":14501,"發現後":14502,"發生關係":14503,"個人簡介":14504,"日晚間在":14505,"回到家":14506,"綜合外媒報導":14507,"一筆":14508,"下探":14509,"不給":14510,"主流":14511,"在上":14512,"在劇中":14513,"婉拒":14514,"感激":14515,"我希望":14516,"手遊":14517,"接力":14518,"播出的":14519,"放話":14520,"日劇":14521,"末節":14522,"業的":14523,"殺死":14524,"玩笑":14525,"登出不":14526,"笑回":14527,"等同":14528,"組的":14529,"而有":14530,"航行":14531,"花海":14532,"蜘蛛":14533,"警示":14534,"身價":14535,"轉往":14536,"迎風":14537,"這幾":14538,"都可":14539,"都還":14540,"鈔票":14541,"養了":14542,"駁回":14543,"驚豔":14544,"可能性":14545,"雖然有":14546,"決定要":14547,"身體的":14548,"也會有":14549,"這麼做":14550,"兒子的":14551,"歡迎您來":14552,"解決問題":14553,"特殊的":14554,"台灣人":14555,"強烈的":14556,"不高":14557,"中年":14558,"中斷":14559,"二手":14560,"作息":14561,"傳球":14562,"價錢":14563,"原定":14564,"在自己":14565,"多部":14566,"大都會":14567,"常在":14568,"平凡":14569,"忍受":14570,"您有媽媽":14571,"想大聲說":14572,"我媽":14573,"控告":14574,"揣測":14575,"據傳":14576,"新版":14577,"架構":14578,"火速":14579,"版歡迎您來":14580,"環球":14581,"發明":14582,"監獄":14583,"相反":14584,"碼頭":14585,"紙條":14586,"維安":14587,"罹難":14588,"解約":14589,"詳情":14590,"證券":14591,"護衛":14592,"賣家":14593,"超音":14594,"跆拳":14595,"跌破":14596,"輕傷":14597,"輿論":14598,"辯論":14599,"週六":14600,"避開":14601,"邁進":14602,"銀色":14603,"難民":14604,"高壓":14605,"所以在":14606,"消息後":14607,"結婚後":14608,"根本沒有":14609,"將於明年":14610,"第三名":14611,"最終以":14612,"飾演的":14613,"文章登出不":14614,"保留篩選":14615,"保育類":14616,"親子版歡迎您來":14617,"主演的":14618,"自稱是":14619,"修改權限":14620,"終結者":14621,"並請註明":14622,"本報保留篩選":14623,"新光三越":14624,"伴手禮":14625,"爸爸經想大聲說":14626,"不便之處敬請見諒":14627,"您有媽媽經":14628,"文章登出不另行通知":14629,"親子版歡迎您來分享育兒心得":14630,"爸爸經想大聲說嗎":14631,"之姿":14632,"之家":14633,"五人":14634,"他很":14635,"他坦言":14636,"元起":14637,"全文":14638,"分離":14639,"制定":14640,"古裝":14641,"呼應":14642,"和她":14643,"大致":14644,"天啊":14645,"奠定":14646,"如有":14647,"字樣":14648,"學金":14649,"局面":14650,"巨大的":14651,"平靜":14652,"思想":14653,"情境":14654,"掛在":14655,"收取":14656,"政權":14657,"日幣":14658,"是我的":14659,"時也":14660,"曉得":14661,"最初":14662,"會覺得":14663,"歡慶":14664,"殘忍":14665,"痠痛":14666,"發光":14667,"發送":14668,"的後":14669,"的可愛":14670,"的貓咪":14671,"的技術":14672,"真好":14673,"空姐":14674,"緩緩":14675,"績效":14676,"繼承":14677,"美滿":14678,"追加":14679,"逝世":14680,"開工":14681,"零件":14682,"飛到":14683,"我們都":14684,"另一種":14685,"警察局":14686,"排名第":14687,"牛肉麵":14688,"培訓隊":14689,"不當黨產":14690,"不穩定":14691,"了好":14692,"停下來":14693,"化解":14694,"區公所":14695,"叮嚀":14696,"吐槽":14697,"報酬":14698,"士尼":14699,"密碼":14700,"悠遊":14701,"愛貓":14702,"手錶":14703,"推擠":14704,"搶走":14705,"旺季":14706,"時髦":14707,"更被":14708,"最常":14709,"月才":14710,"檢調":14711,"毛髮":14712,"減緩":14713,"燃料":14714,"的價格":14715,"的理由":14716,"紅腫":14717,"翻轉":14718,"自備":14719,"英國":14720,"蜂蜜":14721,"越多":14722,"踏上":14723,"金雞":14724,"飾品":14725,"馬力":14726,"萬元交保":14727,"的一切":14728,"感到很":14729,"上傳到":14730,"的美好":14731,"得獎者":14732,"化妝品":14733,"驅逐艦":14734,"不做":14735,"並用":14736,"人間":14737,"人受傷":14738,"介於":14739,"他要":14740,"其它":14741,"出示":14742,"動機":14743,"善心":14744,"圍繞":14745,"增設":14746,"多年前":14747,"家扶":14748,"射精":14749,"左轉":14750,"布置":14751,"年合約":14752,"度左右":14753,"延後":14754,"後者":14755,"手續":14756,"效能":14757,"文物":14758,"日對":14759,"春夏":14760,"桃花":14761,"案子":14762,"沒能":14763,"滾滾":14764,"無名":14765,"牽著":14766,"盛典":14767,"空拍":14768,"羽絨":14769,"舒緩":14770,"語氣":14771,"護欄":14772,"轉頭":14773,"迪士尼":14774,"重症":14775,"錦賽":14776,"因為她":14777,"不同於":14778,"出來了":14779,"地方法院":14780,"的事實":14781,"像是在":14782,"捷運站":14783,"每個人都":14784,"最重要的是":14785,">」、「<":14786,"一無":14787,"一笑":14788,"上千":14789,"以此":14790,"但沒想到":14791,"來做":14792,"偷吃":14793,"億日圓":14794,"兩度":14795,"公然":14796,"出院":14797,"反差":14798,"叫聲":14799,"右邊":14800,"合力":14801,"和粉絲":14802,"外科":14803,"太郎":14804,"季軍":14805,"已達":14806,"張專輯":14807,"戰袍":14808,"收錄":14809,"教會":14810,"明日":14811,"樓的":14812,"永久":14813,"深感":14814,"的計畫":14815,"種類":14816,"精靈":14817,"紅酒":14818,"翻唱":14819,"英鎊":14820,"藍綠":14821,"西部":14822,"車廠":14823,"追撞":14824,"運送":14825,"附農":14826,"首場":14827,"警方指出":14828,"的一天":14829,"研究所":14830,"至今仍":14831,"尤其在":14832,"會議中":14833,"生涯新高":14834,"哈哈哈哈":14835,"的狀況下":14836,"熟悉的":14837,"中華職棒":14838,"捕捉到":14839,"里程碑":14840,"不理":14841,"主嫌":14842,"兩邊":14843,"出自":14844,"到位":14845,"北農":14846,"反問":14847,"口的":14848,"右側":14849,"和諧":14850,"官邸":14851,"小模":14852,"屁屁":14853,"建商":14854,"悍將":14855,"感慨":14856,"應有":14857,"手持":14858,"打趣":14859,"抽出":14860,"數百":14861,"暖心":14862,"書店":14863,"海關":14864,"生子":14865,"發想":14866,"的合約":14867,"石油":14868,"碩士":14869,"神明":14870,"符號":14871,"聞到":14872,"職員":14873,"與小":14874,"血跡":14875,"要做":14876,"讓外界":14877,"趕到現場":14878,"踏入":14879,"車款":14880,"輪胎":14881,"這筆":14882,"重創":14883,"針對此":14884,"風氣":14885,"馬路上":14886,"齊聚":14887,"認為自己":14888,"現在是":14889,"其中包括":14890,"結果顯示":14891,"國際賽":14892,"去年底":14893,"最高可":14894,"你們的":14895,"駕駛人":14896,"是一隻":14897,"這段時間":14898,"流行的":14899,"判決書":14900,"代理商":14901,"農曆春節":14902,"」、<":14903,"上街":14904,"不難":14905,"也忍不住":14906,"了近":14907,"但為了":14908,"低收入":14909,"便會":14910,"先在":14911,"加分":14912,"動向":14913,"動能":14914,"勾起":14915,"又再":14916,"喪失":14917,"單打":14918,"單眼":14919,"噪音":14920,"垂直":14921,"多萬元":14922,"太高":14923,"年節":14924,"後市":14925,"懷裡":14926,"撤銷":14927,"救助":14928,"日指出":14929,"柴犬":14930,"死忠":14931,"沿途":14932,"激情":14933,"為避免":14934,"登革":14935,"的旅客":14936,"目的是":14937,"眉毛":14938,"磨練":14939,"籌碼":14940,"網址":14941,"署長":14942,"美學":14943,"誘惑":14944,"車速":14945,"輪值":14946,"這讓":14947,"還想":14948,"配戴":14949,"驚悚":14950,"魔鬼":14951,"我們是":14952,"還有待":14953,"臉書上":14954,"今天上午":14955,"研究員":14956,"期待的":14957,"風格的":14958,"的心態":14959,"垃圾桶":14960,"冬季聯盟":14961,"底下留言":14962,"流浪狗":14963,"行李箱":14964,"中部以北":14965,"不順":14966,"事物":14967,"個人的":14968,"力氣":14969,"加護":14970,"去除":14971,"吸菸":14972,"姓網友":14973,"寫到":14974,"影展":14975,"後將":14976,"得了":14977,"怪物":14978,"惡搞":14979,"我說":14980,"戰隊":14981,"拼命":14982,"擁有一":14983,"攸關":14984,"文書":14985,"有心":14986,"本文":14987,"棄養":14988,"極力":14989,"榮幸":14990,"檔案":14991,"沉默":14992,"流動":14993,"清純":14994,"片商":14995,"生小孩":14996,"男網友":14997,"眼看":14998,"稅率":14999,"綁架":15000,"處處":15001,"虧損":15002,"謙虛":15003,"讓網友們":15004,"發生意外":15005,"調查發現":15006,"媒體的":15007,"地方政府":15008,"吸引超過":15009,"分別在":15010,"感到非常":15011,"老師的":15012,"幾乎是":15013,"還要再":15014,"也就是說":15015,"登革熱":15016,"不肯":15017,"不解":15018,"主投":15019,"令粉絲":15020,"你就":15021,"刷卡":15022,"副院長":15023,"助陣":15024,"去世":15025,"友情":15026,"口中":15027,"吃過":15028,"吃飽":15029,"在哪":15030,"壽命":15031,"大事":15032,"天地":15033,"孕肚":15034,"打棒球":15035,"折起":15036,"放寬":15037,"故鄉":15038,"昏倒":15039,"水平":15040,"流量":15041,"滿了":15042,"無意":15043,"發酵":15044,"的城市":15045,"的責任":15046,"的角度":15047,"的決心":15048,"盤中":15049,"空的":15050,"竊取":15051,"筆記":15052,"紅豆":15053,"絲毫":15054,"緊身":15055,"羨煞":15056,"街友":15057,"裁罰":15058,"變態":15059,"轉貼":15060,"開頭":15061,"阻攻":15062,"隱身":15063,"風采":15064,"就是因為":15065,"活動時":15066,"了一些":15067,"注意的是":15068,"疑似是":15069,"公布的":15070,"休息室":15071,"反而是":15072,"受訪者":15073,"打造的":15074,"耶誕市集":15075,"無奈表示":15076,"這部電影":15077,"延長賽":15078,"這張照片":15079,"陪同下":15080,"上床":15081,"了起來":15082,"交談":15083,"募集":15084,"包辦":15085,"北市":15086,"印花":15087,"吃醋":15088,"名列":15089,"周五":15090,"大頭":15091,"婦產":15092,"存款":15093,"小鮮肉":15094,"就想":15095,"年時間":15096,"年以來":15097,"影城":15098,"很棒":15099,"成真":15100,"打架":15101,"擦傷":15102,"新店":15103,"新南向":15104,"旋律":15105,"時而":15106,"普及":15107,"暴露":15108,"正值":15109,"段時間":15110,"氣喘":15111,"火警":15112,"物聯網":15113,"當紅":15114,"癱瘓":15115,"登入":15116,"發片":15117,"的在":15118,"的特色":15119,"票數":15120,"笑虧":15121,"結石":15122,"綠能":15123,"總預算":15124,"色調":15125,"落網":15126,"被外界":15127,"調侃":15128,"逆向":15129,"連絡":15130,"選用":15131,"開店":15132,"領土":15133,"驗證":15134,"可以透過":15135,"總統府":15136,"調查中":15137,"食品安全":15138,"幾乎都是":15139,"自由市場":15140,"辛苦了":15141,"加油打氣":15142,"貼文表示":15143,"年底前":15144,"台北市":15145,"十足的":15146,"尖叫聲":15147,"過失致死":15148,"不勝":15149,"不絕":15150,"且有":15151,"但要":15152,"佔領":15153,"元首":15154,"到晴":15155,"博愛":15156,"卻也":15157,"叔叔":15158,"各家":15159,"商場":15160,"多萬":15161,"家人的":15162,"得意":15163,"忽然":15164,"戲中":15165,"扮成":15166,"拉出":15167,"持刀":15168,"更進一步":15169,"最喜歡的":15170,"橘貓":15171,"機師":15172,"武裝":15173,"涵蓋":15174,"申報":15175,"監事":15176,"緊繃":15177,"續航":15178,"興起":15179,"西半部":15180,"質問":15181,"賽車":15182,"躲避":15183,"過高":15184,"避孕":15185,"都需要":15186,"阻塞":15187,"集合":15188,"黑暗":15189,"點出":15190,"點擊":15191,"完成了":15192,"吸引大批網友":15193,"品牌的":15194,"告訴他":15195,"變得更":15196,"紀念館":15197,"或許是":15198,"或者是":15199,"弱勢家庭":15200,"百貨公司":15201,"強制性交":15202,"不予":15203,"全能":15204,"再說":15205,"分許":15206,"分局長":15207,"別的":15208,"勉強":15209,"化療":15210,"升高":15211,"向他":15212,"在鏡頭前":15213,"對向":15214,"導覽":15215,"常務":15216,"強硬":15217,"很簡單":15218,"得更":15219,"恐慌":15220,"懷舊":15221,"打壓":15222,"投籃":15223,"支球隊":15224,"整場":15225,"整起":15226,"新作":15227,"是你":15228,"時程":15229,"機動":15230,"每到":15231,"沮喪":15232,"發問":15233,"的發生":15234,"的家庭":15235,"眼線":15236,"確切":15237,"紅白":15238,"縮減":15239,"置信":15240,"蝙蝠":15241,"這幾年":15242,"運載":15243,"開直播":15244,"離世":15245,"發現他":15246,"一名女":15247,"年的時間":15248,"準備了":15249,"系列的":15250,"業者表示":15251,"就算是":15252,"微博上":15253,"加護病房":15254,"上屆":15255,"低落":15256,"內閣":15257,"全被":15258,"分隔":15259,"卻傳出":15260,"回嗆":15261,"國的":15262,"在水":15263,"地景":15264,"大叫":15265,"如其":15266,"後仍":15267,"得點":15268,"我喜歡":15269,"挺身":15270,"摩擦":15271,"擴散":15272,"有任何":15273,"服員":15274,"比率":15275,"油價":15276,"法定":15277,"洋溢":15278,"炸雞":15279,"版面":15280,"發達":15281,"的你":15282,"的光":15283,"的秘密":15284,"相遇":15285,"突出":15286,"糟糕":15287,"聞名":15288,"腹肌":15289,"膠帶":15290,"被捕":15291,"複合":15292,"要來":15293,"視角":15294,"認真的":15295,"貓貓":15296,"路的":15297,"身障":15298,"過濾":15299,"遭警方":15300,"還給":15301,"配偶":15302,"除夕":15303,"顛覆":15304,"活動中":15305,"還是很":15306,"還有機會":15307,"影片中的":15308,"發生後":15309,"似乎是":15310,"計程車司機":15311,"娛樂圈":15312,"虛擬實境":15313,"棉花糖":15314,"太可愛了":15315,"一看到":15316,"下跪":15317,"不起來":15318,"並稱":15319,"也比較":15320,"也只有":15321,"再由":15322,"冰冷":15323,"前年":15324,"向媒體":15325,"啦啦":15326,"回想起":15327,"圖騰":15328,"執勤":15329,"塗鴉":15330,"奇幻":15331,"就看到":15332,"市面上":15333,"序幕":15334,"影視":15335,"我一直":15336,"房客":15337,"打人":15338,"打掃":15339,"把我":15340,"拿了":15341,"搭車":15342,"操演":15343,"攔下":15344,"救治":15345,"日上映":15346,"最早":15347,"棲息":15348,"歌壇":15349,"殺手":15350,"沙拉":15351,"洗腦":15352,"海中":15353,"滿臉":15354,"獨居":15355,"現役":15356,"發病":15357,"的社會":15358,"的歷史":15359,"的政治":15360,"盛事":15361,"短裙":15362,"網上":15363,"緩刑":15364,"績優":15365,"脆弱":15366,"處在":15367,"被封為":15368,"襲擊":15369,"賣淫":15370,"轉涼":15371,"連假":15372,"過頭":15373,"集會":15374,"體態":15375,"鳥類":15376,"鸚鵡":15377,"點至":15378,"為了要":15379,"其他地區":15380,"舉行的":15381,"彼此的":15382,"太空人":15383,"圖片來源":15384,"說不定":15385,"美術館":15386,"多雲到晴":15387,"一模一樣":15388,"一層":15389,"上山":15390,"伯伯":15391,"但從":15392,"住了":15393,"典範":15394,"划算":15395,"副秘書長":15396,"南方":15397,"去年的":15398,"同年":15399,"同一個":15400,"味的":15401,"字號":15402,"彌補":15403,"想太多":15404,"戰局":15405,"手作":15406,"手掌":15407,"拉斯":15408,"挫折":15409,"排斥":15410,"攔查":15411,"書面":15412,"最適合":15413,"會使":15414,"棒球隊":15415,"決勝":15416,"淡淡":15417,"準確":15418,"災難":15419,"炒作":15420,"總算":15421,"聽起來":15422,"肉飯":15423,"背影":15424,"自強":15425,"萬分":15426,"要她":15427,"視察":15428,"車型":15429,"辛勞":15430,"類股":15431,"體溫":15432,"目前為止":15433,"今年球季":15434,"希望她":15435,"這樣子":15436,"國際中心":15437,"身體不適":15438,"的一種":15439,"動物的":15440,"幾乎沒有":15441,"發表會":15442,"演藝事業":15443,"回來了":15444,"旁邊的":15445,"經歷過":15446,"帶領下":15447,"保育員":15448,"交換禮物":15449,"事務所":15450,"通訊軟體":15451,"一首":15452,"主控":15453,"二的":15454,"份子":15455,"個小":15456,"們在":15457,"剪裁":15458,"呆萌":15459,"和大":15460,"品嘗":15461,"場公聽會":15462,"大象":15463,"天真":15464,"專長":15465,"小米":15466,"就看":15467,"年來的":15468,"引退":15469,"想知道":15470,"挺同":15471,"收益":15472,"日文":15473,"時下":15474,"月亮":15475,"每小時":15476,"沒錯":15477,"深植":15478,"渾身":15479,"無助":15480,"的姿勢":15481,"的時刻":15482,"的言論":15483,"社福":15484,"稱號":15485,"角質":15486,"該怎麼辦":15487,"買氣":15488,"起伏":15489,"轉載":15490,"退將":15491,"通行":15492,"閃避":15493,"院方":15494,"養生":15495,"我們就":15496,"活動時間":15497,"還有很多":15498,"除了在":15499,"警方說":15500,"就會被":15501,"吸引力":15502,"爸爸的":15503,"交易量":15504,"同樣是":15505,"將會在":15506,"屬於自己的":15507,"義大利":15508,"護理師":15509,"三讀通過":15510,"一命":15511,"一夜":15512,"中提到":15513,"九二":15514,"乳頭":15515,"來電":15516,"依靠":15517,"先天":15518,"哭泣":15519,"嚴正":15520,"地瓜":15521,"多吃":15522,"安定":15523,"射擊":15524,"局勢":15525,"巧思":15526,"情誼":15527,"房地產":15528,"抗拒":15529,"搶下":15530,"改選":15531,"有次":15532,"東京":15533,"此一":15534,"步行":15535,"沐浴":15536,"清水":15537,"白的":15538,"的商品":15539,"看診":15540,"研討":15541,"破獲":15542,"絕食":15543,"舞者":15544,"艱難":15545,"莫過於":15546,"裸照":15547,"講座":15548,"賓客":15549,"軍機":15550,"都已":15551,"重度":15552,"鋒面":15553,"鑑於":15554,"防水":15555,"阻礙":15556,"限於":15557,"隨手":15558,"雲量":15559,"已經沒有":15560,"希望讓":15561,"吸引了":15562,"是一位":15563,"線上直播":15564,"巡迴演唱會":15565,"休二日":15566,"一趟":15567,"三位":15568,"之星":15569,"也於":15570,"他才":15571,"兒少":15572,"入手":15573,"分組":15574,"刷牙":15575,"即將於":15576,"呼呼":15577,"團圓":15578,"在小":15579,"境外":15580,"大叔":15581,"大咖":15582,"大漲":15583,"失眠":15584,"建物":15585,"才被":15586,"打拼":15587,"找人":15588,"把手":15589,"搜出":15590,"時還":15591,"極具":15592,"正要":15593,"正視":15594,"法式":15595,"洗完":15596,"深的":15597,"滑手機":15598,"無視":15599,"熱的":15600,"玩偶":15601,"的嗎":15602,"看得到":15603,"票券":15604,"老婦人":15605,"脊椎":15606,"腿部":15607,"自願":15608,"行蹤":15609,"補上":15610,"謊言":15611,"還用":15612,"都忍不住":15613,"醫藥":15614,"重機":15615,"陸媒":15616,"飛飛":15617,"驚見":15618,"點燃":15619,"可以看見":15620,"發生性關係":15621,"之後就":15622,"需要的":15623,"代表著":15624,"在臉書分享":15625,"分鐘就":15626,"中心主任":15627,"接著又":15628,"必須在":15629,"當地居民":15630,"從小就":15631,"事發後":15632,"免疫力":15633,"百分點":15634,"博覽會":15635,"一轉":15636,"不忍":15637,"不方便":15638,"也只能":15639,"以內":15640,"俗稱":15641,"做自己":15642,"價碼":15643,"反省":15644,"各縣市":15645,"大吃":15646,"女演員":15647,"家門":15648,"小弟":15649,"左外野":15650,"年了":15651,"延誤":15652,"感應":15653,"手勢":15654,"才華":15655,"才藝":15656,"掌聲":15657,"握手":15658,"搶劫":15659,"收看":15660,"日出":15661,"更讓":15662,"替他":15663,"板橋":15664,"棒棒":15665,"正能量":15666,"每一次":15667,"每公升":15668,"的手機":15669,"的成員":15670,"的對話":15671,"的熱情":15672,"禮堂":15673,"等了":15674,"繳納":15675,"艦隊":15676,"菜色":15677,"衰退":15678,"評選":15679,"調節":15680,"賽道":15681,"跟進":15682,"跨足":15683,"逗得":15684,"這才是":15685,"銅牌":15686,"順序":15687,"飛球":15688,"首創":15689,"鼻血":15690,"龐大的":15691,"可以發現":15692,"因為自己":15693,"不是很":15694,"如果要":15695,"看起來很":15696,"交易案":15697,"男女主角":15698,"相同的":15699,"少棒賽":15700,"一小":15701,"一架":15702,"不下去":15703,"五大":15704,"亞運":15705,"倘若":15706,"偉大":15707,"內側":15708,"兩地":15709,"凝聚":15710,"凹陷":15711,"同行":15712,"坦克":15713,"執照":15714,"場外":15715,"境內":15716,"多做":15717,"多餘":15718,"家住":15719,"就診":15720,"布丁":15721,"往返":15722,"成品":15723,"我沒":15724,"接演":15725,"星級":15726,"更將":15727,"更改":15728,"最低溫":15729,"檔期":15730,"民事":15731,"水庫":15732,"測量":15733,"激發":15734,"炫耀":15735,"熱賣":15736,"爬上":15737,"猛烈":15738,"田徑":15739,"留給":15740,"當上":15741,"當他":15742,"的公司":15743,"的氣氛":15744,"的程度":15745,"短褲":15746,"組長":15747,"聚落":15748,"能與":15749,"膀胱":15750,"荒謬":15751,"荷包":15752,"著重":15753,"被判":15754,"該案":15755,"誇讚":15756,"說他":15757,"賭博":15758,"贊同":15759,"越大":15760,"那位":15761,"都不能":15762,"陽春":15763,"面子":15764,"per18":15765,"第一階段":15766,"球員的":15767,"沒想到卻":15768,"網站上":15769,"貓咪的":15770,"經理人":15771,"送醫急救":15772,"會讓你":15773,"好幾次":15774,"質詢時":15775,"螢光幕":15776,"日夜溫差":15777,"一眼":15778,"上游":15779,"不平":15780,"不開心":15781,"也都有":15782,"乳癌":15783,"仍舊":15784,"伴隨":15785,"傳訊息":15786,"僅次":15787,"光芒":15788,"全額":15789,"原始":15790,"大同":15791,"巡演":15792,"心聲":15793,"想在":15794,"感人":15795,"我去":15796,"搖晃":15797,"搬到":15798,"搬家":15799,"有信心":15800,"機密":15801,"欺騙":15802,"款的":15803,"求職":15804,"洗髮":15805,"漏洞":15806,"獨一無":15807,"獵犬":15808,"疲憊":15809,"的風格":15810,"累了":15811,"致意":15812,"致敬":15813,"興航":15814,"警覺":15815,"讓牠們":15816,"貼心的":15817,"購屋":15818,"走失":15819,"超標":15820,"逼近":15821,"遠的":15822,"長打":15823,"閃光":15824,"開運":15825,"首局":15826,"警方初步":15827,"照片後":15828,"世界的":15829,"表現出":15830,"的小朋友":15831,"另一隻":15832,"交流賽":15833,"被問及":15834,"紀念日":15835,"平安夜":15836,"中信盃":15837,"房屋稅":15838,"聽證會":15839,"並列":15840,"也發現":15841,"也呼籲":15842,"佳節":15843,"侵犯":15844,"入睡":15845,"內線":15846,"出海":15847,"前腳":15848,"協尋":15849,"可樂":15850,"吃掉":15851,"名模":15852,"單節":15853,"在與":15854,"塗抹":15855,"太快":15856,"家園":15857,"專利":15858,"年以":15859,"引用":15860,"復刻":15861,"惡性":15862,"應援":15863,"我不會":15864,"拍的":15865,"拓荒":15866,"斷裂":15867,"既有":15868,"日止":15869,"替她":15870,"會導致":15871,"歐元":15872,"水腫":15873,"爭相":15874,"當前":15875,"登機":15876,"的身材":15877,"的念頭":15878,"等方式":15879,"簡易":15880,"胎兒":15881,"自治":15882,"解開":15883,"跑道":15884,"身後":15885,"運氣":15886,"量的":15887,"量身":15888,"鈴薯":15889,"錢的":15890,"閃瞎":15891,"雲集":15892,"飲酒":15893,"體貼":15894,"點到":15895,"點選":15896,"自己要":15897,"因為是":15898,"看到後":15899,"為了避免":15900,"影響力":15901,"推出了":15902,"今天是":15903,"怎麼可能":15904,"了一大":15905,"也不用":15906,"經典歌曲":15907,"打擊三圍":15908,"笑翻眾人":15909,"主場迎戰":15910,"!!!":15911,"關懷盃":15912,"備受關注":15913,"不合理":15914,"感恩節":15915,"財團法人":15916,"下令":15917,"丟棄":15918,"人魚":15919,"個百分點":15920,"傾聽":15921,"到尾":15922,"匯率":15923,"取暖":15924,"另類":15925,"呵護":15926,"喝了":15927,"國有":15928,"奔跑":15929,"尿道":15930,"山上":15931,"左邊":15932,"我對":15933,"房內":15934,"拇指":15935,"放生":15936,"日是":15937,"暢銷":15938,"會因為":15939,"有夠":15940,"比去年":15941,"特效":15942,"猴子":15943,"環繞":15944,"畫作":15945,"的經濟":15946,"的行程":15947,"致歉":15948,"行事":15949,"衝浪":15950,"規畫":15951,"解禁":15952,"訂製":15953,"訊號":15954,"課業":15955,"開到":15956,"陳男":15957,"靠北":15958,"黨工":15959,"可能造成":15960,"希望藉由":15961,"進行調查":15962,"不少討論":15963,"自然的":15964,"發表的":15965,"人民的":15966,"意識到":15967,"仔細一看":15968,"不准":15969,"不通":15970,"二審":15971,"任內":15972,"個孩子":15973,"儀館":15974,"到訪":15975,"參展":15976,"在片中":15977,"地鐵":15978,"壞球":15979,"多款":15980,"多歲的":15981,"已成為":15982,"張男":15983,"打敗":15984,"挽回":15985,"援助":15986,"撲滅":15987,"擺在":15988,"收縮":15989,"是不":15990,"更顯":15991,"曾與":15992,"朋好友":15993,"某個":15994,"梗塞":15995,"殯儀館":15996,"演奏":15997,"照料":15998,"發抖":15999,"的爸爸":16000,"的劇情":16001,"的氛圍":16002,"盡全力":16003,"睪丸":16004,"穿過":16005,"站的":16006,"聲優":16007,"西瓜":16008,"親朋好友":16009,"請辭":16010,"講到":16011,"警衛":16012,"跟上":16013,"軍艦":16014,"軍隊":16015,"農村":16016,"這台":16017,"還把":16018,"部電影":16019,"酸民":16020,"錯愕":16021,"長年":16022,"開展":16023,"體的":16024,"高檔":16025,"鬼怪":16026,"鱷魚":16027,"是否能":16028,"就會有":16029,"只見她":16030,"年齡層":16031,"以往的":16032,"不見了":16033,"很快就":16034,"出局後":16035,"游擊手":16036,"一年一度的":16037,"?「":16038,"一夕":16039,"一行人":16040,"三民":16041,"不放":16042,"中外野":16043,"也無":16044,"人命":16045,"你怎麼":16046,"個球季":16047,"前者":16048,"卸任":16049,"卸妝":16050,"名女子":16051,"嘲笑":16052,"國立":16053,"奮力":16054,"定案":16055,"宵夜":16056,"就用":16057,"常態":16058,"征服":16059,"很辛苦":16060,"微粒":16061,"心思":16062,"找了":16063,"時發現":16064,"曾說":16065,"樂壇":16066,"標記":16067,"派人":16068,"流血":16069,"海碩":16070,"湯頭":16071,"灰熊":16072,"燒炭":16073,"玩得":16074,"當代":16075,"病逝":16076,"的最大":16077,"的標準":16078,"矯正":16079,"等單位":16080,"給的":16081,"背後的":16082,"茶葉":16083,"萎縮":16084,"行員":16085,"被讚":16086,"被粉絲":16087,"規律":16088,"訂位":16089,"訝異":16090,"趕往":16091,"路況":16092,"踢爆":16093,"逃生":16094,"這套":16095,"阿信":16096,"離譜":16097,"預言":16098,"首要":16099,"駕馭":16100,"loc18":16101,"只是在":16102,"增加了":16103,"咖啡因":16104,"判決指出":16105,"專屬的":16106,"致詞時":16107,"一道":16108,"一句話":16109,"三年":16110,"三個月":16111,"不服":16112,"中小":16113,"也在臉書":16114,"也建議":16115,"來襲":16116,"例子":16117,"兄妹":16118,"勸說":16119,"參選人":16120,"合成":16121,"場中":16122,"大安":16123,"客服":16124,"容器":16125,"富二代":16126,"必然":16127,"愛妻":16128,"所致":16129,"拖鞋":16130,"攀升":16131,"改用":16132,"是指":16133,"業餘":16134,"每一天":16135,"活化":16136,"物流":16137,"獲准":16138,"申訴":16139,"當年的":16140,"的專業":16141,"老實":16142,"若能":16143,"觀望":16144,"試吃":16145,"說謊":16146,"證照":16147,"財物":16148,"販毒":16149,"輸了":16150,"轉到":16151,"農產":16152,"這批":16153,"這部分":16154,"週日":16155,"還特地":16156,"錄取":16157,"離奇":16158,"雷射":16159,"領到":16160,"養的":16161,"高空":16162,"發現了":16163,"民眾在":16164,"消息傳出":16165,"預計於":16166,"學校的":16167,"交通工具":16168,"毒品危害":16169,"的高度":16170,"替代役":16171,"高速公路":16172,"金鐘獎":16173,"赫然發現":16174,"一女":16175,"上看":16176,"且在":16177,"並說":16178,"乖巧":16179,"二十":16180,"人道":16181,"偷竊":16182,"先以":16183,"區間":16184,"吃藥":16185,"喪命":16186,"回合":16187,"地標":16188,"多張":16189,"多一點":16190,"大便":16191,"奮鬥":16192,"對面":16193,"巔峰":16194,"情歌":16195,"想讓":16196,"戰的":16197,"推估":16198,"日再":16199,"是全":16200,"條紋":16201,"樓下":16202,"水族":16203,"沒問題":16204,"測驗":16205,"留下的":16206,"的主人":16207,"的女人":16208,"的笑容":16209,"皮包":16210,"直率":16211,"硬幣":16212,"移植":16213,"維他命":16214,"腦筋":16215,"臉色":16216,"若以":16217,"萬一":16218,"行竊":16219,"衝刺":16220,"複製":16221,"親眼":16222,"該校":16223,"輪椅":16224,"迷思":16225,"逃亡":16226,"週刊":16227,"運將":16228,"還一度":16229,"降落":16230,"靜靜":16231,"風雨":16232,"首選":16233,"騎兵":16234,"最後一個":16235,"看到他":16236,"看到她":16237,"有人在":16238,"準備要":16239,"公開了":16240,"系統的":16241,"即將到來":16242,"這段期間":16243,"中文版":16244,"更重要的是":16245,"低收入戶":16246,"。「<":16247,"一碗":16248,"一襲":16249,"不免":16250,"不惜":16251,"並透過":16252,"中鋒":16253,"二段":16254,"人之":16255,"他卻":16256,"他日前":16257,"來講":16258,"出一個":16259,"動工":16260,"又能":16261,"嘴裡":16262,"回復":16263,"在車上":16264,"姓老翁":16265,"實地":16266,"將進行":16267,"導盲":16268,"小球員":16269,"府方":16270,"強戰":16271,"念書":16272,"想跟":16273,"抹黑":16274,"撻伐":16275,"收穫":16276,"新創":16277,"晉升":16278,"智能":16279,"核准":16280,"極端":16281,"槍擊":16282,"歲月":16283,"比如":16284,"氣管":16285,"浮現":16286,"百分之":16287,"的討論":16288,"的比例":16289,"矛盾":16290,"碰面":16291,"簡約":16292,"線索":16293,"老大":16294,"膚色":16295,"豬排":16296,"送一":16297,"送禮":16298,"遊覽":16299,"遺失":16300,"露天":16301,"首相":16302,"體諒":16303,">.,":16304,"最後以":16305,"警方到場":16306,"的人都":16307,"學生的":16308,"調查顯示":16309,"是否為":16310,"也不忘":16311,"曝光的":16312,"造型的":16313,"當然是":16314,"回憶起":16315,"謝謝大家":16316,"吃到飽":16317,"對抗賽":16318,"續航力":16319,"一副":16320,"一本":16321,"一頓":16322,"上半":16323,"上一次":16324,"不改":16325,"丟臉":16326,"之力":16327,"仍待":16328,"以下的":16329,"保住":16330,"保密":16331,"儼然":16332,"出後":16333,"副總":16334,"包覆":16335,"只需":16336,"右外野":16337,"同住":16338,"和女友":16339,"在工作":16340,"地形":16341,"外地":16342,"大專":16343,"守住":16344,"封殺":16345,"從不":16346,"愉悅":16347,"意象":16348,"感言":16349,"慰問":16350,"憂心":16351,"應付":16352,"我了":16353,"我只":16354,"打過":16355,"接待":16356,"接球":16357,"攤商":16358,"早晨":16359,"是因":16360,"時速":16361,"最受歡迎":16362,"月至":16363,"有超過":16364,"有局部":16365,"每場":16366,"消毒":16367,"的肉":16368,"的電":16369,"砍下":16370,"礙於":16371,"神祕":16372,"科主任":16373,"索取":16374,"聯邦":16375,"肝臟":16376,"能將":16377,"號誌":16378,"蛋黃":16379,"術後":16380,"裝甲":16381,"解剖":16382,"訂購":16383,"調高":16384,"路旁":16385,"進球":16386,"都未":16387,"開辦":16388,"開銷":16389,"麻辣":16390,"點燈":16391,"希望未來":16392,"紛紛直呼":16393,"進一步調查":16394,"負責任":16395,"生日快樂":16396,"從來沒":16397,"躺在床上":16398,"人工智慧":16399,"適當的":16400,"沙發上":16401,"洗衣機":16402,"九二共識":16403,">、「":16404,"一根":16405,"人性":16406,"侮辱":16407,"保安":16408,"們都":16409,"假設":16410,"元至":16411,"先用":16412,"六都":16413,"切勿":16414,"到時候":16415,"北海岸":16416,"命理":16417,"唱跳":16418,"囂張":16419,"圓形":16420,"堅強的":16421,"外傷":16422,"奇異":16423,"姓友人":16424,"學子":16425,"尿液":16426,"幫派":16427,"年到":16428,"心生":16429,"忽視":16430,"想把":16431,"戲裡":16432,"才讓":16433,"抽中":16434,"拍出":16435,"搞怪":16436,"日就":16437,"日再度":16438,"會計":16439,"殊不知":16440,"源自":16441,"球賽":16442,"畫下":16443,"疏運":16444,"的電話":16445,"的選手":16446,"稅後":16447,"站著":16448,"細緻":16449,"老街":16450,"聲響":16451,"胸罩":16452,"衣櫃":16453,"買東西":16454,"資歷":16455,"跨界":16456,"選情":16457,"面具":16458,"預備":16459,"風雲":16460,"飆出":16461,"餐會":16462,"驚嘆":16463,"高架":16464,"org12":16465,"因為你":16466,"民眾對":16467,"工作者":16468,"第一季":16469,"發生車禍":16470,"都是在":16471,"分享自己的":16472,"萬元以上":16473,"讓人覺得":16474,"結束了":16475,"一點也不":16476,"爸爸媽媽":16477,"治療後":16478,"告訴我":16479,"公斤級":16480,"接獲民眾":16481,"法人表示":16482,"部落格":16483,"在場上":16484,"子宮頸":16485,"邁入第":16486,"心肌梗塞":16487,"下殺":16488,"不減":16489,"不覺":16490,"不認識":16491,"但你":16492,"但隨著":16493,"位的":16494,"便在":16495,"促成":16496,"偉大的":16497,"健全":16498,"入學":16499,"兩個月":16500,"公鹿":16501,"分隊":16502,"升上":16503,"反攻":16504,"單親":16505,"大玩":16506,"她就":16507,"學費":16508,"尾隨":16509,"巨乳":16510,"平鎮":16511,"建構":16512,"張開":16513,"愛你":16514,"我還是":16515,"我只是":16516,"打給":16517,"拉長":16518,"指紋":16519,"擋風":16520,"敘述":16521,"更快":16522,"會跟":16523,"法制":16524,"法師":16525,"湯匙":16526,"滿是":16527,"滿月":16528,"演說":16529,"瑜珈":16530,"的未來":16531,"的拍攝":16532,"的禮物":16533,"的文章":16534,"的重點":16535,"的患者":16536,"的意義":16537,"禁賽":16538,"突如其":16539,"網拍":16540,"而這次":16541,"與否":16542,"航權":16543,"菜市場":16544,"補貼":16545,"解說":16546,"說著":16547,"讓消費者":16548,"買單":16549,"追到":16550,"過節":16551,"過著":16552,"遙控":16553,"釣魚":16554,"闖紅燈":16555,"陸媒報導":16556,"階級":16557,"隻貓":16558,"雖有":16559,"雲友":16560,"相當可愛":16561,"影片上傳":16562,"非常多":16563,"特別注意":16564,"是否要":16565,"吸引不少":16566,"當地人":16567,"經濟發展":16568,"穩定性":16569,"漂亮的":16570,"行使自由球員":16571,"跆拳道":16572,"一貫":16573,"並提供":16574,"主機":16575,"也請":16576,"也提供":16577,"人了":16578,"仍持續":16579,"個別":16580,"再加":16581,"分球":16582,"剩下的":16583,"勇奪":16584,"勘驗":16585,"同情":16586,"周四":16587,"喊著":16588,"回國":16589,"圓滾滾":16590,"在旁":16591,"在一個":16592,"大嘆":16593,"她坦言":16594,"季中":16595,"完了":16596,"富商":16597,"小黑":16598,"很可愛":16599,"很感謝":16600,"懸浮":16601,"找到了":16602,"挫傷":16603,"掃描":16604,"排骨":16605,"新郎":16606,"有能力":16607,"期刊":16608,"某種":16609,"機捷":16610,"歷年":16611,"氣體":16612,"活塞":16613,"淚崩":16614,"深耕":16615,"溜馬":16616,"潛在":16617,"烏龍":16618,"爆表":16619,"狗兒":16620,"理會":16621,"百姓":16622,"的信":16623,"的無":16624,"的總統":16625,"的身體":16626,"的規定":16627,"盒子":16628,"眼球":16629,"終點":16630,"續集":16631,"聯想":16632,"聯隊":16633,"腰部":16634,"與前":16635,"蟑螂":16636,"護送":16637,"讓身體":16638,"這只是":16639,"違停":16640,"都用":16641,"醬汁":16642,"開局":16643,"頂多":16644,"首歌曲":16645,"驗出":16646,"體積":16647,"魔咒":16648,"麻吉":16649,"點亮":16650,"什麼都":16651,"其實在":16652,"只要一":16653,"引發熱烈討論":16654,"雙方在":16655,"將在明年":16656,"的大小":16657,"壓力大":16658,"年度最佳":16659,"交通事故":16660,"最新一":16661,"日起至":16662,"為主軸":16663,"也有人說":16664,"看得出來":16665,"國外網站分享":16666,"人行道":16667,"一字":16668,"中止":16669,"主子":16670,"也把":16671,"代為":16672,"位居":16673,"例外":16674,"傲人":16675,"全家人":16676,"出走":16677,"出一張":16678,"則可":16679,"副所長":16680,"升旗":16681,"可可":16682,"吻戲":16683,"基督":16684,"場內":16685,"女粉絲":16686,"好久":16687,"學年度":16688,"家事":16689,"小白":16690,"展區":16691,"平價":16692,"平手":16693,"慌張":16694,"打死":16695,"拿走":16696,"擋住":16697,"新建":16698,"新球季":16699,"條規定":16700,"橘色":16701,"歲就":16702,"氣味":16703,"洽談":16704,"海巡":16705,"烤肉":16706,"獎的":16707,"畫質":16708,"的傳統":16709,"的成果":16710,"的觀念":16711,"皮革":16712,"移除":16713,"站穩":16714,"給他們":16715,"致贈":16716,"良心":16717,"襪子":16718,"西門":16719,"請他":16720,"變數":16721,"路面":16722,"軍團":16723,"轉述":16724,"遊騎兵":16725,"違背":16726,"靠在":16727,"頗有":16728,"高出":16729,"黑衣":16730,"發生什麼事":16731,"之後又":16732,"比較多":16733,"至少要":16734,"價值觀":16735,"得知後":16736,"多元的":16737,"氣象專家":16738,"氧化碳":16739,"告別式":16740,"心血管疾病":16741,"安樂死":16742,">~":16743,"不止":16744,"也都是":16745,"也獲得":16746,"也同樣":16747,"仍無法":16748,"以利":16749,"但當":16750,"位成員":16751,"促使":16752,"光澤":16753,"剪刀":16754,"千名":16755,"向法院":16756,"善用":16757,"外在":16758,"多麼":16759,"大氣":16760,"將依":16761,"小物":16762,"小花":16763,"就不要":16764,"尿布":16765,"巨型":16766,"年曾":16767,"後便":16768,"後會":16769,"想看":16770,"意的":16771,"成家":16772,"或缺":16773,"打包":16774,"折優惠":16775,"拳擊":16776,"掉的":16777,"攤販":16778,"暴增":16779,"月到":16780,"校內":16781,"核對":16782,"極高":16783,"歲男子":16784,"每一位":16785,"沒那麼":16786,"油門":16787,"海豹":16788,"烏龜":16789,"燒肉":16790,"片的":16791,"物體":16792,"生育":16793,"百變":16794,"皮夾":16795,"盈餘":16796,"盛行":16797,"省下":16798,"眼中":16799,"繳交":16800,"腫脹":16801,"被譽為":16802,"證人":16803,"超人氣":16804,"這則":16805,"運彩":16806,"重劃":16807,"陳代謝":16808,"隆重":16809,"雞年":16810,"頭戴":16811,"鬆餅":16812,"點餐":16813,"目前仍在":16814,"未來會":16815,"家庭的":16816,"玩家們":16817,"文章貼上網":16818,"人生的":16819,"為何要":16820,"總冠軍戰":16821,"成交量":16822,"防制條例":16823,"我愛你":16824,"下一步":16825,"不來":16826,"並對":16827,"也需要":16828,"也針對":16829,"代打":16830,"保費":16831,"個字":16832,"個禮拜":16833,"光棍":16834,"出沒":16835,"分辨":16836,"嘲諷":16837,"嚴厲":16838,"多為":16839,"就去":16840,"川普":16841,"巧合":16842,"干預":16843,"彩色":16844,"很會":16845,"得很好":16846,"徵兆":16847,"快來":16848,"應召":16849,"我想要":16850,"房租":16851,"換來":16852,"損傷":16853,"新低":16854,"新春":16855,"暫居":16856,"暫收":16857,"朝向":16858,"橡皮":16859,"水面":16860,"洋投":16861,"洩密":16862,"流產":16863,"燙傷":16864,"物理":16865,"的經紀人":16866,"眼見":16867,"租賃":16868,"糞便":16869,"素質":16870,"罪起訴":16871,"羽毛":16872,"習俗":16873,"股份":16874,"訊問":16875,"談及":16876,"變好":16877,"變胖":16878,"辣妹":16879,"逃避":16880,"途徑":16881,"進了":16882,"部的":16883,"鐵皮":16884,"防曬":16885,"防災":16886,"露臉":16887,"順勢":16888,"飆升":16889,"馬鈴薯":16890,"驚呆":16891,"已經不是":16892,"活動上":16893,"真的會":16894,"所以我們":16895,"也不敢":16896,"不僅能":16897,"完成後":16898,"搭配上":16899,"紀錄器":16900,"先前在":16901,"同樣的":16902,"曾經在":16903,"坦承犯行":16904,"的美麗":16905,"有多少":16906,"創新高":16907,"公務人員":16908,"子宮內":16909,"網友們看完後":16910,"空拍機":16911,"吸引大批網友熱烈討論":16912,"海碩盃":16913,"一跳":16914,"之情":16915,"之虞":16916,"備詢":16917,"僅能":16918,"分區":16919,"初戀":16920,"利的":16921,"勉勵":16922,"南北":16923,"及早":16924,"唯有":16925,"團長":16926,"場出賽":16927,"壞了":16928,"失落":16929,"她有":16930,"孰料":16931,"安平":16932,"家商":16933,"寧願":16934,"將領":16935,"展上":16936,"年頭":16937,"延遲":16938,"很明顯":16939,"想必":16940,"慶幸":16941,"憑藉":16942,"戲外":16943,"所為":16944,"打數":16945,"抓著":16946,"招式":16947,"拜會":16948,"文青":16949,"新進":16950,"日登場":16951,"明治":16952,"時起":16953,"更具":16954,"最難":16955,"校慶":16956,"格蘭":16957,"槍砲":16958,"橫跨":16959,"流星":16960,"深化":16961,"獻給":16962,"生了":16963,"產下":16964,"的代表":16965,"的回應":16966,"監護":16967,"相聚":16968,"短時間內":16969,"結紮":16970,"緣分":16971,"繁忙":16972,"自用":16973,"薯條":16974,"螃蟹":16975,"血流":16976,"計時":16977,"讓眾人":16978,"跌幅":16979,"車窗":16980,"送回":16981,"這一次":16982,"連同":16983,"都比":16984,"錄下":16985,"雙打":16986,"霹靂":16987,"鮮明":16988,"點了":16989,"可以選擇":16990,"時間為":16991,"目前還在":16992,"什麼樣的":16993,"其他國家":16994,"服務的":16995,"在臉書發文":16996,"演出的":16997,"預計將":16998,"文化的":16999,"演唱會上":17000,"不用擔心":17001,"罪嫌送辦":17002,"史上第":17003,"中信盃黑豹旗":17004,"拓荒者":17005,"上岸":17006,"上銬":17007,"下海":17008,"之類的":17009,"修圖":17010,"假如":17011,"全都是":17012,"公道":17013,"再起":17014,"分級":17015,"原訂":17016,"反潛":17017,"圖像":17018,"基準":17019,"墜落":17020,"壯觀":17021,"夜景":17022,"大橋":17023,"失調":17024,"島嶼":17025,"已將":17026,"已久的":17027,"布料":17028,"建交":17029,"心痛":17030,"應有的":17031,"戀人":17032,"手冊":17033,"掛著":17034,"換個":17035,"搔癢":17036,"教士":17037,"新竹":17038,"會選擇":17039,"標題":17040,"正向":17041,"沙漠":17042,"洗錢":17043,"浪浪":17044,"渦輪":17045,"潤滑":17046,"熟練":17047,"用球":17048,"男學生":17049,"病友":17050,"痘痘":17051,"的山":17052,"真誠":17053,"秒鐘":17054,"筆錄":17055,"缺陣":17056,"翻出":17057,"自撞":17058,"色素":17059,"要好好":17060,"說完":17061,"豆漿":17062,"走來":17063,"起跑":17064,"農產品":17065,"量產":17066,"險勝":17067,"自己被":17068,"可能是因為":17069,"時間點":17070,"今年度":17071,"一起到":17072,"還有許多":17073,"透過網路":17074,"獲得保送":17075,"學生們":17076,"運動會":17077,"的一部分":17078,"感覺很":17079,"之前的":17080,"疑似因為":17081,"說明會":17082,"名單中":17083,"政治人物":17084,"訪問時表示":17085,"錄影帶":17086,"裝置藝術":17087,"新人王":17088,"打電話給":17089,"實驗室":17090,"下旬":17091,"中醫":17092,"中飾演":17093,"也常":17094,"人有":17095,"但不":17096,"倉庫":17097,"倫理":17098,"假新聞":17099,"先鋒":17100,"全聯":17101,"分散":17102,"卓越":17103,"卻說":17104,"去的":17105,"召喚":17106,"在該":17107,"在今日":17108,"地院":17109,"城堡":17110,"外援":17111,"天鵝":17112,"太小":17113,"封號":17114,"尚有":17115,"就容易":17116,"廢除":17117,"復仇":17118,"微信":17119,"微風":17120,"愛護":17121,"慵懶":17122,"抬起":17123,"施行":17124,"機型":17125,"櫃檯":17126,"武術":17127,"流暢":17128,"生效":17129,"用路人":17130,"留著":17131,"病史":17132,"的最新":17133,"的眼神":17134,"盡速":17135,"私立":17136,"等因素":17137,"紅茶":17138,"編織":17139,"罐頭":17140,"老婦":17141,"而目前":17142,"舉起":17143,"裙子":17144,"謊稱":17145,"變差":17146,"贈獎":17147,"跟朋友":17148,"酒醉":17149,"類型的":17150,"風貌":17151,"馬尾":17152,"骨盆":17153,"鬥爭":17154,"因為他們":17155,"粉絲頁":17156,"認為他":17157,"表現亮眼":17158,"都會在":17159,"的一次":17160,"提到自己":17161,"原本以為":17162,"結婚了":17163,"...」,":17164,"...。」":17165,"意外發現":17166,"才會有":17167,"幾乎都":17168,"少女心":17169,"經營的":17170,"創造出":17171,"臨時會":17172,"部落客":17173,"不久前":17174,"簡直是":17175,"前一晚":17176,"椅子上":17177,"這篇文章":17178,"失智症":17179,"國父紀念館":17180,"一包":17181,"一改":17182,"上月":17183,"也好":17184,"但最終":17185,"來個":17186,"做完":17187,"傳輸":17188,"內政":17189,"兩極":17190,"冷卻":17191,"分類":17192,"制裁":17193,"卻沒":17194,"取景":17195,"合一":17196,"同場":17197,"吹風":17198,"在身上":17199,"報考":17200,"多重":17201,"大口":17202,"大局":17203,"大火":17204,"天就":17205,"失竊":17206,"就表示":17207,"已超過":17208,"幹事":17209,"很適合":17210,"才可以":17211,"把拔":17212,"投保":17213,"接送":17214,"救人":17215,"日被":17216,"日記":17217,"時被":17218,"最長":17219,"服刑":17220,"桌子":17221,"次失誤":17222,"海灘":17223,"演繹":17224,"為一":17225,"為球隊":17226,"熱絡":17227,"父母親":17228,"獎學金":17229,"用在":17230,"男嬰":17231,"畫上":17232,"異狀":17233,"當過":17234,"的歌":17235,"的感受":17236,"盼能":17237,"眾所":17238,"神社":17239,"穿了":17240,"紅了":17241,"缺少":17242,"置身":17243,"職缺":17244,"與大家":17245,"要給":17246,"變的":17247,"負起":17248,"買一":17249,"賣給":17250,"越好":17251,"追捕":17252,"這招":17253,"配對":17254,"開創":17255,"防彈":17256,"隔空":17257,"預料":17258,"顯現":17259,"香氛":17260,"per19":17261,"不過因為":17262,"今年初":17263,"一直沒有":17264,"個月大":17265,"只有在":17266,"國際機場":17267,"引發爭議":17268,"...」。":17269,"每天早上":17270,"主持的":17271,"都不敢":17272,"變成了":17273,"表達對":17274,"考慮到":17275,"製造業":17276,"購物中心":17277,"不知情":17278,"最多的":17279,"金融機構":17280,"黃金獵犬":17281,"指揮官":17282,"不如預期":17283,"看不下去":17284,"送往醫院":17285,"來回機票":17286,"立法委員":17287,"土豪哥":17288,"僅次於":17289,"導盲犬":17290,"上空":17291,"不注意":17292,"不放棄":17293,"中壢":17294,"也讓人":17295,"他自己":17296,"做的事情":17297,"充實":17298,"光復":17299,"再多":17300,"出事":17301,"列印":17302,"副作用":17303,"可惡":17304,"可讓":17305,"可靠":17306,"問說":17307,"嚴謹":17308,"四季":17309,"圖文":17310,"在全":17311,"在演藝圈":17312,"太誇張":17313,"學業":17314,"審核":17315,"小男孩":17316,"就必須":17317,"平民":17318,"想念":17319,"我和":17320,"我也是":17321,"手上的":17322,"找他":17323,"拉鋸":17324,"拋棄":17325,"推行":17326,"揮手":17327,"搶著":17328,"日又":17329,"日播出":17330,"是目前":17331,"暫緩":17332,"會兒":17333,"服藥":17334,"此行":17335,"泳池":17336,"活著":17337,"為目標":17338,"父女":17339,"發的":17340,"百元":17341,"的食品":17342,"直徑":17343,"睡不著":17344,"科長":17345,"笑得":17346,"著急":17347,"衝到":17348,"觀音":17349,"課稅":17350,"跑出":17351,"跟他說":17352,"跨國":17353,"退化":17354,"還以為":17355,"都必須":17356,"醬料":17357,"關聯":17358,"陽台":17359,"餐具":17360,"驚爆":17361,"鬆口":17362,"網友看到":17363,"看到的":17364,"日前到":17365,"一直都是":17366,"萬元以下":17367,"只要是":17368,"今天下午":17369,"結果發現":17370,"引起的":17371,"第二個":17372,"繼續努力":17373,"研究團隊":17374,"這種事":17375,"保護區":17376,"他也說":17377,"告訴你":17378,"關鍵時刻":17379,"不可或缺":17380,"飲料店":17381,"罪嫌移送":17382,"這場比賽":17383,"二壘手":17384,"集中在":17385,"轉隊費":17386,"護衛艦":17387,"悠遊卡":17388,"主治":17389,"佈置":17390,"倒塌":17391,"公安":17392,"公文":17393,"冒出":17394,"向下":17395,"問世":17396,"國旅":17397,"在經過":17398,"在身邊":17399,"在內的":17400,"在旁邊":17401,"在節目中":17402,"堆疊":17403,"外加":17404,"大地":17405,"大街":17406,"奴才":17407,"射程":17408,"小鎮":17409,"小鬼":17410,"就來":17411,"就發現":17412,"廚師":17413,"征戰":17414,"復甦":17415,"感光":17416,"感興趣":17417,"成為了":17418,"承辦":17419,"指令":17420,"摩托":17421,"撿到":17422,"據說":17423,"擺攤":17424,"新手":17425,"旋風":17426,"日才":17427,"春天":17428,"時空":17429,"最少":17430,"會同":17431,"月營收":17432,"柵欄":17433,"樹木":17434,"機種":17435,"櫻桃":17436,"歸還":17437,"洗臉":17438,"海峽":17439,"深怕":17440,"炒飯":17441,"無失分":17442,"獎品":17443,"獎牌":17444,"的空":17445,"的魅力":17446,"的看法":17447,"相見":17448,"看準":17449,"碰觸":17450,"綠茶":17451,"脫掉":17452,"腺癌":17453,"臉紅":17454,"與朋友":17455,"花朵":17456,"虛弱":17457,"視同":17458,"財富":17459,"贏家":17460,"起跳":17461,"超愛":17462,"通風":17463,"遠遠":17464,"零星":17465,"電商":17466,"電源":17467,"震動":17468,"頁面":17469,"鯊魚":17470,"最後還是":17471,"甚至會":17472,"影片的":17473,"對方是":17474,"其中的":17475,"個月前":17476,"個人資料":17477,"媒體詢問":17478,"公開的":17479,"系列活動":17480,"家庭生活":17481,"如此一來":17482,"休息時間":17483,"將會是":17484,"管理處":17485,"當選後":17486,"在臉書上分享":17487,"多數人":17488,"資格賽":17489,"核災區":17490,"長大後":17491,"原住民族":17492,"婚紗照":17493,"就職典禮":17494,"從頭到尾":17495,"一圈":17496,"下樓":17497,"不宜":17498,"他則":17499,"仲介":17500,"偏高":17501,"偵結":17502,"傷痛":17503,"僅僅":17504,"元件":17505,"券商":17506,"勸導":17507,"卸下":17508,"同業":17509,"喊出":17510,"在拍攝":17511,"均衡":17512,"大老":17513,"好不好":17514,"宣判":17515,"就可能":17516,"年被":17517,"彈藥":17518,"很清楚":17519,"志願":17520,"才有機會":17521,"打席":17522,"扶梯":17523,"披上":17524,"抽血":17525,"抽驗":17526,"探班":17527,"日和":17528,"明亮":17529,"時在":17530,"曬恩愛":17531,"有這樣的":17532,"朝著":17533,"查核":17534,"止痛":17535,"每坪":17536,"每股":17537,"為民":17538,"無遺":17539,"牆上":17540,"狠狠":17541,"疏失":17542,"發性":17543,"的家人":17544,"的行動":17545,"相挺":17546,"祈福":17547,"等不同":17548,"簡報":17549,"縫隙":17550,"肺炎":17551,"背上":17552,"胸口":17553,"萬至":17554,"被敲":17555,"記住":17556,"警政":17557,"讀賣":17558,"足足":17559,"躺著":17560,"輛車":17561,"轟出":17562,"這股":17563,"過半":17564,"野手":17565,"開花":17566,"開訓":17567,"雪花":17568,"電郵":17569,"順位":17570,"香奈":17571,"不過這":17572,"發現她":17573,"最後被":17574,"最後一場":17575,"工作機會":17576,"第一場":17577,"發生過":17578,"照片中的":17579,"接受訪問時":17580,"明年將":17581,"引起熱議":17582,"遊戲的":17583,"下午茶":17584,"經驗的":17585,"穩定交往":17586,"男女朋友":17587,"浪漫的":17588,"真實的":17589,"黨產會":17590,"行車紀錄器":17591,"--------":17592,"之稱的":17593,"新南向政策":17594,"擋風玻璃":17595,"」:":17596,"一見":17597,"三寶":17598,"之地":17599,"也受到":17600,"何況":17601,"光線":17602,"初次":17603,"前戲":17604,"動彈":17605,"只在":17606,"吃不":17607,"吐司":17608,"周三":17609,"在未來":17610,"好好的":17611,"孤獨":17612,"實戰":17613,"層層":17614,"市值":17615,"市售":17616,"帶出":17617,"平地":17618,"弟兄":17619,"心有":17620,"思念":17621,"手腕":17622,"打擾":17623,"捐出":17624,"日推出":17625,"曾任":17626,"會想":17627,"有毒":17628,"有這麼":17629,"歉意":17630,"狂讚":17631,"獲頒":17632,"當沖":17633,"的治療":17634,"的地點":17635,"的做法":17636,"秘境":17637,"精液":17638,"缺口":17639,"羊肉":17640,"老屋":17641,"職位":17642,"聽得":17643,"虎斑":17644,"襯托":17645,"要從":17646,"資助":17647,"走私":17648,"超值":17649,"跑來":17650,"跟他們":17651,"逐一":17652,"逮人":17653,"過夜":17654,"邪惡":17655,"野獸":17656,"露營":17657,"飽滿":17658,"高一":17659,"麻油":17660,"因為太":17661,"不過也有":17662,"就是一個":17663,"之後的":17664,"了一點":17665,"聖誕老人":17666,"告訴大家":17667,"同學們":17668,"每個人的":17669,"人類的":17670,"範圍內":17671,"不久後":17672,"看不出":17673,"所屬的":17674,"異性戀":17675,"插畫家":17676,"子宮內膜":17677,"也較":17678,"仍維持":17679,"倒閉":17680,"內出血":17681,"全台":17682,"刮刮":17683,"動了":17684,"北控":17685,"叫他":17686,"吞敗":17687,"喵喵":17688,"均為":17689,"堅稱":17690,"大餐":17691,"奇妙":17692,"女嬰":17693,"孔雀":17694,"將自己":17695,"專賣":17696,"對自己的":17697,"就任":17698,"就應該":17699,"年第":17700,"張貼":17701,"役男":17702,"得票":17703,"徵收":17704,"性高潮":17705,"才驚覺":17706,"拉著":17707,"摩鐵":17708,"擅自":17709,"收拾":17710,"文藝":17711,"是沒有":17712,"最主要":17713,"會說":17714,"有成":17715,"東軍":17716,"果真":17717,"棍棒":17718,"油炸":17719,"洽詢":17720,"海嘯":17721,"清單":17722,"獲取":17723,"瘦了":17724,"的成長":17725,"的理念":17726,"監察":17727,"研製":17728,"美感":17729,"膽固醇":17730,"舉手":17731,"落羽":17732,"蒞臨":17733,"要多":17734,"親身":17735,"超狂":17736,"趕在":17737,"跑了":17738,"跟隨":17739,"身兼":17740,"身孕":17741,"轉乘":17742,"追回":17743,"追殺":17744,"透氣":17745,"金手套":17746,"靜脈":17747,"頭暈":17748,"顧慮":17749,"高居":17750,"高挑":17751,"高漲":17752,"可以從":17753,"如果不":17754,"甚至有人":17755,"服務中心":17756,"也不斷":17757,"不能再":17758,"第二節":17759,"引發各界":17760,"這樣的行為":17761,"最佳男":17762,"官方網站":17763,"出道以來":17764,"性感的":17765,"資源回收":17766,"一切都":17767,"球季結束後":17768,"球場上":17769,"睡覺時":17770,"呼吸道":17771,"上路後":17772,"把握機會":17773,"心目中的":17774,"水族館":17775,"一腳":17776,"三地":17777,"也和":17778,"也應":17779,"介面":17780,"他沒有":17781,"使命":17782,"保溫":17783,"值班":17784,"充斥":17785,"光明":17786,"八強":17787,"再也":17788,"再利用":17789,"函送":17790,"副總經理":17791,"厚的":17792,"可供":17793,"可行":17794,"合物":17795,"均勻":17796,"多方":17797,"好成績":17798,"對照":17799,"師父":17800,"廣受":17801,"引領":17802,"忙於":17803,"我好":17804,"手拿":17805,"拓寬":17806,"探望":17807,"探視":17808,"擦拭":17809,"是大":17810,"時隔":17811,"曲目":17812,"最棒的":17813,"有很大的":17814,"本戰":17815,"桌球":17816,"樂見":17817,"水上":17818,"水瓶":17819,"泡澡":17820,"熬夜":17821,"率為":17822,"的本":17823,"相助":17824,"給牠":17825,"總長":17826,"老家":17827,"考生":17828,"而今年":17829,"聚焦":17830,"臨檢":17831,"自豪":17832,"萌翻":17833,"萬多":17834,"西軍":17835,"親愛的":17836,"證物":17837,"貨物":17838,"贏了":17839,"鐵板":17840,"關在":17841,"防範":17842,"隔離":17843,"類別":17844,"餐桌":17845,"香腸":17846,"麵條":17847,"黨派":17848,"可以去":17849,"因此決定":17850,"第一線":17851,"相關規定":17852,"比較有":17853,"引發外界":17854,"絕對會":17855,"休息日":17856,"解決方案":17857,"同志婚姻":17858,"經紀人表示":17859,"呼吸心跳":17860,"戰力外":17861,"白天高溫":17862,"反同團體":17863,"政務官":17864,"國務卿":17865,"超音波":17866,"一方":17867,"三級":17868,"也覺得":17869,"也引起":17870,"也必須":17871,"僵硬":17872,"分工":17873,"分擔":17874,"別忘了":17875,"到時":17876,"前副總統":17877,"動用":17878,"勝負":17879,"又再度":17880,"和妻子":17881,"問她":17882,"在自己的":17883,"在權證":17884,"地將":17885,"增多":17886,"大動作":17887,"天數":17888,"字體":17889,"客串":17890,"客機":17891,"家境":17892,"密度":17893,"對他的":17894,"小事":17895,"小偷":17896,"履勘":17897,"強盜":17898,"慶典":17899,"找我":17900,"招生":17901,"掉到":17902,"搶奪":17903,"撞死":17904,"整修":17905,"日來":17906,"核武":17907,"格鬥":17908,"栽培":17909,"次救援":17910,"步伐":17911,"母校":17912,"水泥":17913,"沸揚":17914,"沸沸揚":17915,"流通":17916,"液體":17917,"淚水":17918,"潰瘍":17919,"為題":17920,"生技":17921,"畫畫":17922,"的關注":17923,"的口感":17924,"省錢":17925,"神器":17926,"福袋":17927,"科系":17928,"第八":17929,"編號":17930,"繪畫":17931,"罪名":17932,"老鷹":17933,"而這些":17934,"聲勢":17935,"聽取":17936,"自費":17937,"訂房":17938,"變速":17939,"賣萌":17940,"輪番":17941,"這道":17942,"逼真":17943,"還提到":17944,"銷毀":17945,"隱瞞":17946,"雖說":17947,"雙重":17948,"鞏固":17949,"高風險":17950,"鮭魚":17951,"就是這樣":17952,"目前是":17953,"活動中心":17954,"真的超":17955,"影片一":17956,"知道自己":17957,"電影的":17958,"沒想到對方":17959,"直接在":17960,"不僅有":17961,"強調自己":17962,"之前在":17963,"正在進行":17964,"並且在":17965,"絕對不能":17966,"受傷的":17967,"整個過程":17968,"告訴她":17969,"白色的":17970,"精彩的":17971,"加油站":17972,"離婚後":17973,"落羽松":17974,"一聽到":17975,"中將":17976,"也讓他":17977,"交錯":17978,"但最近":17979,"佔了":17980,"來參加":17981,"偏好":17982,"停留在":17983,"傳訊":17984,"傷的":17985,"入伍":17986,"內餡":17987,"兩週":17988,"冷汗":17989,"出征":17990,"動容":17991,"化合物":17992,"十字":17993,"又喜":17994,"古典":17995,"哭鬧":17996,"因子":17997,"土壤":17998,"外流":17999,"安檢":18000,"定讞":18001,"宣誓":18002,"審慎":18003,"對他們":18004,"帶了":18005,"常有":18006,"幼犬":18007,"彰顯":18008,"影集":18009,"後台":18010,"性命":18011,"我以為":18012,"房仲":18013,"披露":18014,"日傍晚":18015,"時有":18016,"有更":18017,"未有":18018,"極大的":18019,"殘酷":18020,"水溝":18021,"求學":18022,"沒收":18023,"泛淚":18024,"津貼":18025,"湯底":18026,"犯下":18027,"甜食":18028,"的重":18029,"的表示":18030,"的挑戰":18031,"的新聞":18032,"相愛":18033,"破產":18034,"禮讓":18035,"粉嫩":18036,"絲襪":18037,"羅山":18038,"翻覆":18039,"老人家":18040,"聘請":18041,"背叛":18042,"華語":18043,"處以":18044,"說有":18045,"路一段":18046,"追究":18047,"過一":18048,"都喜歡":18049,"金剛":18050,"院所":18051,"雙十":18052,"願景":18053,"飽足":18054,"香草":18055,"驚恐":18056,"黑道":18057,"因為工作":18058,"粉絲見面會":18059,"他們是":18060,"總統的":18061,"發生爭執":18062,"當時她":18063,"部分網友":18064,"但是在":18065,"也會在":18066,"宣布將":18067,"公開賽":18068,"認識了":18069,"登場的":18070,"懷孕了":18071,"這一幕":18072,"畢業於":18073,"不知所":18074,"有效的":18075,"懷疑是":18076,"版本的":18077,"一陣熱烈討論":18078,"三壘手":18079,"東北季風影響":18080,"人事成本":18081,"列出以下":18082,"網友看完後":18083,"通緝犯":18084,"租屋處":18085,"突如其來的":18086,"光棍節":18087,"刮刮樂":18088,"一刻":18089,"不限":18090,"串連":18091,"也坦言":18092,"也紛紛留言":18093,"二級":18094,"代的":18095,"但只要":18096,"借錢":18097,"傢伙":18098,"內搭":18099,"兩黨":18100,"共度":18101,"再去":18102,"出勤":18103,"出問題":18104,"切記":18105,"召委":18106,"喝咖啡":18107,"園方":18108,"圓夢":18109,"在比賽":18110,"型男":18111,"墜毀":18112,"士氣":18113,"多歲":18114,"奈米":18115,"孫女":18116,"展露":18117,"屬性":18118,"年推出":18119,"底線":18120,"心意":18121,"忠誠":18122,"懷有":18123,"戶數":18124,"扭蛋":18125,"找上":18126,"技藝":18127,"抽到":18128,"指派":18129,"排球":18130,"搭訕":18131,"改良":18132,"散發出":18133,"新陳代謝":18134,"暫收在":18135,"更了解":18136,"曾於":18137,"最想":18138,"會產生":18139,"未知":18140,"次保送":18141,"殺了":18142,"毒趴":18143,"洩漏":18144,"減速":18145,"濃煙":18146,"爾夫":18147,"特製":18148,"痛到":18149,"痛罵":18150,"發熱":18151,"盤點":18152,"破了":18153,"種的":18154,"精力":18155,"結識":18156,"絲毫不":18157,"經期":18158,"翅膀":18159,"老是":18160,"聯想到":18161,"與對方":18162,"興大":18163,"藍天":18164,"誓言":18165,"請回":18166,"譁然":18167,"超多":18168,"追緝":18169,"這裡的":18170,"還不斷":18171,"那隻":18172,"都可能":18173,"都還沒":18174,"間斷":18175,"關門":18176,"黑箱":18177,"loc19":18178,"不過卻":18179,"一起玩":18180,"非常開心":18181,"不少民眾":18182,"媽媽說":18183,"能夠在":18184,"方面的":18185,"回家後":18186,"億元的":18187,"的心理":18188,"分析師":18189,"北部及":18190,"時期的":18191,"還有人說":18192,"激烈的":18193,"獨家提供":18194,"現實生活中":18195,"震撼彈":18196,"文中寫道":18197,"成一團":18198,"沸沸揚揚":18199,"不死":18200,"不想要":18201,"不以為":18202,"丟掉":18203,"串聯":18204,"主軸":18205,"乍看":18206,"人馬":18207,"他已經":18208,"付錢":18209,"佔據":18210,"偽裝":18211,"光光":18212,"內心的":18213,"冷的":18214,"劇照":18215,"卻只":18216,"叛逆":18217,"右腳":18218,"同理":18219,"和老婆":18220,"員的":18221,"啟發":18222,"回說":18223,"在前":18224,"在他的":18225,"好人":18226,"好運":18227,"婦幼":18228,"將軍":18229,"就一直":18230,"屬實":18231,"年才":18232,"得易科罰金":18233,"恰好":18234,"憾事":18235,"截肢":18236,"按下":18237,"換取":18238,"放手":18239,"教養":18240,"文明":18241,"方位":18242,"施放":18243,"日為":18244,"日益":18245,"日展開":18246,"智庫":18247,
[...]
