{"version":"1.0","truncation":null,"padding":null,"added_tokens":[{"id":0,"special":true,"content":"[PAD]","single_word":false,"lstrip":false,"rstrip":false,"normalized":false},{"id":1,"special":true,"content":"<unk>","single_word":false,"lstrip":false,"rstrip":false,"normalized":false},{"id":2,"special":true,"content":"[CLS]","single_word":false,"lstrip":false,"rstrip":false,"normalized":false},{"id":3,"special":true,"content":"[SEP]","single_word":false,"lstrip":false,"rstrip":false,"normalized":false},{"id":4,"special":true,"content":"[MASK]","single_word":false,"lstrip":false,"rstrip":false,"normalized":false},{"id":5,"special":true,"content":"[TITLE]","single_word":false,"lstrip":false,"rstrip":false,"normalized":false},{"id":6,"special":true,"content":"[ARTICLE]","single_word":false,"lstrip":false,"rstrip":false,"normalized":false},{"id":7,"special":true,"content":"[REF]","single_word":false,"lstrip":false,"rstrip":false,"normalized":false},{"id":8,"special":true,"content":"[END]","single_word":false,"lstrip":false,"rstrip":false,"normalized":false},{"id":9,"special":true,"content":"<en>","single_word":false,"lstrip":false,"rstrip":false,"normalized":false},{"id":10,"special":true,"content":"<num>","single_word":false,"lstrip":false,"rstrip":false,"normalized":false},{"id":11,"special":true,"content":"[COMPANY]","single_word":false,"lstrip":false,"rstrip":false,"normalized":false},{"id":12,"special":true,"content":"[REPORTER]","single_word":false,"lstrip":false,"rstrip":false,"normalized":false},{"id":13,"special":true,"content":"[DATETIME]","single_word":false,"lstrip":false,"rstrip":false,"normalized":false},{"id":14,"special":true,"content":"[CATEGORY]","single_word":false,"lstrip":false,"rstrip":false,"normalized":false},{"id":15,"special":true,"content":"<per0>","single_word":false,"lstrip":false,"rstrip":false,"normalized":false},{"id":16,"special":true,"content":"<per1>","single_word":false,"lstrip":false,"rstrip":false,"normalized":false},{"id":17,"special":true,"content":"<per2>","single_word":false,"lstrip":false,"rstrip":false,"normalized":false},{"id":18,"special":true,"content":"<per3>","single_word":false,"lstrip":false,"rstrip":false,"normalized":false},{"id":19,"special":true,"content":"<per4>","single_word":false,"lstrip":false,"rstrip":false,"normalized":false},{"id":20,"special":true,"content":"<per5>","single_word":false,"lstrip":false,"rstrip":false,"normalized":false},{"id":21,"special":true,"content":"<per6>","single_word":false,"lstrip":false,"rstrip":false,"normalized":false},{"id":22,"special":true,"content":"<per7>","single_word":false,"lstrip":false,"rstrip":false,"normalized":false},{"id":23,"special":true,"content":"<per8>","single_word":false,"lstrip":false,"rstrip":false,"normalized":false},{"id":24,"special":true,"content":"<per9>","single_word":false,"lstrip":false,"rstrip":false,"normalized":false},{"id":25,"special":true,"content":"<per10>","single_word":false,"lstrip":false,"rstrip":false,"normalized":false},{"id":26,"special":true,"content":"<per11>","single_word":false,"lstrip":false,"rstrip":false,"normalized":false},{"id":27,"special":true,"content":"<per12>","single_word":false,"lstrip":false,"rstrip":false,"normalized":false},{"id":28,"special":true,"content":"<per13>","single_word":false,"lstrip":false,"rstrip":false,"normalized":false},{"id":29,"special":true,"content":"<per14>","single_word":false,"lstrip":false,"rstrip":false,"normalized":false},{"id":30,"special":true,"content":"<per15>","single_word":false,"lstrip":false,"rstrip":false,"normalized":false},{"id":31,"special":true,"content":"<per16>","single_word":false,"lstrip":false,"rstrip":false,"normalized":false},{"id":32,"special":true,"content":"<per17>","single_word":false,"lstrip":false,"rstrip":false,"normalized":false},{"id":33,"special":true,"content":"<per18>","single_word":false,"lstrip":false,"rstrip":false,"normalized":false},{"id":34,"special":true,"content":"<per19>","single_word":false,"lstrip":false,"rstrip":false,"normalized":false},{"id":35,"special":true,"content":"<per20>","single_word":false,"lstrip":false,"rstrip":false,"normalized":false},{"id":36,"special":true,"content":"<per21>","single_word":false,"lstrip":false,"rstrip":false,"normalized":false},{"id":37,"special":true,"content":"<per22>","single_word":false,"lstrip":false,"rstrip":false,"normalized":false},{"id":38,"special":true,"content":"<per23>","single_word":false,"lstrip":false,"rstrip":false,"normalized":false},{"id":39,"special":true,"content":"<per24>","single_word":false,"lstrip":false,"rstrip":false,"normalized":false},{"id":40,"special":true,"content":"<per25>","single_word":false,"lstrip":false,"rstrip":false,"normalized":false},{"id":41,"special":true,"content":"<per26>","single_word":false,"lstrip":false,"rstrip":false,"normalized":false},{"id":42,"special":true,"content":"<per27>","single_word":false,"lstrip":false,"rstrip":false,"normalized":false},{"id":43,"special":true,"content":"<per28>","single_word":false,"lstrip":false,"rstrip":false,"normalized":false},{"id":44,"special":true,"content":"<per29>","single_word":false,"lstrip":false,"rstrip":false,"normalized":false},{"id":45,"special":true,"content":"<org0>","single_word":false,"lstrip":false,"rstrip":false,"normalized":false},{"id":46,"special":true,"content":"<org1>","single_word":false,"lstrip":false,"rstrip":false,"normalized":false},{"id":47,"special":true,"content":"<org2>","single_word":false,"lstrip":false,"rstrip":false,"normalized":false},{"id":48,"special":true,"content":"<org3>","single_word":false,"lstrip":false,"rstrip":false,"normalized":false},{"id":49,"special":true,"content":"<org4>","single_word":false,"lstrip":false,"rstrip":false,"normalized":false},{"id":50,"special":true,"content":"<org5>","single_word":false,"lstrip":false,"rstrip":false,"normalized":false},{"id":51,"special":true,"content":"<org6>","single_word":false,"lstrip":false,"rstrip":false,"normalized":false},{"id":52,"special":true,"content":"<org7>","single_word":false,"lstrip":false,"rstrip":false,"normalized":false},{"id":53,"special":true,"content":"<org8>","single_word":false,"lstrip":false,"rstrip":false,"normalized":false},{"id":54,"special":true,"content":"<org9>","single_word":false,"lstrip":false,"rstrip":false,"normalized":false},{"id":55,"special":true,"content":"<org10>","single_word":false,"lstrip":false,"rstrip":false,"normalized":false},{"id":56,"special":true,"content":"<org11>","single_word":false,"lstrip":false,"rstrip":false,"normalized":false},{"id":57,"special":true,"content":"<org12>","single_word":false,"lstrip":false,"rstrip":false,"normalized":false},{"id":58,"special":true,"content":"<org13>","single_word":false,"lstrip":false,"rstrip":false,"normalized":false},{"id":59,"special":true,"content":"<org14>","single_word":false,"lstrip":false,"rstrip":false,"normalized":false},{"id":60,"special":true,"content":"<org15>","single_word":false,"lstrip":false,"rstrip":false,"normalized":false},{"id":61,"special":true,"content":"<org16>","single_word":false,"lstrip":false,"rstrip":false,"normalized":false},{"id":62,"special":true,"content":"<org17>","single_word":false,"lstrip":false,"rstrip":false,"normalized":false},{"id":63,"special":true,"content":"<org18>","single_word":false,"lstrip":false,"rstrip":false,"normalized":false},{"id":64,"special":true,"content":"<org19>","single_word":false,"lstrip":false,"rstrip":false,"normalized":false},{"id":65,"special":true,"content":"<org20>","single_word":false,"lstrip":false,"rstrip":false,"normalized":false},{"id":66,"special":true,"content":"<org21>","single_word":false,"lstrip":false,"rstrip":false,"normalized":false},{"id":67,"special":true,"content":"<org22>","single_word":false,"lstrip":false,"rstrip":false,"normalized":false},{"id":68,"special":true,"content":"<org23>","single_word":false,"lstrip":false,"rstrip":false,"normalized":false},{"id":69,"special":true,"content":"<org24>","single_word":false,"lstrip":false,"rstrip":false,"normalized":false},{"id":70,"special":true,"content":"<org25>","single_word":false,"lstrip":false,"rstrip":false,"normalized":false},{"id":71,"special":true,"content":"<org26>","single_word":false,"lstrip":false,"rstrip":false,"normalized":false},{"id":72,"special":true,"content":"<org27>","single_word":false,"lstrip":false,"rstrip":false,"normalized":false},{"id":73,"special":true,"content":"<org28>","single_word":false,"lstrip":false,"rstrip":false,"normalized":false},{"id":74,"special":true,"content":"<org29>","single_word":false,"lstrip":false,"rstrip":false,"normalized":false},{"id":75,"special":true,"content":"<loc0>","single_word":false,"lstrip":false,"rstrip":false,"normalized":false},{"id":76,"special":true,"content":"<loc1>","single_word":false,"lstrip":false,"rstrip":false,"normalized":false},{"id":77,"special":true,"content":"<loc2>","single_word":false,"lstrip":false,"rstrip":false,"normalized":false},{"id":78,"special":true,"content":"<loc3>","single_word":false,"lstrip":false,"rstrip":false,"normalized":false},{"id":79,"special":true,"content":"<loc4>","single_word":false,"lstrip":false,"rstrip":false,"normalized":false},{"id":80,"special":true,"content":"<loc5>","single_word":false,"lstrip":false,"rstrip":false,"normalized":false},{"id":81,"special":true,"content":"<loc6>","single_word":false,"lstrip":false,"rstrip":false,"normalized":false},{"id":82,"special":true,"content":"<loc7>","single_word":false,"lstrip":false,"rstrip":false,"normalized":false},{"id":83,"special":true,"content":"<loc8>","single_word":false,"lstrip":false,"rstrip":false,"normalized":false},{"id":84,"special":true,"content":"<loc9>","single_word":false,"lstrip":false,"rstrip":false,"normalized":false},{"id":85,"special":true,"content":"<loc10>","single_word":false,"lstrip":false,"rstrip":false,"normalized":false},{"id":86,"special":true,"content":"<loc11>","single_word":false,"lstrip":false,"rstrip":false,"normalized":false},{"id":87,"special":true,"content":"<loc12>","single_word":false,"lstrip":false,"rstrip":false,"normalized":false},{"id":88,"special":true,"content":"<loc13>","single_word":false,"lstrip":false,"rstrip":false,"normalized":false},{"id":89,"special":true,"content":"<loc14>","single_word":false,"lstrip":false,"rstrip":false,"normalized":false},{"id":90,"special":true,"content":"<loc15>","single_word":false,"lstrip":false,"rstrip":false,"normalized":false},{"id":91,"special":true,"content":"<loc16>","single_word":false,"lstrip":false,"rstrip":false,"normalized":false},{"id":92,"special":true,"content":"<loc17>","single_word":false,"lstrip":false,"rstrip":false,"normalized":false},{"id":93,"special":true,"content":"<loc18>","single_word":false,"lstrip":false,"rstrip":false,"normalized":false},{"id":94,"special":true,"content":"<loc19>","single_word":false,"lstrip":false,"rstrip":false,"normalized":false},{"id":95,"special":true,"content":"<loc20>","single_word":false,"lstrip":false,"rstrip":false,"normalized":false},{"id":96,"special":true,"content":"<loc21>","single_word":false,"lstrip":false,"rstrip":false,"normalized":false},{"id":97,"special":true,"content":"<loc22>","single_word":false,"lstrip":false,"rstrip":false,"normalized":false},{"id":98,"special":true,"content":"<loc23>","single_word":false,"lstrip":false,"rstrip":false,"normalized":false},{"id":99,"special":true,"content":"<loc24>","single_word":false,"lstrip":false,"rstrip":false,"normalized":false},{"id":100,"special":true,"content":"<loc25>","single_word":false,"lstrip":false,"rstrip":false,"normalized":false},{"id":101,"special":true,"content":"<loc26>","single_word":false,"lstrip":false,"rstrip":false,"normalized":false},{"id":102,"special":true,"content":"<loc27>","single_word":false,"lstrip":false,"rstrip":false,"normalized":false},{"id":103,"special":true,"content":"<loc28>","single_word":false,"lstrip":false,"rstrip":false,"normalized":false},{"id":104,"special":true,"content":"<loc29>","single_word":false,"lstrip":false,"rstrip":false,"normalized":false}],"normalizer":{"type":"NFKC"},"pre_tokenizer":{"type":"Whitespace"},"post_processor":null,"decoder":null,"model":{"type":"BPE","dropout":null,"unk_token":null,"continuing_subword_prefix":null,"end_of_word_suffix":null,"fuse_unk":false,"vocab":{"[PAD]":0,"<unk>":1,"[CLS]":2,"[SEP]":3,"[MASK]":4,"[TITLE]":5,"[ARTICLE]":6,"[REF]":7,"[END]":8,"<en>":9,"<num>":10,"[COMPANY]":11,"[REPORTER]":12,"[DATETIME]":13,"[CATEGORY]":14,"<per0>":15,"<per1>":16,"<per2>":17,"<per3>":18,"<per4>":19,"<per5>":20,"<per6>":21,"<per7>":22,"<per8>":23,"<per9>":24,"<per10>":25,"<per11>":26,"<per12>":27,"<per13>":28,"<per14>":29,"<per15>":30,"<per16>":31,"<per17>":32,"<per18>":33,"<per19>":34,"<per20>":35,"<per21>":36,"<per22>":37,"<per23>":38,"<per24>":39,"<per25>":40,"<per26>":41,"<per27>":42,"<per28>":43,"<per29>":44,"<org0>":45,"<org1>":46,"<org2>":47,"<org3>":48,"<org4>":49,"<org5>":50,"<org6>":51,"<org7>":52,"<org8>":53,"<org9>":54,"<org10>":55,"<org11>":56,"<org12>":57,"<org13>":58,"<org14>":59,"<org15>":60,"<org16>":61,"<org17>":62,"<org18>":63,"<org19>":64,"<org20>":65,"<org21>":66,"<org22>":67,"<org23>":68,"<org24>":69,"<org25>":70,"<org26>":71,"<org27>":72,"<org28>":73,"<org29>":74,"<loc0>":75,"<loc1>":76,"<loc2>":77,"<loc3>":78,"<loc4>":79,"<loc5>":80,"<loc6>":81,"<loc7>":82,"<loc8>":83,"<loc9>":84,"<loc10>":85,"<loc11>":86,"<loc12>":87,"<loc13>":88,"<loc14>":89,"<loc15>":90,"<loc16>":91,"<loc17>":92,"<loc18>":93,"<loc19>":94,"<loc20>":95,"<loc21>":96,"<loc22>":97,"<loc23>":98,"<loc24>":99,"<loc25>":100,"<loc26>":101,"<loc27>":102,"<loc28>":103,"<loc29>":104,"\b":105,"!":106,"\"":107,"#":108,"%":109,"&":110,"'":111,"(":112,")":113,"*":114,"+":115,",":116,"-":117,".":118,"/":119,"0":120,"1":121,"2":122,"3":123,"4":124,"5":125,"6":126,"7":127,"8":128,"9":129,":":130,";":131,"<":132,"=":133,">":134,"?":135,"@":136,"A":137,"B":138,"C":139,"D":140,"E":141,"F":142,"G":143,"H":144,"I":145,"J":146,"K":147,"L":148,"M":149,"N":150,"O":151,"P":152,"Q":153,"R":154,"S":155,"T":156,"U":157,"V":158,"W":159,"X":160,"Y":161,"Z":162,"[":163,"\\":164,"]":165,"^":166,"_":167,"a":168,"b":169,"c":170,"d":171,"e":172,"f":173,"g":174,"h":175,"i":176,"j":177,"k":178,"l":179,"m":180,"n":181,"o":182,"p":183,"q":184,"r":185,"s":186,"t":187,"u":188,"v":189,"w":190,"x":191,"y":192,"z":193,"{":194,"|":195,"}":196,"~":197,"©":198,"°":199,"·":200,"é":201,"ü":202,"ˇ":203,"ˋ":204,"​":205,"‎":206,"‏":207,"‘":208,"’":209,"•":210,"‧":211,"‪":212,"‬":213,"′":214,"←":215,"→":216,"∕":217,"⋯":218,"─":219,"│":220,"╱":221,"◄":222,"❤":223,"、":224,"。":225,"〈":226,"〉":227,"《":228,"》":229,"「":230,"」":231,"『":232,"』":233,"【":234,"】":235,"〔":236,"の":237,"ツ":238,"ハ":239,"・":240,"ㄅ":241,"ㄆ":242,"ㄇ":243,"ㄌ":244,"ㄟ":245,"㐂":246,"㐅":247,"㑵":248,"㑹":249,"㒠":250,"㓅":251,"㓉":252,"㓊":253,"㓋":254,"㓓":255,"㓕":256,"㕑":257,"㖈":258,"㖭":259,"㗊":260,"㙮":261,"㚈":262,"㚹":263,"㚻":264,"㝜":265,"㝷":266,"㞢":267,"㡪":268,"㡬":269,"㡳":270,"㤗":271,"㥃":272,"㦡":273,"㦬":274,"㦯":275,"㧜":276,"㨂":277,"㨗":278,"㨾":279,"㩗":280,"㩦":281,"㪚":282,"㫒":283,"㫬":284,"㫸":285,"㬌":286,"㬢":287,"㰖":288,"㱔":289,"㳄":290,"㳶":291,"㵘":292,"㵢":293,"㷛":294,"㸃":295,"㸆":296,"㸤":297,"㹢":298,"㹭":299,"㹴":300,"㺢":301,"㺭":302,"㺵":303,"㻑":304,"㼈":305,"㾗":306,"㿂":307,"㿜":308,"䀆":309,"䀻":310,"䁐":311,"䁔":312,"䁥":313,"䁬":314,"䁱":315,"䂳":316,"䂿":317,"䃈":318,"䃿":319,"䄂":320,"䅁":321,"䅍":322,"䅰":323,"䅲":324,"䆁":325,"䇿":326,"䈢":327,"䈥":328,"䋖":329,"䌫":330,"䎇":331,"䎊":332,"䏎":333,"䏜":334,"䐁":335,"䐟":336,"䒕":337,"䒜":338,"䒳":339,"䓁":340,"䓤":341,"䓬":342,"䓶":343,"䔥":344,"䕒":345,"䕶":346,"䖇":347,"䗛":348,"䘏":349,"䙐":350,"䛥":351,"䛧":352,"䜓":353,"䝂":354,"䝱":355,"䞍":356,"䠌":357,"䠙":358,"䠷":359,"䡛":360,"䣌":361,"䦃":362,"䦕":363,"䦧":364,"䦨":365,"䧏":366,"䧔":367,"䧟":368,"䩜":369,"䪸":370,"䫶":371,"䯴":372,"䰾":373,"䱛":374,"䱷":375,"䱽":376,"䲗":377,"䲜":378,"䲢":379,"䴈":380,"䴉":381,"䴤":382,"一":383,"丁":384,"丂":385,"七":386,"丄":387,"丅":388,"万":389,"丈":390,"三":391,"上":392,"下":393,"不":394,"与":395,"丐":396,"丑":397,"专":398,"且":399,"丕":400,"世":401,"丘":402,"丙":403,"业":404,"东":405,"丝":406,"丞":407,"丟":408,"両":409,"丢":410,"两":411,"並":412,"丨":413,"个":414,"丫":415,"中":416,"丯":417,"丰":418,"丱":419,"串":420,"丶":421,"丷":422,"丸":423,"丹":424,"为":425,"主":426,"丼":427,"丽":428,"丿":429,"乀":430,"乁":431,"乂":432,"乃":433,"久":434,"乆":435,"么":436,"义":437,"之":438,"乍":439,"乎":440,"乏":441,"乐":442,"乒":443,"乓":444,"乖":445,"乗":446,"乘":447,"乙":448,"乜":449,"九":450,"乞":451,"也":452,"习":453,"书":454,"乩":455,"乭":456,"乱":457,"乳":458,"乹":459,"乾":460,"亀":461,"亁":462,"亂":463,"了":464,"亇":465,"予":466,"争":467,"亊":468,"事":469,"二":470,"亍":471,"于":472,"云":473,"互":474,"亓":475,"五":476,"井":477,"亘":478,"亙":479,"亚":480,"些":481,"亜":482,"亞":483,"亟":484,"亠":485,"亡":486,"亢":487,"交":488,"亥":489,"亦":490,"产":491,"亨":492,"享":493,"京":494,"亭":495,"亮":496,"亰":497,"亲":498,"亳":499,"亵":500,"亷":501,"人":502,"亻":503,"亿":504,"什":505,"仁":506,"仂":507,"仃":508,"仄":509,"仆":510,"仇":511,"仉":512,"今":513,"介":514,"仍":515,"从":516,"仏":517,"仓":518,"仔":519,"仕":520,"他":521,"仗":522,"付":523,"仙":524,"仚":525,"仛":526,"仝":527,"仞":528,"仟":529,"仡":530,"代":531,"令":532,"以":533,"仨":534,"仪":535,"们":536,"仮":537,"仰":538,"仱":539,"仲":540,"仳":541,"仴":542,"仵":543,"件":544,"任":545,"仼":546,"份":547,"仿":548,"企":549,"伂":550,"伃":551,"伆":552,"伈":553,"伉":554,"伊":555,"伋":556,"伍":557,"伎":558,"伏":559,"伐":560,"休":561,"伓":562,"伕":563,"众":564,"优":565,"伙":566,"会":567,"伝":568,"伞":569,"伢":570,"伤":571,"伦":572,"伭":573,"伯":574,"估":575,"伱":576,"伲":577,"伴":578,"伶":579,"伷":580,"伸":581,"伹":582,"伺":583,"似":584,"伽":585,"佁":586,"佃":587,"佄":588,"但":589,"佇":590,"佈":591,"佋":592,"位":593,"低":594,"住":595,"佐":596,"佑":597,"体":598,"佔":599,"何":600,"佗":601,"佘":602,"余":603,"佚":604,"佛":605,"作":606,"佝":607,"佞":608,"佟":609,"你":610,"佢":611,"佣":612,"佤":613,"佧":614,"佩":615,"佪":616,"佬":617,"佮":618,"佯":619,"佰":620,"佳":621,"併":622,"佶":623,"佷":624,"佺":625,"佻":626,"佼":627,"佾":628,"使":629,"侁":630,"侃":631,"侄":632,"來":633,"侈":634,"例":635,"侍":636,"侏":637,"侐":638,"侑":639,"侓":640,"侔":641,"侖":642,"侗":643,"侘":644,"供":645,"依":646,"侞":647,"侠":648,"価":649,"侣":650,"侧":651,"侫":652,"侮":653,"侯":654,"侵":655,"侶":656,"侷":657,"侹":658,"便":659,"俁":660,"係":661,"促":662,"俄":663,"俅":664,"俆":665,"俇":666,"俉":667,"俊":668,"俋":669,"俍":670,"俎":671,"俏":672,"俐":673,"俑":674,"俓":675,"俗":676,"俘":677,"俚":678,"俜":679,"保":680,"俞":681,"俟":682,"俠":683,"信":684,"俢":685,"俣":686,"俤":687,"俥":688,"俩":689,"俬":690,"修":691,"俯":692,"俱":693,"俳":694,"俵":695,"俶":696,"俸":697,"俺":698,"俽":699,"俾":700,"倀":701,"倂":702,"倆":703,"倇":704,"倈":705,"倉":706,"個":707,"倌":708,"倍":709,"倏":710,"們":711,"倒":712,"倔":713,"倖":714,"倘":715,"候":716,"倚":717,"倜":718,"倞":719,"借":720,"倡":721,"倢":722,"倣":723,"値":724,"倥":725,"倦":726,"倨":727,"倩":728,"倪":729,"倫":730,"倬":731,"倭":732,"倮":733,"倵":734,"倶":735,"倷":736,"倹":737,"倻":738,"值":739,"倾":740,"偃":741,"假":742,"偈":743,"偉":744,"偋":745,"偌":746,"偍":747,"偎":748,"偏":749,"偒":750,"偕":751,"做":752,"停":753,"偟":754,"偣":755,"健":756,"偮":757,"偰":758,"偱":759,"偲":760,"側":761,"偵":762,"偶":763,"偷":764,"偸":765,"偹":766,"偺":767,"偽":768,"傀":769,"傅":770,"傈":771,"傊":772,"傋":773,"傍":774,"傎":775,"傑":776,"傖":777,"傘":778,"備":779,"傚":780,"傜":781,"傢":782,"傣":783,"储":784,"傪":785,"催":786,"傭":787,"傯":788,"傱":789,"傲":790,"傳":791,"傴":792,"債":793,"傷":794,"傹":795,"傻":796,"傼":797,"傾":798,"僂":799,"僅":800,"僈":801,"僉":802,"僊":803,"働":804,"像":805,"僑":806,"僕":807,"僖":808,"僚":809,"僜":810,"僞":811,"僡":812,"僥":813,"僦":814,"僧":815,"僨":816,"僭":817,"僮":818,"僯":819,"僱":820,"僳":821,"僴":822,"僵":823,"價":824,"僻":825,"儀":826,"儁":827,"儂":828,"億":829,"儅":830,"儆":831,"儇":832,"儈":833,"儉":834,"儋":835,"儍":836,"儎":837,"儐":838,"儒":839,"儔":840,"儕":841,"儗":842,"儘":843,"儚":844,"儞":845,"償":846,"儡":847,"儣":848,"儥":849,"優":850,"儫":851,"儲":852,"儷":853,"儸":854,"儺":855,"儻":856,"儼":857,"儿":858,"兀":859,"允":860,"元":861,"兄":862,"充":863,"兆":864,"兇":865,"先":866,"光":867,"克":868,"兌":869,"免":870,"兎":871,"児":872,"兑":873,"兒":874,"兔":875,"兕":876,"兗":877,"党":878,"兜":879,"兟":880,"兢":881,"入":882,"內":883,"全":884,"兩":885,"兪":886,"八":887,"公":888,"六":889,"兮":890,"兰":891,"共":892,"兲":893,"关":894,"兵":895,"其":896,"具":897,"典":898,"兹":899,"养":900,"兼":901,"兽":902,"兿":903,"冀":904,"冂":905,"冃":906,"冄":907,"内":908,"円":909,"冇":910,"冉":911,"冊":912,"冋":913,"册":914,"再":915,"冏":916,"冑":917,"冒":918,"冓":919,"冕":920,"冗":921,"写":922,"冚":923,"军":924,"农":925,"冠":926,"冢":927,"冤":928,"冥":929,"冨":930,"冪":931,"冬":932,"冮":933,"冰":934,"冲":935,"决":936,"冴":937,"况":938,"冶":939,"冷":940,"冸":941,"冺":942,"冼":943,"冽":944,"冾":945,"净":946,"凃":947,"凄":948,"凅":949,"准":950,"凇":951,"凈":952,"凉":953,"凊":954,"凋":955,"凌":956,"凍":957,"减":958,"凐":959,"凑":960,"凖":961,"凛":962,"凜":963,"凝":964,"凟":965,"几":966,"凡":967,"凢":968,"凤":969,"処":970,"凧":971,"凩":972,"凪":973,"凰":974,"凱":975,"凳":976,"凶":977,"凸":978,"凹":979,"出":980,"函":981,"刀":982,"刁":983,"刂":984,"刃":985,"刄":986,"分":987,"切":988,"刈":989,"刊":990,"刋":991,"刎":992,"刑":993,"划":994,"刖":995,"列":996,"则":997,"刚":998,"创":999,"初":1000,"删":1001,"刣":1002,"判":1003,"別":1004,"刦":1005,"刧":1006,"刨":1007,"利":1008,"刪":1009,"别":1010,"刬":1011,"刮":1012,"到":1013,"刴":1014,"制":1015,"刷":1016,"券":1017,"刹":1018,"刺":1019,"刻":1020,"刼":1021,"剁":1022,"剃":1023,"則":1024,"剉":1025,"削":1026,"剋":1027,"剌":1028,"前":1029,"剎":1030,"剔":1031,"剖":1032,"剛":1033,"剜":1034,"剝":1035,"剣":1036,"剥":1037,"剧":1038,"剩":1039,"剪":1040,"剮":1041,"副":1042,"剰":1043,"割":1044,"剴":1045,"創":1046,"剷":1047,"剸":1048,"剽":1049,"剿":1050,"劃":1051,"劄":1052,"劇":1053,"劈":1054,"劉":1055,"劊":1056,"劍":1057,"劏":1058,"劑":1059,"劓":1060,"劔":1061,"力":1062,"办":1063,"功":1064,"加":1065,"务":1066,"劣":1067,"劤":1068,"劦":1069,"动":1070,"助":1071,"努":1072,"劫":1073,"劬":1074,"劭":1075,"励":1076,"劲":1077,"労":1078,"劵":1079,"劷":1080,"劸":1081,"効":1082,"劼":1083,"劾":1084,"势":1085,"勁":1086,"勃":1087,"勅":1088,"勇":1089,"勉":1090,"勍":1091,"勏":1092,"勐":1093,"勑":1094,"勒":1095,"動":1096,"勗":1097,"勘":1098,"務":1099,"勛":1100,"勝":1101,"勞":1102,"募":1103,"勠":1104,"勢":1105,"勣":1106,"勤":1107,"勥":1108,"勦":1109,"勧":1110,"勮":1111,"勱":1112,"勲":1113,"勳":1114,"勵":1115,"勸":1116,"勺":1117,"勻":1118,"勾":1119,"勿":1120,"匀":1121,"匂":1122,"包":1123,"匆":1124,"匈":1125,"匍":1126,"匏":1127,"匐":1128,"匕":1129,"化":1130,"北":1131,"匙":1132,"匜":1133,"匝":1134,"匠":1135,"匡":1136,"匣":1137,"匪":1138,"匭":1139,"匯":1140,"匱":1141,"匴":1142,"匹":1143,"区":1144,"医":1145,"匼":1146,"匾":1147,"匿":1148,"區":1149,"十":1150,"千":1151,"卅":1152,"升":1153,"午":1154,"卉":1155,"半":1156,"卋":1157,"卍":1158,"协":1159,"卐":1160,"卑":1161,"卒":1162,"卓":1163,"協":1164,"单":1165,"南":1166,"博":1167,"卜":1168,"卞":1169,"卟":1170,"占":1171,"卡":1172,"卣":1173,"卤":1174,"卦":1175,"卧":1176,"卫":1177,"卬":1178,"卮":1179,"卯":1180,"印":1181,"危":1182,"卲":1183,"即":1184,"却":1185,"卵":1186,"卷":1187,"卸":1188,"卹":1189,"卺":1190,"卻":1191,"卼":1192,"卽":1193,"卿":1194,"厂":1195,"厄":1196,"厅":1197,"历":1198,"厎":1199,"厓":1200,"厔":1201,"厘":1202,"厚":1203,"厝":1204,"原":1205,"厠":1206,"厡":1207,"厥":1208,"厦":1209,"厨":1210,"厩":1211,"厭":1212,"厮":1213,"厰":1214,"厲":1215,"厳":1216,"厶":1217,"去":1218,"叁":1219,"参":1220,"參":1221,"叄":1222,"又":1223,"叉":1224,"及":1225,"友":1226,"双":1227,"反":1228,"収":1229,"发":1230,"叒":1231,"叔":1232,"叕":1233,"取":1234,"受":1235,"变":1236,"叙":1237,"叛":1238,"叟":1239,"叠":1240,"叡":1241,"叢":1242,"口":1243,"古":1244,"句":1245,"另":1246,"叧":1247,"叨":1248,"叩":1249,"只":1250,"叫":1251,"召":1252,"叭":1253,"叮":1254,"可":1255,"台":1256,"叱":1257,"史":1258,"右":1259,"叵":1260,"叶":1261,"号":1262,"司":1263,"叻":1264,"叼":1265,"叿":1266,"吁":1267,"吂":1268,"吃":1269,"各":1270,"吅":1271,"吆":1272,"吇":1273,"合":1274,"吉":1275,"吊":1276,"吋":1277,"同":1278,"名":1279,"后":1280,"吏":1281,"吐":1282,"向":1283,"吒":1284,"吓":1285,"吔":1286,"吕":1287,"吖":1288,"吗":1289,"吚":1290,"君":1291,"吝":1292,"吞":1293,"吟":1294,"吠":1295,"吡":1296,"否":1297,"吧":1298,"吩":1299,"吪":1300,"含":1301,"听":1302,"吭":1303,"吮":1304,"启":1305,"吱":1306,"吲":1307,"吳":1308,"吴":1309,"吵":1310,"吶":1311,"吸":1312,"吹":1313,"吺":1314,"吻":1315,"吼":1316,"吽":1317,"吾":1318,"吿":1319,"呀":1320,"呂":1321,"呃":1322,"呅":1323,"呆":1324,"呈":1325,"呉":1326,"告":1327,"呋":1328,"呎":1329,"呐":1330,"呑":1331,"呒":1332,"员":1333,"呠":1334,"呢":1335,"呣":1336,"呤":1337,"呦":1338,"呧":1339,"周":1340,"呪":1341,"呯":1342,"呱":1343,"呲":1344,"味":1345,"呴":1346,"呵":1347,"呶":1348,"呷":1349,"呸":1350,"呻":1351,"呼":1352,"命":1353,"呾":1354,"呿":1355,"咀":1356,"咁":1357,"咂":1358,"咄":1359,"咆":1360,"咋":1361,"和":1362,"咍":1363,"咎":1364,"咏":1365,"咐":1366,"咑":1367,"咒":1368,"咔":1369,"咕":1370,"咖":1371,"咗":1372,"咘":1373,"咚":1374,"咜":1375,"咢":1376,"咣":1377,"咤":1378,"咦":1379,"咧":1380,"咨":1381,"咩":1382,"咪":1383,"咫":1384,"咬":1385,"咭":1386,"咯":1387,"咱":1388,"咲":1389,"咳":1390,"咸":1391,"咹":1392,"咻":1393,"咼":1394,"咽":1395,"咾":1396,"咿":1397,"哀":1398,"品":1399,"哂":1400,"哃":1401,"哄":1402,"哆":1403,"哇":1404,"哈":1405,"哉":1406,"哋":1407,"哌":1408,"响":1409,"哎":1410,"哏":1411,"哐":1412,"哑":1413,"哒":1414,"哖":1415,"哚":1416,"哞":1417,"哟":1418,"員":1419,"哢":1420,"哥":1421,"哦":1422,"哧":1423,"哨":1424,"哩":1425,"哪":1426,"哬":1427,"哭":1428,"哮":1429,"哲":1430,"哳":1431,"哴":1432,"哺":1433,"哼":1434,"哽":1435,"哿":1436,"唁":1437,"唄":1438,"唅":1439,"唆":1440,"唇":1441,"唉":1442,"唊":1443,"唌":1444,"唍":1445,"唎":1446,"唏":1447,"唐":1448,"唑":1449,"唔":1450,"唛":1451,"唠":1452,"唤":1453,"唦":1454,"唧":1455,"唪":1456,"唬":1457,"唭":1458,"售":1459,"唯":1460,"唰":1461,"唱":1462,"唲":1463,"唳":1464,"唵":1465,"唷":1466,"唸":1467,"唻":1468,"唾":1469,"啀":1470,"啁":1471,"啃":1472,"啄":1473,"商":1474,"啇":1475,"啉":1476,"啊":1477,"啍":1478,"問":1479,"啐":1480,"啓":1481,"啕":1482,"啖":1483,"啜":1484,"啞":1485,"啟":1486,"啡":1487,"啣":1488,"啤":1489,"啥":1490,"啦":1491,"啨":1492,"啪":1493,"啫":1494,"啰":1495,"啱":1496,"啲":1497,"啵":1498,"啶":1499,"啷":1500,"啹":1501,"啻":1502,"啼":1503,"啽":1504,"啾":1505,"喀":1506,"喂":1507,"喃":1508,"善":1509,"喆":1510,"喇":1511,"喈":1512,"喉":1513,"喊":1514,"喋":1515,"喎":1516,"喏":1517,"喑":1518,"喔":1519,"喘":1520,"喙":1521,"喚":1522,"喜":1523,"喝":1524,"喞":1525,"喟":1526,"喥":1527,"喧":1528,"喨":1529,"喩":1530,"喪":1531,"喫":1532,"喬":1533,"單":1534,"喰":1535,"喱":1536,"喲":1537,"喳":1538,"喴":1539,"喵":1540,"営":1541,"喷":1542,"喹":1543,"喺":1544,"喻":1545,"喼":1546,"喽":1547,"嗄":1548,"嗅":1549,"嗆":1550,"嗇":1551,"嗉":1552,"嗊":1553,"嗌":1554,"嗎":1555,"嗑":1556,"嗒":1557,"嗓":1558,"嗔":1559,"嗖":1560,"嗙":1561,"嗚":1562,"嗜":1563,"嗝":1564,"嗞":1565,"嗟":1566,"嗡":1567,"嗣":1568,"嗤":1569,"嗥":1570,"嗦":1571,"嗨":1572,"嗩":1573,"嗪":1574,"嗬":1575,"嗯":1576,"嗰":1577,"嗱":1578,"嗲":1579,"嗵":1580,"嗶":1581,"嗷":1582,"嗻":1583,"嗼":1584,"嗽":1585,"嗾":1586,"嘀":1587,"嘁":1588,"嘅":1589,"嘆":1590,"嘈":1591,"嘉":1592,"嘌":1593,"嘍":1594,"嘎":1595,"嘏":1596,"嘓":1597,"嘔":1598,"嘕":1599,"嘖":1600,"嘗":1601,"嘘":1602,"嘚":1603,"嘛":1604,"嘜":1605,"嘞":1606,"嘟":1607,"嘠":1608,"嘢":1609,"嘣":1610,"嘤":1611,"嘦":1612,"嘧":1613,"嘨":1614,"嘩":1615,"嘪":1616,"嘭":1617,"嘮":1618,"嘯":1619,"嘰":1620,"嘱":1621,"嘲":1622,"嘳":1623,"嘴":1624,"嘵":1625,"嘶":1626,"嘸":1627,"嘹":1628,"嘻":1629,"嘿":1630,"噁":1631,"噂":1632,"噌":1633,"噍":1634,"噎":1635,"噏":1636,"噐":1637,"噑":1638,"噓":1639,"噔":1640,"噗":1641,"噘":1642,"噙":1643,"噚":1644,"噜":1645,"噝":1646,"噞":1647,"噠":1648,"噢":1649,"噤":1650,"噥":1651,"器":1652,"噩":1653,"噪":1654,"噫":1655,"噬":1656,"噯":1657,"噱":1658,"噲":1659,"噴":1660,"噵":1661,"噶":1662,"噸":1663,"噹":1664,"噻":1665,"噼":1666,"嚀":1667,"嚄":1668,"嚅":1669,"嚇":1670,"嚎":1671,"嚏":1672,"嚐":1673,"嚒":1674,"嚓":1675,"嚔":1676,"嚕":1677,"嚗":1678,"嚘":1679,"嚙":1680,"嚞":1681,"嚟":1682,"嚡":1683,"嚣":1684,"嚤":1685,"嚥":1686,"嚦":1687,"嚧":1688,"嚨":1689,"嚭":1690,"嚮":1691,"嚳":1692,"嚴":1693,"嚶":1694,"嚷":1695,"嚼":1696,"囀":1697,"囁":1698,"囂":1699,"囃":1700,"囆":1701,"囇":1702,"囈":1703,"囉":1704,"囊":1705,"囌":1706,"囍":1707,"囑":1708,"囒":1709,"囓":1710,"囔":1711,"囖":1712,"囗":1713,"囚":1714,"四":1715,"囝":1716,"回":1717,"囟":1718,"因":1719,"囡":1720,"团":1721,"団":1722,"囤":1723,"囦":1724,"囧":1725,"囪":1726,"囫":1727,"园":1728,"囯":1729,"困":1730,"囱":1731,"囲":1732,"図":1733,"囹":1734,"固":1735,"囼":1736,"国":1737,"图":1738,"囿":1739,"圀":1740,"圃":1741,"圄":1742,"圆":1743,"圇":1744,"圈":1745,"國":1746,"圍":1747,"圏":1748,"圑":1749,"園":1750,"圓":1751,"圔":1752,"圖":1753,"圗":1754,"團":1755,"圜":1756,"土":1757,"圢":1758,"圣":1759,"圤":1760,"圦":1761,"圧":1762,"在":1763,"圩":1764,"圪":1765,"圭":1766,"圮":1767,"圯":1768,"地":1769,"圳":1770,"圴":1771,"圵":1772,"圶":1773,"场":1774,"圻":1775,"圾":1776,"址":1777,"坂":1778,"坃":1779,"坄":1780,"均":1781,"坊":1782,"坋":1783,"坌":1784,"坍":1785,"坎":1786,"坏":1787,"坐":1788,"坑":1789,"坔":1790,"坙":1791,"坚":1792,"坛":1793,"坟":1794,"坡":1795,"坣":1796,"坤":1797,"坦":1798,"坨":1799,"坩":1800,"坪":1801,"坫":1802,"坭":1803,"坯":1804,"坲":1805,"坳":1806,"坵":1807,"坷":1808,"坺":1809,"坻":1810,"坼":1811,"坽":1812,"垂":1813,"垃":1814,"垈":1815,"型":1816,"垌":1817,"垓":1818,"垕":1819,"垗":1820,"垚":1821,"垛":1822,"垟":1823,"垠":1824,"垡":1825,"垢":1826,"垣":1827,"垮":1828,"垰":1829,"垵":1830,"垷":1831,"垸":1832,"垻":1833,"埂":1834,"埃":1835,"埆":1836,"埇":1837,"埈":1838,"埊":1839,"埋":1840,"埌":1841,"城":1842,"埏":1843,"埒":1844,"埔":1845,"埕":1846,"埗":1847,"埜":1848,"域":1849,"埠":1850,"埡":1851,"埢":1852,"埤":1853,"埧":1854,"埨":1855,"埪":1856,"埭":1857,"埲":1858,"埴":1859,"執":1860,"埸":1861,"培":1862,"基":1863,"埻":1864,"埼":1865,"埽":1866,"埾":1867,"堀":1868,"堂":1869,"堃":1870,"堅":1871,"堆":1872,"堇":1873,"堉":1874,"堊":1875,"堎":1876,"堐":1877,"堑":1878,"堔":1879,"堕":1880,"堖":1881,"堙":1882,"堜":1883,"堝":1884,"堞":1885,"堠":1886,"堡":1887,"堤":1888,"堧":1889,"堪":1890,"堯":1891,"堰":1892,"報":1893,"場":1894,"堵":1895,"堺":1896,"堽":1897,"堿":1898,"塀":1899,"塁":1900,"塅":1901,"塆":1902,"塈":1903,"塊":1904,"塋":1905,"塌":1906,"塍":1907,"塏":1908,"塑":1909,"塒":1910,"塔":1911,"塗":1912,"塘":1913,"塙":1914,"塚":1915,"塜":1916,"塞":1917,"塡":1918,"塢":1919,"塤":1920,"塩":1921,"填":1922,"塬":1923,"塭":1924,"塯":1925,"塱":1926,"塲":1927,"塴":1928,"塵":1929,"塹":1930,"塺":1931,"塽":1932,"塾":1933,"塿":1934,"墀":1935,"境":1936,"墅":1937,"墈":1938,"墉":1939,"墊":1940,"墎":1941,"墓":1942,"増":1943,"墘":1944,"墙":1945,"墜":1946,"增":1947,"墟":1948,"墣":1949,"墦":1950,"墨":1951,"墩":1952,"墬":1953,"墮":1954,"墳":1955,"墶":1956,"墻":1957,"墼":1958,"墾":1959,"壁":1960,"壂":1961,"壅":1962,"壆":1963,"壇":1964,"壉":1965,"壊":1966,"壌":1967,"壎":1968,"壐":1969,"壑":1970,"壓":1971,"壕":1972,"壖":1973,"壘":1974,"壙":1975,"壞":1976,"壟":1977,"壠":1978,"壢":1979,"壤":1980,"壩":1981,"士":1982,"壬":1983,"壮":1984,"壯":1985,"声":1986,"壱":1987,"売":1988,"壴":1989,"壶":1990,"壹":1991,"壺":1992,"壼":1993,"壽":1994,"夀":1995,"夃":1996,"处":1997,"夆":1998,"备":1999,"変":2000,"夊":2001,"复":2002,"夏":2003,"夔":2004,"夕":2005,"外":2006,"夙":2007,"多":2008,"夜":2009,"够":2010,"夠":2011,"夢":2012,"夣":2013,"夥":2014,"大":2015,"天":2016,"太":2017,"夫":2018,"夭":2019,"央":2020,"夯":2021,"失":2022,"夲":2023,"头":2024,"夷":2025,"夸":2026,"夼":2027,"夽":2028,"夾":2029,"奀":2030,"奂":2031,"奄":2032,"奅":2033,"奇":2034,"奈":2035,"奉":2036,"奌":2037,"奎":2038,"奏":2039,"奐":2040,"契":2041,"奓":2042,"奔":2043,"奕":2044,"套":2045,"奘":2046,"奚":2047,"奠":2048,"奡":2049,"奢":2050,"奥":2051,"奧":2052,"奨":2053,"奩":2054,"奪":2055,"奬":2056,"奭":2057,"奮":2058,"女":2059,"奴":2060,"奵":2061,"奶":2062,"奸":2063,"她":2064,"奻":2065,"奼":2066,"好":2067,"奾":2068,"妁":2069,"如":2070,"妃":2071,"妄":2072,"妆":2073,"妈":2074,"妊":2075,"妍":2076,"妏":2077,"妒":2078,"妓":2079,"妖":2080,"妗":2081,"妘":2082,"妙":2083,"妝":2084,"妞":2085,"妟":2086,"妡":2087,"妣":2088,"妤":2089,"妥":2090,"妧":2091,"妨":2092,"妬":2093,"妮":2094,"妯":2095,"妲":2096,"妳":2097,"妶":2098,"妸":2099,"妹":2100,"妺":2101,"妻":2102,"妽":2103,"妾":2104,"姁":2105,"姆":2106,"姈":2107,"姉":2108,"姊":2109,"始":2110,"姌":2111,"姍":2112,"姐":2113,"姑":2114,"姒":2115,"姓":2116,"委":2117,"姘":2118,"姙":2119,"姚":2120,"姜":2121,"姝":2122,"姣":2123,"姤":2124,"姥":2125,"姦":2126,"姨":2127,"姪":2128,"姫":2129,"姬":2130,"姮":2131,"姯":2132,"姳":2133,"姵":2134,"姶":2135,"姷":2136,"姸":2137,"姹":2138,"姻":2139,"姿":2140,"威":2141,"娃":2142,"娉":2143,"娊":2144,"娌":2145,"娎":2146,"娑":2147,"娓":2148,"娕":2149,"娘":2150,"娚":2151,"娛":2152,"娜":2153,"娟":2154,"娠":2155,"娣":2156,"娤":2157,"娥":2158,"娩":2159,"娪":2160,"娫":2161,"娭":2162,"娱":2163,"娶":2164,"娸":2165,"娼":2166,"婀":2167,"婁":2168,"婆":2169,"婇":2170,"婈":2171,"婉":2172,"婊":2173,"婍":2174,"婏":2175,"婐":2176,"婑":2177,"婓":2178,"婕":2179,"婗":2180,"婚":2181,"婞":2182,"婟":2183,"婠":2184,"婢":2185,"婦":2186,"婧":2187,"婪":2188,"婫":2189,"婭":2190,"婴":2191,"婷":2192,"婸":2193,"婹":2194,"婺":2195,"婻":2196,"婿":2197,"媁":2198,"媃":2199,"媄":2200,"媌":2201,"媏":2202,"媒":2203,"媓":2204,"媖":2205,"媗":2206,"媚":2207,"媛":2208,"媜":2209,"媞":2210,"媠":2211,"媧":2212,"媫":2213,"媬":2214,"媮":2215,"媲":2216,"媳":2217,"媴":2218,"媵":2219,"媺":2220,"媽":2221,"媾":2222,"嫁":2223,"嫂":2224,"嫃":2225,"嫄":2226,"嫆":2227,"嫈":2228,"嫉":2229,"嫋":2230,"嫌":2231,"嫏":2232,"嫑":2233,"嫕":2234,"嫖":2235,"嫗":2236,"嫘":2237,"嫙":2238,"嫚":2239,"嫡":2240,"嫣":2241,"嫥":2242,"嫦":2243,"嫩":2244,"嫪":2245,"嫫":2246,"嫰":2247,"嫲":2248,"嫴":2249,"嫵":2250,"嫺":2251,"嫻":2252,"嫿":2253,"嬁":2254,"嬂":2255,"嬅":2256,"嬈":2257,"嬉":2258,"嬋":2259,"嬌":2260,"嬏":2261,"嬗":2262,"嬙":2263,"嬛":2264,"嬝":2265,"嬡":2266,"嬢":2267,"嬣":2268,"嬤":2269,"嬥":2270,"嬨":2271,"嬪":2272,"嬬":2273,"嬭":2274,"嬰":2275,"嬲":2276,"嬴":2277,"嬷":2278,"嬸":2279,"嬿":2280,"孀":2281,"孃":2282,"孄":2283,"孅":2284,"孋":2285,"孌":2286,"孍":2287,"子":2288,"孑":2289,"孒":2290,"孓":2291,"孔":2292,"孕":2293,"孖":2294,"字":2295,"存":2296,"孙":2297,"孚":2298,"孛":2299,"孜":2300,"孝":2301,"孟":2302,"孢":2303,"季":2304,"孤":2305,"孥":2306,"学":2307,"孨":2308,"孩":2309,"孫":2310,"孬":2311,"孰":2312,"孱":2313,"孳":2314,"孵":2315,"孶":2316,"學":2317,"孺":2318,"孻":2319,"孼":2320,"孽":2321,"孿":2322,"宀":2323,"宁":2324,"它":2325,"宄":2326,"宅":2327,"宇":2328,"守":2329,"安":2330,"宊":2331,"宋":2332,"完":2333,"宍":2334,"宏":2335,"宓":2336,"宕":2337,"宗":2338,"官":2339,"宙":2340,"定":2341,"宛":2342,"宜":2343,"宝":2344,"实":2345,"実":2346,"宠":2347,"客":2348,"宣":2349,"室":2350,"宥":2351,"宦":2352,"宨":2353,"宩":2354,"宫":2355,"宬":2356,"宭":2357,"宮":2358,"宰":2359,"害":2360,"宴":2361,"宵":2362,"家":2363,"宸":2364,"容":2365,"宻":2366,"宽":2367,"宿":2368,"寀":2369,"寂":2370,"寃":2371,"寄":2372,"寅":2373,"密":2374,"寇":2375,"富":2376,"寐":2377,"寑":2378,"寒":2379,"寓":2380,"寔":2381,"寗":2382,"寙":2383,"寛":2384,"寜":2385,"寝":2386,"寞":2387,"察":2388,"寡":2389,"寢":2390,"寤":2391,"寥":2392,"實":2393,"寧":2394,"寨":2395,"審":2396,"寫":2397,"寬":2398,"寮":2399,"寯":2400,"寰":2401,"寳":2402,"寵":2403,"寶":2404,"寸":2405,"对":2406,"寺":2407,"寻":2408,"导":2409,"対":2410,"寿":2411,"封":2412,"専":2413,"尃":2414,"射":2415,"尅":2416,"将":2417,"將":2418,"專":2419,"尉":2420,"尊":2421,"尋":2422,"尌":2423,"對":2424,"導":2425,"小":2426,"尐":2427,"少":2428,"尔":2429,"尕":2430,"尖":2431,"尙":2432,"尚":2433,"尛":2434,"尞":2435,"尠":2436,"尢":2437,"尤":2438,"尪":2439,"尫":2440,"尬":2441,"就":2442,"尴":2443,"尶":2444,"尷":2445,"尸":2446,"尹":2447,"尺":2448,"尻":2449,"尼":2450,"尾":2451,"尿":2452,"局":2453,"屁":2454,"屄":2455,"居":2456,"屆":2457,"屈":2458,"届":2459,"屋":2460,"屌":2461,"屍":2462,"屎":2463,"屏":2464,"屐":2465,"屑":2466,"屒":2467,"展":2468,"屙":2469,"屛":2470,"屜":2471,"属":2472,"屠":2473,"屡":2474,"屢":2475,"屣":2476,"層":2477,"履":2478,"屨":2479,"屬":2480,"屭":2481,"屮":2482,"屯":2483,"山":2484,"屸":2485,"屹":2486,"屺":2487,"岀":2488,"岁":2489,"岈":2490,"岌":2491,"岍":2492,"岐":2493,"岑":2494,"岔":2495,"岕":2496,"岗":2497,"岘":2498,"岙":2499,"岚":2500,"岛":2501,"岜":2502,"岞":2503,"岠":2504,"岡":2505,"岢":2506,"岣":2507,"岥":2508,"岩":2509,"岫":2510,"岬":2511,"岭":2512,"岱":2513,"岳":2514,"岵":2515,"岷":2516,"岸":2517,"岺":2518,"岾":2519,"峁":2520,"峇":2521,"峋":2522,"峎":2523,"峒":2524,"峙":2525,"峟":2526,"峠":2527,"峡":2528,"峨":2529,"峩":2530,"峪":2531,"峭":2532,"峮":2533,"峯":2534,"峰":2535,"峱":2536,"峴":2537,"島":2538,"峻":2539,"峽":2540,"崁":2541,"崆":2542,"崇":2543,"崊":2544,"崌":2545,"崍":2546,"崎":2547,"崐":2548,"崑":2549,"崔":2550,"崖":2551,"崗":2552,"崙":2553,"崚":2554,"崛":2555,"崞":2556,"崟":2557,"崠":2558,"崢":2559,"崤":2560,"崧":2561,"崩":2562,"崮":2563,"崴":2564,"崵":2565,"崽":2566,"嵂":2567,"嵆":2568,"嵇":2569,"嵊":2570,"嵋":2571,"嵌":2572,"嵎":2573,"嵐":2574,"嵖":2575,"嵗":2576,"嵙":2577,"嵜":2578,"嵥":2579,"嵨":2580,"嵩":2581,"嵬":2582,"嵯":2583,"嵱":2584,"嵴":2585,"嵵":2586,"嵾":2587,"嵿":2588,"嶂":2589,"嶄":2590,"嶇":2591,"嶋":2592,"嶐":2593,"嶓":2594,"嶔":2595,"嶗":2596,"嶙":2597,"嶝":2598,"嶠":2599,"嶢":2600,"嶧":2601,"嶴":2602,"嶶":2603,"嶸":2604,"嶺":2605,"嶼":2606,"嶽":2607,"巁":2608,"巃":2609,"巄":2610,"巈":2611,"巉":2612,"巊":2613,"巌":2614,"巍":2615,"巒":2616,"巔":2617,"巖":2618,"巘":2619,"巜":2620,"川":2621,"州":2622,"巡":2623,"巢":2624,"巣":2625,"工":2626,"左":2627,"巧":2628,"巨":2629,"巫":2630,"巭":2631,"差":2632,"巰":2633,"己":2634,"已":2635,"巳":2636,"巴":2637,"巷":2638,"巹":2639,"巻":2640,"巽":2641,"巾":2642,"巿":2643,"帀":2644,"币":2645,"市":2646,"布":2647,"帄":2648,"帅":2649,"帆":2650,"师":2651,"希":2652,"帍":2653,"帑":2654,"帔":2655,"帕":2656,"帖":2657,"帘":2658,"帙":2659,"帚":2660,"帛":2661,"帝":2662,"帟":2663,"帥":2664,"带":2665,"師":2666,"席":2667,"帮":2668,"帯":2669,"帰":2670,"帳":2671,"帶":2672,"帷":2673,"常":2674,"帽":2675,"幀":2676,"幃":2677,"幄":2678,"幅":2679,"幆":2680,"幇":2681,"幈":2682,"幋":2683,"幌":2684,"幒":2685,"幔":2686,"幕":2687,"幗":2688,"幘":2689,"幚":2690,"幛":2691,"幟":2692,"幡":2693,"幢":2694,"幣":2695,"幤":2696,"幪":2697,"幫":2698,"干":2699,"平":2700,"年":2701,"并":2702,"幷":2703,"幸":2704,"幹":2705,"幺":2706,"幻":2707,"幼":2708,"幽":2709,"幾":2710,"广":2711,"庁":2712,"広":2713,"庄":2714,"庆":2715,"庇":2716,"床":2717,"庋":2718,"序":2719,"庒":2720,"库":2721,"应":2722,"底":2723,"庖":2724,"店":2725,"庚":2726,"庛":2727,"府":2728,"废":2729,"庠":2730,"庤":2731,"庥":2732,"度":2733,"座":2734,"庫":2735,"庭":2736,"庲":2737,"庳":2738,"庴":2739,"庵":2740,"庶":2741,"康":2742,"庸":2743,"庹":2744,"庾":2745,"廁":2746,"廂":2747,"廄":2748,"廈":2749,"廉":2750,"廊":2751,"廋":2752,"廌":2753,"廍":2754,"廏":2755,"廐":2756,"廓":2757,"廔":2758,"廖":2759,"廘":2760,"廚":2761,"廝":2762,"廟":2763,"廠":2764,"廡":2765,"廢":2766,"廣":2767,"廦":2768,"廨":2769,"廩":2770,"廬":2771,"廯":2772,"廰":2773,"廱":2774,"廳":2775,"廵":2776,"延":2777,"廷":2778,"廸":2779,"廹":2780,"建":2781,"廻":2782,"廼":2783,"廾":2784,"廿":2785,"开":2786,"弁":2787,"弃":2788,"弄":2789,"弇":2790,"弈":2791,"弊":2792,"弋":2793,"弌":2794,"式":2795,"弐":2796,"弑":2797,"弒":2798,"弓":2799,"弔":2800,"引":2801,"弖":2802,"弗":2803,"弘":2804,"弛":2805,"弟":2806,"张":2807,"弥":2808,"弦":2809,"弧":2810,"弩":2811,"弭":2812,"弱":2813,"張":2814,"強":2815,"弹":2816,"强":2817,"弼":2818,"弾":2819,"彅":2820,"彆":2821,"彈":2822,"彊":2823,"彌":2824,"彎":2825,"当":2826,"彔":2827,"录":2828,"彖":2829,"彗":2830,"彘":2831,"彙":2832,"彛":2833,"彜":2834,"彝":2835,"彞":2836,"彡":2837,"形":2838,"彣":2839,"彤":2840,"彥":2841,"彦":2842,"彧":2843,"彩":2844,"彪":2845,"彫":2846,"彬":2847,"彭":2848,"彰":2849,"影":2850,"彳":2851,"彵":2852,"彷":2853,"役":2854,"彺":2855,"彻":2856,"彼":2857,"彿":2858,"往":2859,"征":2860,"徂":2861,"径":2862,"待":2863,"徇":2864,"很":2865,"徉":2866,"徊":2867,"律":2868,"後":2869,"徍":2870,"徎":2871,"徏":2872,"徐":2873,"徑":2874,"徒":2875,"得":2876,"徘":2877,"徙":2878,"徛":2879,"徜":2880,"徝":2881,"從":2882,"徠":2883,"御":2884,"徣":2885,"徥":2886,"徦":2887,"徧":2888,"徨":2889,"復":2890,"循":2891,"徫":2892,"徬":2893,"微":2894,"徳":2895,"徴":2896,"徵":2897,"徶":2898,"德":2899,"徹":2900,"徽":2901,"心":2902,"忄":2903,"必":2904,"忆":2905,"忌":2906,"忍":2907,"忐":2908,"忑":2909,"忒":2910,"忕":2911,"忖":2912,"志":2913,"忘":2914,"忙":2915,"忚":2916,"応":2917,"忝":2918,"忞":2919,"忠":2920,"忡":2921,"忤":2922,"忧":2923,"忪":2924,"快":2925,"忮":2926,"忱":2927,"忴":2928,"念":2929,"忸":2930,"忻":2931,"忼":2932,"忽":2933,"忿":2934,"态":2935,"怍":2936,"怎":2937,"怏":2938,"怒":2939,"怔":2940,"怕":2941,"怖":2942,"怗":2943,"怘":2944,"怙":2945,"怛":2946,"怜":2947,"思":2948,"怟":2949,"怠":2950,"怡":2951,"急":2952,"怦":2953,"性":2954,"怨":2955,"怩":2956,"怪":2957,"怯":2958,"怳":2959,"怵":2960,"怹":2961,"恁":2962,"恃":2963,"恆":2964,"恊":2965,"恋":2966,"恌":2967,"恍":2968,"恏":2969,"恐":2970,"恒":2971,"恕":2972,"恘":2973,"恙":2974,"恚":2975,"恢":2976,"恣":2977,"恤":2978,"恥":2979,"恧":2980,"恨":2981,"恩":2982,"恪":2983,"恫":2984,"恬":2985,"恭":2986,"恮":2987,"息":2988,"恰":2989,"恵":2990,"恶":2991,"恻":2992,"恾":2993,"恿":2994,"悃":2995,"悄":2996,"悅":2997,"悈":2998,"悉":2999,"悊":3000,"悌":3001,"悍":3002,"悏":3003,"悒":3004,"悔":3005,"悖":3006,"悚":3007,"悛":3008,"悞":3009,"悟":3010,"悠":3011,"悢":3012,"患":3013,"悦":3014,"悧":3015,"您":3016,"悩":3017,"悪":3018,"悰":3019,"悱":3020,"悲":3021,"悳":3022,"悴":3023,"悵":3024,"悶":3025,"悸":3026,"悻":3027,"悼":3028,"悽":3029,"情":3030,"惆":3031,"惇":3032,"惊":3033,"惋":3034,"惑":3035,"惕":3036,"惘":3037,"惚":3038,"惜":3039,"惟":3040,"惠":3041,"惡":3042,"惢":3043,"惣":3044,"惦":3045,"惧":3046,"惨":3047,"惩":3048,"惮":3049,"惰":3050,"惱":3051,"惲":3052,"想":3053,"惴":3054,"惶":3055,"惹":3056,"惺":3057,"惻":3058,"惼":3059,"愁":3060,"愃":3061,"愆":3062,"愈":3063,"愉":3064,"愍":3065,"愎":3066,"意":3067,"愓":3068,"愕":3069,"愖":3070,"愗":3071,"愘":3072,"愚":3073,"愛":3074,"愜":3075,"感":3076,"愣":3077,"愤":3078,"愧":3079,"愨":3080,"愫":3081,"愰":3082,"愴":3083,"愷":3084,"愼":3085,"愽":3086,"愾":3087,"愿":3088,"慄":3089,"慇":3090,"慈":3091,"慉":3092,"態":3093,"慌":3094,"慍":3095,"慎":3096,"慑":3097,"慓":3098,"慕":3099,"慘":3100,"慚":3101,"慛":3102,"慜":3103,"慟":3104,"慢":3105,"慣":3106,"慤":3107,"慧":3108,"慨":3109,"慪":3110,"慫":3111,"慬":3112,"慮":3113,"慯":3114,"慰":3115,"慱":3116,"慲":3117,"慳":3118,"慵":3119,"慶":3120,"慷":3121,"慼":3122,"慾":3123,"慿":3124,"憂":3125,"憄":3126,"憇":3127,"憊":3128,"憋":3129,"憎":3130,"憐":3131,"憑":3132,"憒":3133,"憓":3134,"憔":3135,"憙":3136,"憚":3137,"憤":3138,"憧":3139,"憨":3140,"憩":3141,"憫":3142,"憬":3143,"憮":3144,"憲":3145,"憶":3146,"憾":3147,"懂":3148,"懃":3149,"懅":3150,"懆":3151,"懇":3152,"懈":3153,"應":3154,"懊":3155,"懋":3156,"懌":3157,"懍":3158,"懐":3159,"懒":3160,"懝":3161,"懞":3162,"懟":3163,"懣":3164,"懦":3165,"懨":3166,"懮":3167,"懲":3168,"懵":3169,"懶":3170,"懷":3171,"懸":3172,"懹":3173,"懺":3174,"懼":3175,"懽":3176,"懾":3177,"懿":3178,"戀":3179,"戇":3180,"戈":3181,"戊":3182,"戌":3183,"戍":3184,"戎":3185,"成":3186,"我":3187,"戒":3188,"戓":3189,"戔":3190,"戕":3191,"或":3192,"战":3193,"戚":3194,"戛":3195,"戟":3196,"戡":3197,"戢":3198,"戦":3199,"戧":3200,"戩":3201,"截":3202,"戫":3203,"戮":3204,"戯":3205,"戰":3206,"戱":3207,"戲":3208,"戳":3209,"戴":3210,"戶":3211,"户":3212,"戸":3213,"戻":3214,"戽":3215,"戾":3216,"房":3217,"所":3218,"扁":3219,"扃":3220,"扆":3221,"扇":3222,"扈":3223,"扉":3224,"手":3225,"扌":3226,"才":3227,"扎":3228,"扑":3229,"扒":3230,"打":3231,"扔":3232,"払":3233,"托":3234,"扙":3235,"扛":3236,"扜":3237,"扞":3238,"扠":3239,"扡":3240,"扣":3241,"扥":3242,"扦":3243,"执":3244,"扭":3245,"扮":3246,"扯":3247,"扰":3248,"扱":3249,"扳":3250,"扶":3251,"扷":3252,"批":3253,"扺":3254,"扼":3255,"找":3256,"承":3257,"技":3258,"抄":3259,"抅":3260,"抆":3261,"抉":3262,"把":3263,"抍":3264,"抐":3265,"抑":3266,"抒":3267,"抓":3268,"抔":3269,"投":3270,"抖":3271,"抗":3272,"折":3273,"抛":3274,"抜":3275,"抝":3276,"択":3277,"护":3278,"报":3279,"抨":3280,"披":3281,"抬":3282,"抯":3283,"抱":3284,"抲":3285,"抵":3286,"抶":3287,"抹":3288,"抺":3289,"抻":3290,"押":3291,"抽":3292,"抿":3293,"拂":3294,"拃":3295,"拄":3296,"担":3297,"拆":3298,"拇":3299,"拈":3300,"拉":3301,"拋":3302,"拌":3303,"拍":3304,"拎":3305,"拏":3306,"拐":3307,"拑":3308,"拒":3309,"拓":3310,"拔":3311,"拖":3312,"拗":3313,"拘":3314,"拙":3315,"拚":3316,"招":3317,"拜":3318,"拝":3319,"拠":3320,"拡":3321,"括":3322,"拭":3323,"拮":3324,"拯":3325,"拰":3326,"拱":3327,"拳":3328,"拴":3329,"拶":3330,"拷":3331,"拼":3332,"拽":3333,"拾":3334,"拿":3335,"挀":3336,"持":3337,"挂":3338,"指":3339,"挈":3340,"按":3341,"挊":3342,"挎":3343,"挐":3344,"挑":3345,"挖":3346,"挙":3347,"挚":3348,"挟":3349,"挡":3350,"挣":3351,"挥":3352,"挨":3353,"挪":3354,"挫":3355,"挮":3356,"振":3357,"挲":3358,"挵":3359,"挷":3360,"挹":3361,"挺":3362,"挼":3363,"挽":3364,"挾":3365,"挿":3366,"捂":3367,"捅":3368,"捆":3369,"捉":3370,"捋":3371,"捌":3372,"捍":3373,"捎":3374,"捏":3375,"捐":3376,"捕":3377,"捗":3378,"捘":3379,"捜":3380,"捞":3381,"损":3382,"换":3383,"捣":3384,"捥":3385,"捧":3386,"捨":3387,"捩":3388,"捫":3389,"捭":3390,"据":3391,"捯":3392,"捱":3393,"捲":3394,"捶":3395,"捷":3396,"捺":3397,"捻":3398,"捽":3399,"捾":3400,"掀":3401,"掂":3402,"掃":3403,"掄":3404,"掇":3405,"授":3406,"掉":3407,"掌":3408,"掏":3409,"掐":3410,"排":3411,"掖":3412,"掘":3413,"掙":3414,"掛":3415,"掟":3416,"掠":3417,"採":3418,"探":3419,"掣":3420,"接":3421,"掦":3422,"控":3423,"推":3424,"掩":3425,"措":3426,"掬":3427,"掮":3428,"掯":3429,"掰":3430,"掱":3431,"掲":3432,"掳":3433,"掴":3434,"掷":3435,"掺":3436,"掻":3437,"掿":3438,"揀":3439,"揃":3440,"揄":3441,"揆":3442,"揉":3443,"揍":3444,"描":3445,"提":3446,"揑":3447,"插":3448,"揔":3449,"揖":3450,"揚":3451,"換":3452,"揠":3453,"握":3454,"揢":3455,"揣":3456,"揩":3457,"揪":3458,"揬":3459,"揭":3460,"揮":3461,"揰":3462,"援":3463,"揶":3464,"揷":3465,"揸":3466,"揹":3467,"揺":3468,"搂":3469,"搆":3470,"搈":3471,"搋":3472,"損":3473,"搏":3474,"搐":3475,"搓":3476,"搔":3477,"搖":3478,"搗":3479,"搘":3480,"搜":3481,"搞":3482,"搟":3483,"搡":3484,"搣":3485,"搥":3486,"搧":3487,"搪":3488,"搬":3489,"搭":3490,"搯":3491,"搴":3492,"搵":3493,"搶":3494,"携":3495,"搽":3496,"搾":3497,"搿":3498,"摀":3499,"摁":3500,"摃":3501,"摄":3502,"摆":3503,"摇":3504,"摋":3505,"摏":3506,"摑":3507,"摒":3508,"摔":3509,"摖":3510,"摘":3511,"摛":3512,"摜":3513,"摞":3514,"摟":3515,"摡":3516,"摧":3517,"摩":3518,"摬":3519,"摭":3520,"摯":3521,"摰":3522,"摳":3523,"摵":3524,"摶":3525,"摸":3526,"摹":3527,"摺":3528,"摻":3529,"摽":3530,"摿":3531,"撀":3532,"撂":3533,"撃":3534,"撅":3535,"撆":3536,"撇":3537,"撈":3538,"撋":3539,"撐":3540,"撑":3541,"撒":3542,"撓":3543,"撕":3544,"撖":3545,"撗":3546,"撘":3547,"撙":3548,"撚":3549,"撞":3550,"撢":3551,"撣":3552,"撤":3553,"撥":3554,"撩":3555,"撫":3556,"撬":3557,"播":3558,"撮":3559,"撰":3560,"撲":3561,"撵":3562,"撸":3563,"撻":3564,"撼":3565,"撾":3566,"撿":3567,"擀":3568,"擁":3569,"擂":3570,"擃":3571,"擄":3572,"擅":3573,"擇":3574,"擉":3575,"擊":3576,"擋":3577,"操":3578,"擎":3579,"擒":3580,"擔":3581,"擕":3582,"擘":3583,"據":3584,"擠":3585,"擡":3586,"擢":3587,"擣":3588,"擤":3589,"擦":3590,"擧":3591,"擫":3592,"擬":3593,"擭":3594,"擯":3595,"擰":3596,"擱":3597,"擲":3598,"擴":3599,"擷":3600,"擸":3601,"擺":3602,"擻":3603,"擼":3604,"擾":3605,"攀":3606,"攄":3607,"攅":3608,"攆":3609,"攋":3610,"攏":3611,"攑":3612,"攒":3613,"攔":3614,"攖":3615,"攘":3616,"攙":3617,"攛":3618,"攜":3619,"攝":3620,"攞":3621,"攡":3622,"攢":3623,"攣":3624,"攤":3625,"攥":3626,"攩":3627,"攪":3628,"攫":3629,"攬":3630,"攮":3631,"支":3632,"收":3633,"攷":3634,"攸":3635,"改":3636,"攺":3637,"攻":3638,"放":3639,"政":3640,"敃":3641,"故":3642,"敇":3643,"效":3644,"敉":3645,"敍":3646,"敎":3647,"敏":3648,"救":3649,"敕":3650,"敖":3651,"敗":3652,"敘":3653,"教":3654,"敝":3655,"敞":3656,"敢":3657,"散":3658,"敦":3659,"敬":3660,"数":3661,"敲":3662,"敳":3663,"整":3664,"敵":3665,"敷":3666,"數":3667,"敻":3668,"斂":3669,"斃":3670,"文":3671,"斈":3672,"斉":3673,"斌":3674,"斎":3675,"斐":3676,"斑":3677,"斕":3678,"斖":3679,"斗":3680,"料":3681,"斛":3682,"斜":3683,"斝":3684,"斟":3685,"斡":3686,"斤":3687,"斥":3688,"斦":3689,"斧":3690,"斬":3691,"断":3692,"斯":3693,"新":3694,"斲":3695,"斵":3696,"斷":3697,"方":3698,"於":3699,"施":3700,"斾":3701,"旁":3702,"旂":3703,"旃":3704,"旅":3705,"旋":3706,"旌":3707,"旎":3708,"族":3709,"旒":3710,"旖":3711,"旗":3712,"旛":3713,"无":3714,"既":3715,"旣":3716,"日":3717,"旦":3718,"旧":3719,"旨":3720,"早":3721,"旬":3722,"旭":3723,"旮":3724,"旯":3725,"旰":3726,"旱":3727,"旲":3728,"旳":3729,"旴":3730,"时":3731,"旷":3732,"旺":3733,"旻":3734,"旼":3735,"旿":3736,"昀":3737,"昂":3738,"昆":3739,"昇":3740,"昉":3741,"昊":3742,"昌":3743,"昍":3744,"明":3745,"昏":3746,"昐":3747,"易":3748,"昔":3749,"昕":3750,"昜":3751,"昝":3752,"星":3753,"映":3754,"昡":3755,"昢":3756,"昤":3757,"春":3758,"昧":3759,"昨":3760,"昩":3761,"昫":3762,"昭":3763,"是":3764,"昰":3765,"昱":3766,"昴":3767,"昵":3768,"昶":3769,"昷":3770,"昹":3771,"昺":3772,"昻":3773,"昼":3774,"晀":3775,"晁":3776,"時":3777,"晃":3778,"晄":3779,"晅":3780,"晉":3781,"晋":3782,"晌":3783,"晏":3784,"晒":3785,"晕":3786,"晗":3787,"晙":3788,"晚":3789,"晜":3790,"晝":3791,"晞":3792,"晟":3793,"晡":3794,"晢":3795,"晣":3796,"晤":3797,"晦":3798,"晧":3799,"晨":3800,"晩":3801,"晫":3802,"晬":3803,"普":3804,"景":3805,"晰":3806,"晳":3807,"晴":3808,"晶":3809,"晷":3810,"晸":3811,"晹":3812,"智":3813,"晾":3814,"暁":3815,"暂":3816,"暃":3817,"暄":3818,"暇":3819,"暈":3820,"暉":3821,"暋":3822,"暌":3823,"暍":3824,"暎":3825,"暏":3826,"暐":3827,"暑":3828,"暖":3829,"暗":3830,"暘":3831,"暜":3832,"暝":3833,"暟":3834,"暢":3835,"暤":3836,"暦":3837,"暧":3838,"暨":3839,"暪":3840,"暫":3841,"暮":3842,"暯":3843,"暱":3844,"暴":3845,"暸":3846,"暹":3847,"暺":3848,"暻":3849,"暾":3850,"暿":3851,"曁":3852,"曄":3853,"曆":3854,"曇":3855,"曈":3856,"曉":3857,"曌":3858,"曕":3859,"曖":3860,"曙":3861,"曚":3862,"曜":3863,"曝":3864,"曠":3865,"曡":3866,"曦":3867,"曨":3868,"曩":3869,"曬":3870,"曯":3871,"曰":3872,"曱":3873,"曲":3874,"曳":3875,"更":3876,"曵":3877,"曶":3878,"書":3879,"曹":3880,"曺":3881,"曼":3882,"曽":3883,"曾":3884,"替":3885,"最":3886,"會":3887,"月":3888,"有":3889,"朊":3890,"朋":3891,"朌":3892,"服":3893,"朐":3894,"朓":3895,"朔":3896,"朕":3897,"朗":3898,"朙":3899,"望":3900,"朝":3901,"期":3902,"朢":3903,"朣":3904,"朤":3905,"朥":3906,"朦":3907,"朧":3908,"木":3909,"未":3910,"末":3911,"本":3912,"札":3913,"朮":3914,"术":3915,"朱":3916,"朴":3917,"朵":3918,"朶":3919,"机":3920,"朼":3921,"朽":3922,"朾":3923,"杂":3924,"权":3925,"杆":3926,"杇":3927,"杈":3928,"杉":3929,"杋":3930,"杌":3931,"李":3932,"杏":3933,"材":3934,"村":3935,"杓":3936,"杕":3937,"杖":3938,"杙":3939,"杜":3940,"杞":3941,"束":3942,"杠":3943,"条":3944,"杢":3945,"来":3946,"杪":3947,"杭":3948,"杮":3949,"杯":3950,"杰":3951,"東":3952,"杲":3953,"杳":3954,"杵":3955,"杷":3956,"杻":3957,"杼":3958,"松":3959,"板":3960,"极":3961,"构":3962,"枆":3963,"枇":3964,"枉":3965,"枊":3966,"枋":3967,"析":3968,"枒":3969,"枓":3970,"枕":3971,"林":3972,"枚":3973,"果":3974,"枝":3975,"枠":3976,"枡":3977,"枢":3978,"枥":3979,"枯":3980,"枰":3981,"枱":3982,"枳":3983,"枴":3984,"架":3985,"枷":3986,"枸":3987,"枹":3988,"枺":3989,"枻":3990,"柀":3991,"柁":3992,"柃":3993,"柄":3994,"柆":3995,"柇":3996,"柊":3997,"柏":3998,"某":3999,"柑":4000,"柒":4001,"染":4002,"柔":4003,"柘":4004,"柙":4005,"柚":4006,"柠":4007,"柢":4008,"柤":4009,"查":4010,"柩":4011,"柪":4012,"柬":4013,"柯":4014,"柰":4015,"柱":4016,"柲":4017,"柳":4018,"柴":4019,"柵":4020,"柶":4021,"柸":4022,"柺":4023,"査":4024,"柾":4025,"柿":4026,"栁":4027,"栃":4028,"栄":4029,"栅":4030,"标":4031,"栐":4032,"树":4033,"栓":4034,"栖":4035,"栗":4036,"栝":4037,"栞":4038,"栟":4039,"校":4040,"栢":4041,"栥":4042,"栧":4043,"栩":4044,"株":4045,"栫":4046,"栭":4047,"栮":4048,"栯":4049,"栱":4050,"栲":4051,"栳":4052,"栴":4053,"样":4054,"核":4055,"根":4056,"栻":4057,"格":4058,"栽":4059,"桀":4060,"桁":4061,"桂":4062,"桃":4063,"桄":4064,"桅":4065,"框":4066,"桇":4067,"案":4068,"桉":4069,"桌":4070,"桎":4071,"桐":4072,"桑":4073,"桓":4074,"桔":4075,"桕":4076,"桖":4077,"桜":4078,"桝":4079,"桟":4080,"桩":4081,"桫":4082,"桮":4083,"桰":4084,"桲":4085,"桴":4086,"桶":4087,"桷":4088,"桹":4089,"桻":4090,"桿":4091,"梁":4092,"梃":4093,"梅":4094,"梆":4095,"梏":4096,"梓":4097,"梔":4098,"梖":4099,"梗":4100,"梘":4101,"條":4102,"梟":4103,"梠":4104,"梢":4105,"梣":4106,"梧":4107,"梨":4108,"梩":4109,"梫":4110,"梭":4111,"梯":4112,"械":4113,"梱":4114,"梳":4115,"梵":4116,"梶":4117,"棄":4118,"棅":4119,"棉":4120,"棊":4121,"棋":4122,"棍":4123,"棏":4124,"棑":4125,"棒":4126,"棓":4127,"棕":4128,"棖":4129,"棗":4130,"棘":4131,"棚":4132,"棛":4133,"棟":4134,"棠":4135,"棣":4136,"棧":4137,"棨":4138,"棬":4139,"森":4140,"棰":4141,"棱":4142,"棲":4143,"棵":4144,"棷":4145,"棹":4146,"棺":4147,"棻":4148,"棼":4149,"棽":4150,"椀":4151,"椁":4152,"椅":4153,"椇":4154,"椋":4155,"植":4156,"椎":4157,"椏":4158,"椒":4159,"椘":4160,"椙":4161,"椚":4162,"椛":4163,"検":4164,"椪":4165,"椬":4166,"椰":4167,"椲":4168,"椴":4169,"椵":4170,"椷":4171,"椹":4172,"椼":4173,"椽":4174,"椿":4175,"楀":4176,"楂":4177,"楅":4178,"楊":4179,"楍":4180,"楏":4181,"楓":4182,"楔":4183,"楕":4184,"楗":4185,"楙":4186,"楚":4187,"楜":4188,"楝":4189,"楞":4190,"楟":4191,"楠":4192,"楡":4193,"楢":4194,"楣":4195,"楦":4196,"楧":4197,"楨":4198,"楪":4199,"楫":4200,"業":4201,"楮":4202,"楯":4203,"楳":4204,"極":4205,"楶":4206,"楷":4207,"楸":4208,"楹":4209,"楺":4210,"楻":4211,"楼":4212,"楽":4213,"楿":4214,"概":4215,"榅":4216,"榆":4217,"榊":4218,"榎":4219,"榑":4220,"榔":4221,"榕":4222,"榖":4223,"榙":4224,"榚":4225,"榛":4226,"榜":4227,"榢":4228,"榤":4229,"榥":4230,"榧":4231,"榨":4232,"榫":4233,"榭":4234,"榮":4235,"榱":4236,"榲":4237,"榳":4238,"榴":4239,"榶":4240,"榷":4241,"榻":4242,"槁":4243,"槃":4244,"槅":4245,"槇":4246,"槊":4247,"構":4248,"槌":4249,"槍":4250,"槎":4251,"槐":4252,"槑":4253,"槓":4254,"槕":4255,"槖":4256,"様":4257,"槙":4258,"槡":4259,"槤":4260,"槦":4261,"槨":4262,"槪":4263,"槭":4264,"槮":4265,"槲":4266,"槳":4267,"槴":4268,"槶":4269,"槺":4270,"槻":4271,"槽":4272,"槿":4273,"樁":4274,"樂":4275,"樅":4276,"樆":4277,"樊":4278,"樋":4279,"樌":4280,"樑":4281,"樓":4282,"樔":4283,"樗":4284,"樘":4285,"標":4286,"樞":4287,"樟":4288,"模":4289,"樣":4290,"樧":4291,"樨":4292,"権":4293,"横":4294,"樫":4295,"樱":4296,"樵":4297,"樸":4298,"樹":4299,"樺":4300,"樽":4301,"樾":4302,"橄":4303,"橇":4304,"橈":4305,"橋":4306,"橏":4307,"橐":4308,"橒":4309,"橕":4310,"橖":4311,"橘":4312,"橙":4313,"橝":4314,"橞":4315,"機":4316,"橡":4317,"橢":4318,"橦":4319,"橫":4320,"橱":4321,"橼":4322,"橾":4323,"橿":4324,"檀":4325,"檁":4326,"檄":4327,"檉":4328,"檍":4329,"檎":4330,"檐":4331,"檔":4332,"檗":4333,"檜":4334,"檞":4335,"檠":4336,"檢":4337,"檨":4338,"檫":4339,"檬":4340,"檮":4341,"檯":4342,"檳":4343,"檵":4344,"檸":4345,"檺":4346,"檻":4347,"檼":4348,"櫂":4349,"櫃":4350,"櫆":4351,"櫈":4352,"櫐":4353,"櫓":4354,"櫔":4355,"櫗":4356,"櫚":4357,"櫛":4358,"櫝":4359,"櫞":4360,"櫟":4361,"櫣":4362,"櫥":4363,"櫨":4364,"櫪":4365,"櫫":4366,"櫬":4367,"櫳":4368,"櫸":4369,"櫺":4370,"櫻":4371,"欄":4372,"欅":4373,"欉":4374,"權":4375,"欏":4376,"欐":4377,"欒":4378,"欖":4379,"欗":4380,"欞":4381,"欠":4382,"次":4383,"欢":4384,"欣":4385,"欥":4386,"欧":4387,"欲":4388,"欵":4389,"欶":4390,"欷":4391,"欸":4392,"欹":4393,"欺":4394,"欻":4395,"欽":4396,"款":4397,"歀":4398,"歃":4399,"歆":4400,"歇":4401,"歉":4402,"歊":4403,"歌":4404,"歎":4405,"歐":4406,"歒":4407,"歓":4408,"歔":4409,"歕":4410,"歙":4411,"歛":4412,"歟":4413,"歡":4414,"止":4415,"正":4416,"此":4417,"步":4418,"武":4419,"歧":4420,"歨":4421,"歩":4422,"歪":4423,"歭":4424,"歮":4425,"歯":4426,"歲":4427,"歳":4428,"歴":4429,"歷":4430,"歸":4431,"歹":4432,"歺":4433,"死":4434,"歼":4435,"歿":4436,"殁":4437,"殂":4438,"殃":4439,"殄":4440,"殆":4441,"殉":4442,"殊":4443,"残":4444,"殍":4445,"殖":4446,"殘":4447,"殛":4448,"殞":4449,"殤":4450,"殫":4451,"殭":4452,"殮":4453,"殯":4454,"殲":4455,"段":4456,"殷":4457,"殺":4458,"殻":4459,"殼":4460,"殽":4461,"殿":4462,"毀":4463,"毁":4464,"毂":4465,"毃":4466,"毅":4467,"毆":4468,"毊":4469,"毋":4470,"母":4471,"毎":4472,"每":4473,"毐":4474,"毑":4475,"毒":4476,"毓":4477,"比":4478,"毖":4479,"毗":4480,"毘":4481,"毙":4482,"毛":4483,"毝":4484,"毧":4485,"毫":4486,"毬":4487,"毯":4488,"毳":4489,"毸":4490,"毽":4491,"氂":4492,"氈":4493,"氊":4494,"氏":4495,"氐":4496,"民":4497,"氓":4498,"气":4499,"氖":4500,"気":4501,"氘":4502,"氙":4503,"氚":4504,"氛":4505,"氟":4506,"氡":4507,"氣":4508,"氤":4509,"氦":4510,"氧":4511,"氨":4512,"氪":4513,"氫":4514,"氬":4515,"氮":4516,"氯":4517,"氰":4518,"氳":4519,"水":4520,"氵":4521,"氶":4522,"氷":4523,"永":4524,"氹":4525,"氼":4526,"氽":4527,"氾":4528,"汀":4529,"汁":4530,"求":4531,"汅":4532,"汆":4533,"汇":4534,"汈":4535,"汉":4536,"汊":4537,"汎":4538,"汏":4539,"汐":4540,"汑":4541,"汓":4542,"汔":4543,"汕":4544,"汗":4545,"汘":4546,"汙":4547,"汚":4548,"汛":4549,"汜":4550,"汝":4551,"汞":4552,"江":4553,"池":4554,"污":4555,"汧":4556,"汨":4557,"汩":4558,"汪":4559,"汫":4560,"汯":4561,"汰":4562,"汱":4563,"汲":4564,"汴":4565,"汶":4566,"汹":4567,"決":4568,"汽":4569,"汾":4570,"沁":4571,"沂":4572,"沃":4573,"沄":4574,"沅":4575,"沆":4576,"沇":4577,"沈":4578,"沉":4579,"沌":4580,"沏":4581,"沐":4582,"沒":4583,"沓":4584,"沔":4585,"沕":4586,"沖":4587,"沙":4588,"沚":4589,"沛":4590,"沝":4591,"沟":4592,"没":4593,"沢":4594,"沫":4595,"沬":4596,"沭":4597,"沮":4598,"沯":4599,"沰":4600,"沱":4601,"河":4602,"沶":4603,"沸":4604,"油":4605,"沺":4606,"治":4607,"沼":4608,"沽":4609,"沾":4610,"沿":4611,"況":4612,"泂":4613,"泄":4614,"泅":4615,"泆":4616,"泇":4617,"泉":4618,"泊":4619,"泌":4620,"泓":4621,"泔":4622,"法":4623,"泗":4624,"泘":4625,"泛":4626,"泝":4627,"泟":4628,"泠":4629,"泡":4630,"波":4631,"泣":4632,"泤":4633,"泥":4634,"注":4635,"泪":4636,"泫":4637,"泮":4638,"泯":4639,"泰":4640,"泱":4641,"泳":4642,"泵":4643,"泷":4644,"泹":4645,"泿":4646,"洁":4647,"洄":4648,"洋":4649,"洌":4650,"洐":4651,"洑":4652,"洒":4653,"洗":4654,"洙":4655,"洛":4656,"洞":4657,"洢":4658,"津":4659,"洧":4660,"洨":4661,"洩":4662,"洪":4663,"洮":4664,"洱":4665,"洲":4666,"洳":4667,"洵":4668,"洶":4669,"洸":4670,"洹":4671,"洺":4672,"活":4673,"洼":4674,"洽":4675,"派":4676,"洿":4677,"流":4678,"浄":4679,"浅":4680,"浆":4681,"测":4682,"济":4683,"浙":4684,"浚":4685,"浜":4686,"浠":4687,"浡":4688,"浣":4689,"浤":4690,"浥":4691,"浦":4692,"浧":4693,"浩":4694,"浪":4695,"浬":4696,"浮":4697,"浯":4698,"浱":4699,"浴":4700,"海":4701,"浸":4702,"浹":4703,"浺":4704,"浼":4705,"浿":4706,"涀":4707,"涂":4708,"涅":4709,"涇":4710,"消":4711,"涉":4712,"涌":4713,"涎":4714,"涏":4715,"涑":4716,"涓":4717,"涔":4718,"涕":4719,"涙":4720,"涛":4721,"涨":4722,"涪":4723,"涮":4724,"涯":4725,"液":4726,"涳":4727,"涴":4728,"涵":4729,"涶":4730,"涷":4731,"涸":4732,"涼":4733,"涿":4734,"淀":4735,"淂":4736,"淄":4737,"淅":4738,"淆":4739,"淇":4740,"淊":4741,"淋":4742,"淌":4743,"淍":4744,"淏":4745,"淐":4746,"淑":4747,"淒":4748,"淖":4749,"淘":4750,"淙":4751,"淚":4752,"淝":4753,"淞":4754,"淟":4755,"淡":4756,"淣":4757,"淤":4758,"淥":4759,"淦":4760,"淨":4761,"淩":4762,"淪":4763,"淫":4764,"淬":4765,"淮":4766,"淯":4767,"淰":4768,"深":4769,"淳":4770,"淵":4771,"淶":4772,"混":4773,"淸":4774,"淹":4775,"淺":4776,"添":4777,"淼":4778,"淽":4779,"渂":4780,"清":4781,"渆":4782,"渇":4783,"済":4784,"渉":4785,"渊":4786,"渋":4787,"渍":4788,"渐":4789,"渓":4790,"渔":4791,"渕":4792,"渖":4793,"渗":4794,"渙":4795,"渚":4796,"減":4797,"渝":4798,"渟":4799,"渠":4800,"渡":4801,"渢":4802,"渣":4803,"渤":4804,"渥":4805,"渦":4806,"渧":4807,"温":4808,"渫":4809,"測":4810,"渭":4811,"港":4812,"渲":4813,"渳":4814,"渴":4815,"渶":4816,"游":4817,"渺":4818,"渼":4819,"渾":4820,"湁":4821,"湃":4822,"湄":4823,"湅":4824,"湉":4825,"湊":4826,"湋":4827,"湍":4828,"湎":4829,"湏":4830,"湔":4831,"湖":4832,"湘":4833,"湙":4834,"湛":4835,"湜":4836,"湞":4837,"湟":4838,"湣":4839,"湦":4840,"湧":4841,"湫":4842,"湮":4843,"湯":4844,"湲":4845,"湳":4846,"湶":4847,"湼":4848,"湾":4849,"湿":4850,"満":4851,"溈":4852,"溉":4853,"溏":4854,"源":4855,"溓":4856,"準":4857,"溘":4858,"溜":4859,"溝":4860,"溟":4861,"溢":4862,"溥":4863,"溦":4864,"溧":4865,"溪":4866,"溫":4867,"溮":4868,"溯":4869,"溱":4870,"溲":4871,"溴":4872,"溵":4873,"溶":4874,"溺":4875,"溼":4876,"溽":4877,"滁":4878,"滂":4879,"滄":4880,"滅":4881,"滆":4882,"滇":4883,"滉":4884,"滋":4885,"滌":4886,"滎":4887,"滐":4888,"滑":4889,"滓":4890,"滔":4891,"滕":4892,"滖":4893,"滘":4894,"滙":4895,"滚":4896,"滝":4897,"滞":4898,"满":4899,"滨":4900,"滫":4901,"滬":4902,"滭":4903,"滯":4904,"滲":4905,"滳":4906,"滴":4907,"滷":4908,"滸":4909,"滻":4910,"滾":4911,"滿":4912,"漁":4913,"漂":4914,"漆":4915,"漈":4916,"漉":4917,"漋":4918,"漏":4919,"漑":4920,"漓":4921,"演":4922,"漕":4923,"漙":4924,"漚":4925,"漟":4926,"漠":4927,"漢":4928,"漣":4929,"漥":4930,"漧":4931,"漩":4932,"漪":4933,"漫":4934,"漬":4935,"漭":4936,"漯":4937,"漱":4938,"漲":4939,"漳":4940,"漵":4941,"漶":4942,"漸":4943,"漹":4944,"漾":4945,"漿":4946,"潁":4947,"潄":4948,"潌":4949,"潏":4950,"潑":4951,"潓":4952,"潔":4953,"潗":4954,"潘":4955,"潙":4956,"潚":4957,"潛":4958,"潜":4959,"潞":4960,"潟":4961,"潠":4962,"潢":4963,"潣":4964,"潤":4965,"潦":4966,"潭":4967,"潮":4968,"潯":4969,"潰":4970,"潵":4971,"潶":4972,"潸":4973,"潺":4974,"潻":4975,"潼":4976,"潽":4977,"潾":4978,"潿":4979,"澀":4980,"澁":4981,"澂":4982,"澃":4983,"澄":4984,"澆":4985,"澇":4986,"澈":4987,"澌":4988,"澍":4989,"澎":4990,"澐":4991,"澓":4992,"澔":4993,"澕":4994,"澗":4995,"澟":4996,"澠":4997,"澡":4998,"澤":4999,"澥":5000,"澧":5001,"澪":5002,"澯":5003,"澱":5004,"澳":5005,"澴":5006,"澶":5007,"澹":5008,"澺":5009,"激":5010,"濁":5011,"濂":5012,"濃":5013,"濄":5014,"濆":5015,"濑":5016,"濒":5017,"濓":5018,"濔":5019,"濕":5020,"濘":5021,"濛":5022,"濞":5023,"濟":5024,"濠":5025,"濡":5026,"濤":5027,"濪":5028,"濫":5029,"濬":5030,"濮":5031,"濯":5032,"濰":5033,"濱":5034,"濳":5035,"濵":5036,"濶":5037,"濺":5038,"濼":5039,"濾":5040,"瀁":5041,"瀅":5042,"瀆":5043,"瀉":5044,"瀋":5045,"瀌":5046,"瀍":5047,"瀏":5048,"瀑":5049,"瀕":5050,"瀗":5051,"瀘":5052,"瀙":5053,"瀚":5054,"瀛":5055,"瀜":5056,"瀝":5057,"瀞":5058,"瀟":5059,"瀠":5060,"瀡":5061,"瀢":5062,"瀣":5063,"瀤":5064,"瀦":5065,"瀧":5066,"瀨":5067,"瀬":5068,"瀰":5069,"瀲":5070,"瀼":5071,"瀾":5072,"灀":5073,"灃":5074,"灄":5075,"灆":5076,"灋":5077,"灌":5078,"灑":5079,"灒":5080,"灕":5081,"灘":5082,"灜":5083,"灝":5084,"灞":5085,"灠":5086,"灡":5087,"灣":5088,"灤":5089,"灦":5090,"灧":5091,"灩":5092,"火":5093,"灬":5094,"灯":5095,"灰":5096,"灴":5097,"灵":5098,"灶":5099,"灸":5100,"灼":5101,"災":5102,"灾":5103,"灿":5104,"炁":5105,"炅":5106,"炆":5107,"炉":5108,"炊":5109,"炎":5110,"炒":5111,"炔":5112,"炕":5113,"炖":5114,"炘":5115,"炙":5116,"炚":5117,"炛":5118,"炡":5119,"炤":5120,"炩":5121,"炫":5122,"炬":5123,"炭":5124,"炮":5125,"炯":5126,"炰":5127,"炲":5128,"炳":5129,"炷":5130,"炸":5131,"点":5132,"為":5133,"炻":5134,"烈":5135,"烊":5136,"烋":5137,"烏":5138,"烔":5139,"烘":5140,"烙":5141,"烚":5142,"烛":5143,"烜":5144,"烝":5145,"烟":5146,"烤":5147,"烦":5148,"热":5149,"烯":5150,"烱":5151,"烴":5152,"烷":5153,"烹":5154,"烺":5155,"烽":5156,"焄":5157,"焅":5158,"焉":5159,"焊":5160,"焌":5161,"焓":5162,"焗":5163,"焙":5164,"焚":5165,"焜":5166,"焟":5167,"焠":5168,"無":5169,"焢":5170,"焦":5171,"焬":5172,"焮":5173,"焯":5174,"焰":5175,"焱":5176,"然":5177,"焹":5178,"焼":5179,"焿":5180,"煅":5181,"煆":5182,"煇":5183,"煉":5184,"煊":5185,"煌":5186,"煎":5187,"煐":5188,"煑":5189,"煒":5190,"煕":5191,"煖":5192,"煙":5193,"煚":5194,"煜":5195,"煞":5196,"煤":5197,"煥":5198,"煦":5199,"照":5200,"煨":5201,"煩":5202,"煬":5203,"煮":5204,"煲":5205,"煳":5206,"煸":5207,"煻":5208,"煽":5209,"熀":5210,"熄":5211,"熅":5212,"熇":5213,"熉":5214,"熊":5215,"熏":5216,"熒":5217,"熔":5218,"熖":5219,"熗":5220,"熘":5221,"熙":5222,"熛":5223,"熜":5224,"熞":5225,"熟":5226,"熠":5227,"熧":5228,"熨":5229,"熩":5230,"熬":5231,"熱":5232,"熵":5233,"熹":5234,"熾":5235,"燁":5236,"燃":5237,"燄":5238,"燈":5239,"燉":5240,"燊":5241,"燎":5242,"燏":5243,"燐":5244,"燑":5245,"燒":5246,"燔":5247,"燕":5248,"燗":5249,"燙":5250,"燚":5251,"燜":5252,"營":5253,"燠":5254,"燥":5255,"燦":5256,"燧":5257,"燬":5258,"燭":5259,"燮":5260,"燴":5261,"燶":5262,"燹":5263,"燻":5264,"燼":5265,"燾":5266,"燿":5267,"爀":5268,"爁":5269,"爆":5270,"爈":5271,"爉":5272,"爌":5273,"爍":5274,"爐":5275,"爓":5276,"爕":5277,"爛":5278,"爤":5279,"爨":5280,"爪":5281,"爬":5282,"爭":5283,"爰":5284,"爱":5285,"爲":5286,"爵":5287,"父":5288,"爸":5289,"爹":5290,"爺":5291,"爻":5292,"爽":5293,"爾":5294,"爿":5295,"牀":5296,"牆":5297,"片":5298,"版":5299,"牌":5300,"牒":5301,"牖":5302,"牘":5303,"牙":5304,"牛":5305,"牝":5306,"牟":5307,"牠":5308,"牡":5309,"牢":5310,"牤":5311,"牦":5312,"牧":5313,"牨":5314,"物":5315,"牪":5316,"牯":5317,"牲":5318,"牴":5319,"牵":5320,"特":5321,"牽":5322,"犀":5323,"犁":5324,"犂":5325,"犄":5326,"犇":5327,"犉":5328,"犍":5329,"犏":5330,"犒":5331,"犖":5332,"犘":5333,"犚":5334,"犛":5335,"犟":5336,"犠":5337,"犡":5338,"犢":5339,"犧":5340,"犬":5341,"犯":5342,"犰":5343,"犴":5344,"状":5345,"犺":5346,"犽":5347,"狀":5348,"狁":5349,"狂":5350,"狃":5351,"狄":5352,"狅":5353,"狆":5354,"狌":5355,"狍":5356,"狎":5357,"狏":5358,"狐":5359,"狒":5360,"狓":5361,"狗":5362,"狙":5363,"狛":5364,"狠":5365,"狡":5366,"狨":5367,"狩":5368,"独":5369,"狭":5370,"狮":5371,"狳":5372,"狴":5373,"狷":5374,"狸":5375,"狹":5376,"狼":5377,"狽":5378,"猁":5379,"猄":5380,"猊":5381,"猋":5382,"猍":5383,"猐":5384,"猖":5385,"猗":5386,"猙":5387,"猚":5388,"猛":5389,"猜":5390,"猝":5391,"猞":5392,"猟":5393,"猢":5394,"猥":5395,"猩":5396,"猪":5397,"猫":5398,"猬":5399,"献":5400,"猱":5401,"猴":5402,"猶":5403,"猷":5404,"猻":5405,"猾":5406,"猿":5407,"獀":5408,"獁":5409,"獃":5410,"獄":5411,"獅":5412,"獈":5413,"獎":5414,"獏":5415,"獐":5416,"獒":5417,"獗":5418,"獠":5419,"獣":5420,"獨":5421,"獪":5422,"獫":5423,"獬":5424,"獭":5425,"獮":5426,"獰":5427,"獲":5428,"獴":5429,"獵":5430,"獷":5431,"獸":5432,"獺":5433,"獻":5434,"獼":5435,"獾":5436,"玀":5437,"玁":5438,"玃":5439,"玄":5440,"玆":5441,"率":5442,"玉":5443,"玊":5444,"王":5445,"玎":5446,"玏":5447,"玓":5448,"玖":5449,"玗":5450,"玟":5451,"玠":5452,"玢":5453,"玤":5454,"玥":5455,"玦":5456,"玧":5457,"玨":5458,"玩":5459,"玪":5460,"玫":5461,"玭":5462,"环":5463,"现":5464,"玲":5465,"玳":5466,"玵":5467,"玷":5468,"玹":5469,"玻":5470,"玼":5471,"珀":5472,"珂":5473,"珅":5474,"珆":5475,"珈":5476,"珉":5477,"珊":5478,"珍":5479,"珎":5480,"珏":5481,"珐":5482,"珒":5483,"珓":5484,"珔":5485,"珙":5486,"珛":5487,"珜":5488,"珝":5489,"珞":5490,"珠":5491,"珡":5492,"珣":5493,"珥":5494,"珦":5495,"珧":5496,"珩":5497,"珪":5498,"班":5499,"珮":5500,"珵":5501,"珶":5502,"珷":5503,"珹":5504,"珺":5505,"珽":5506,"現":5507,"琀":5508,"琁":5509,"球":5510,"琄":5511,"琅":5512,"理":5513,"琇":5514,"琉":5515,"琊":5516,"琋":5517,"琍":5518,"琐":5519,"琚":5520,"琛":5521,"琜":5522,"琞":5523,"琢":5524,"琣":5525,"琤":5526,"琥":5527,"琦":5528,"琨":5529,"琪":5530,"琬":5531,"琮":5532,"琯":5533,"琰":5534,"琲":5535,"琳":5536,"琴":5537,"琵":5538,"琶":5539,"琹":5540,"琺":5541,"琼":5542,"琽":5543,"琾":5544,"琿":5545,"瑀":5546,"瑁":5547,"瑃":5548,"瑄":5549,"瑈":5550,"瑉":5551,"瑋":5552,"瑍":5553,"瑒":5554,"瑔":5555,"瑕":5556,"瑗":5557,"瑙":5558,"瑚":5559,"瑛":5560,"瑜":5561,"瑝":5562,"瑞":5563,"瑟":5564,"瑠":5565,"瑢":5566,"瑣":5567,"瑤":5568,"瑥":5569,"瑧":5570,"瑩":5571,"瑪":5572,"瑭":5573,"瑮":5574,"瑯":5575,"瑰":5576,"瑱":5577,"瑲":5578,"瑳":5579,"瑶":5580,"瑽":5581,"瑾":5582,"璀":5583,"璁":5584,"璂":5585,"璃":5586,"璄":5587,"璇":5588,"璉":5589,"璊":5590,"璋":5591,"璐":5592,"璘":5593,"璜":5594,"璝":5595,"璞":5596,"璟":5597,"璠":5598,"璣":5599,"璦":5600,"璧":5601,"璨":5602,"璩":5603,"璫":5604,"環":5605,"璱":5606,"璲":5607,"璸":5608,"璽":5609,"璿":5610,"瓅":5611,"瓈":5612,"瓊":5613,"瓌":5614,"瓍":5615,"瓏":5616,"瓓":5617,"瓔":5618,"瓚":5619,"瓜":5620,"瓞":5621,"瓟":5622,"瓠":5623,"瓡":5624,"瓢":5625,"瓣":5626,"瓤":5627,"瓦":5628,"瓩":5629,"瓮":5630,"瓴":5631,"瓶":5632,"瓷":5633,"瓿":5634,"甁":5635,"甄":5636,"甌":5637,"甏":5638,"甑":5639,"甕":5640,"甖":5641,"甗":5642,"甘":5643,"甙":5644,"甚":5645,"甛":5646,"甜":5647,"生":5648,"甡":5649,"產":5650,"産":5651,"甥":5652,"甦":5653,"用":5654,"甩":5655,"甪":5656,"甫":5657,"甬":5658,"甭":5659,"甯":5660,"田":5661,"由":5662,"甲":5663,"申":5664,"甴":5665,"电":5666,"男":5667,"甸":5668,"町":5669,"画":5670,"甽":5671,"甾":5672,"畀":5673,"畃":5674,"畇":5675,"畈":5676,"畊":5677,"畋":5678,"界":5679,"畏":5680,"畐":5681,"畑":5682,"畔":5683,"留":5684,"畚":5685,"畛":5686,"畜":5687,"畝":5688,"畠":5689,"畢":5690,"畤":5691,"略":5692,"畦":5693,"番":5694,"畫":5695,"畬":5696,"畯":5697,"異":5698,"畲":5699,"畵":5700,"當":5701,"畷":5702,"畸":5703,"畾":5704,"畿":5705,"疃":5706,"疆":5707,"疇":5708,"疉":5709,"疊":5710,"疋":5711,"疍":5712,"疎":5713,"疏":5714,"疑":5715,"疒":5716,"疔":5717,"疗":5718,"疙":5719,"疚":5720,"疝":5721,"疟":5722,"疣":5723,"疤":5724,"疥":5725,"疪":5726,"疫":5727,"疯":5728,"疰":5729,"疱":5730,"疲":5731,"疳":5732,"疴":5733,"疵":5734,"疸":5735,"疹":5736,"疼":5737,"疽":5738,"疾":5739,"痀":5740,"痂":5741,"病":5742,"症":5743,"痊":5744,"痋":5745,"痌":5746,"痍":5747,"痒":5748,"痔":5749,"痕":5750,"痘":5751,"痙":5752,"痛":5753,"痞":5754,"痟":5755,"痠":5756,"痢":5757,"痣":5758,"痤":5759,"痧":5760,"痨":5761,"痩":5762,"痪":5763,"痬":5764,"痰":5765,"痱":5766,"痲":5767,"痴":5768,"痹":5769,"痺":5770,"痼":5771,"痾":5772,"痿":5773,"瘀":5774,"瘁":5775,"瘂":5776,"瘉":5777,"瘋":5778,"瘌":5779,"瘍":5780,"瘐":5781,"瘓":5782,"瘕":5783,"瘖":5784,"瘙":5785,"瘜":5786,"瘝":5787,"瘞":5788,"瘟":5789,"瘠":5790,"瘡":5791,"瘢":5792,"瘤":5793,"瘥":5794,"瘦":5795,"瘧":5796,"瘩":5797,"瘪":5798,"瘫":5799,"瘮":5800,"瘲":5801,"瘳":5802,"瘴":5803,"瘸":5804,"瘺":5805,"瘻":5806,"瘼":5807,"瘾":5808,"癀":5809,"療":5810,"癆":5811,"癇":5812,"癈":5813,"癉":5814,"癌":5815,"癎":5816,"癐":5817,"癑":5818,"癒":5819,"癔":5820,"癖":5821,"癘":5822,"癜":5823,"癞":5824,"癟":5825,"癡":5826,"癢":5827,"癣":5828,"癤":5829,"癥":5830,"癩":5831,"癫":5832,"癬":5833,"癭":5834,"癮":5835,"癰":5836,"癱":5837,"癲":5838,"癴":5839,"癸":5840,"発":5841,"登":5842,"發":5843,"白":5844,"百":5845,"皀":5846,"皁":5847,"皂":5848,"皃":5849,"的":5850,"皆":5851,"皇":5852,"皈":5853,"皋":5854,"皎":5855,"皐":5856,"皓":5857,"皕":5858,"皖":5859,"皗":5860,"皙":5861,"皚":5862,"皜":5863,"皞":5864,"皢":5865,"皤":5866,"皦":5867,"皪":5868,"皮":5869,"皰":5870,"皴":5871,"皷":5872,"皸":5873,"皺":5874,"皿":5875,"盂":5876,"盃":5877,"盅":5878,"盆":5879,"盈":5880,"盉":5881,"益":5882,"盌":5883,"盍":5884,"盎":5885,"盏":5886,"监":5887,"盒":5888,"盔":5889,"盖":5890,"盗":5891,"盘":5892,"盛":5893,"盜":5894,"盝":5895,"盞":5896,"盟":5897,"盡":5898,"監":5899,"盤":5900,"盥":5901,"盧":5902,"盨":5903,"盪":5904,"盬":5905,"目":5906,"盯":5907,"盱":5908,"盲":5909,"直":5910,"盷":5911,"相":5912,"盹":5913,"盺":5914,"盼":5915,"盾":5916,"眀":5917,"省":5918,"眅":5919,"眇":5920,"眈":5921,"眉":5922,"看":5923,"県":5924,"眙":5925,"眛":5926,"眜":5927,"眝":5928,"眞":5929,"真":5930,"眠":5931,"眤":5932,"眥":5933,"眧":5934,"眨":5935,"眩":5936,"眭":5937,"眮":5938,"眯":5939,"眶":5940,"眷":5941,"眸":5942,"眹":5943,"眺":5944,"眻":5945,"眼":5946,"眽":5947,"眾":5948,"着":5949,"睁":5950,"睄":5951,"睇":5952,"睌":5953,"睎":5954,"睏":5955,"睐":5956,"睙":5957,"睚":5958,"睛":5959,"睜":5960,"睞":5961,"睡":5962,"睢":5963,"督":5964,"睥":5965,"睦":5966,"睨":5967,"睪":5968,"睫":5969,"睬":5970,"睭":5971,"睱":5972,"睹":5973,"睺":5974,"睽":5975,"睾":5976,"睿":5977,"瞄":5978,"瞅":5979,"瞇":5980,"瞋":5981,"瞌":5982,"瞍":5983,"瞎":5984,"瞏":5985,"瞐":5986,"瞑":5987,"瞓":5988,"瞙":5989,"瞜":5990,"瞞":5991,"瞟":5992,"瞠":5993,"瞢":5994,"瞤":5995,"瞥":5996,"瞧":5997,"瞩":5998,"瞪":5999,"瞬":6000,"瞭":6001,"瞰":6002,"瞱":6003,"瞳":6004,"瞴":6005,"瞶":6006,"瞹":6007,"瞻":6008,"瞼":6009,"瞽":6010,"瞾":6011,"瞿":6012,"矅":6013,"矇":6014,"矌":6015,"矍":6016,"矒":6017,"矓":6018,"矖":6019,"矗":6020,"矚":6021,"矛":6022,"矜":6023,"矞":6024,"矢":6025,"矣":6026,"知":6027,"矧":6028,"矩":6029,"矬":6030,"短":6031,"矮":6032,"矯":6033,"矲":6034,"石":6035,"矸":6036,"矻":6037,"矽":6038,"矾":6039,"砂":6040,"砌":6041,"砍":6042,"砏":6043,"砒":6044,"研":6045,"砕":6046,"砝":6047,"砟":6048,"砡":6049,"砢":6050,"砣":6051,"砥":6052,"砦":6053,"砧":6054,"砫":6055,"砬":6056,"砭":6057,"砰":6058,"砱":6059,"砲":6060,"砳":6061,"破":6062,"砵":6063,"砷":6064,"砸":6065,"础":6066,"硃":6067,"硄":6068,"硅":6069,"硌":6070,"硏":6071,"硐":6072,"硒":6073,"硓":6074,"硕":6075,"硘":6076,"硚":6077,"硝":6078,"硤":6079,"硨":6080,"硫":6081,"硬":6082,"确":6083,"硯":6084,"硺":6085,"硼":6086,"硿":6087,"碁":6088,"碄":6089,"碆":6090,"碇":6091,"碉":6092,"碌":6093,"碍":6094,"碎":6095,"碑":6096,"碓":6097,"碕":6098,"碖":6099,"碗":6100,"碘":6101,"碚":6102,"碜":6103,"碟":6104,"碣":6105,"碥":6106,"碧":6107,"碩":6108,"碬":6109,"碭":6110,"碰":6111,"碱":6112,"碲":6113,"碳":6114,"碴":6115,"碶":6116,"碸":6117,"確":6118,"碼":6119,"碾":6120,"磁":6121,"磅":6122,"磊":6123,"磋":6124,"磐":6125,"磕":6126,"磗":6127,"磘":6128,"磚":6129,"磜":6130,"磞":6131,"磡":6132,"磣":6133,"磧":6134,"磨":6135,"磪":6136,"磬":6137,"磯":6138,"磲":6139,"磴":6140,"磷":6141,"磺":6142,"磿":6143,"礁":6144,"礄":6145,"礅":6146,"礌":6147,"礎":6148,"礐":6149,"礑":6150,"礒":6151,"礙":6152,"礜":6153,"礟":6154,"礡":6155,"礦":6156,"礪":6157,"礫":6158,"礬":6159,"礮":6160,"礱":6161,"礴":6162,"礵":6163,"礸":6164,"示":6165,"礻":6166,"礼":6167,"礽":6168,"社":6169,"祀":6170,"祁":6171,"祂":6172,"祇":6173,"祈":6174,"祉":6175,"祊":6176,"祌":6177,"祏":6178,"祐":6179,"祓":6180,"祕":6181,"祖":6182,"祗":6183,"祙":6184,"祚":6185,"祛":6186,"祜":6187,"祝":6188,"神":6189,"祟":6190,"祠":6191,"祡":6192,"祢":6193,"祤":6194,"祥":6195,"祧":6196,"票":6197,"祪":6198,"祭":6199,"祶":6200,"祷":6201,"祺":6202,"祼":6203,"祿":6204,"禀":6205,"禁":6206,"禄":6207,"禅":6208,"禇":6209,"禊":6210,"禋":6211,"禌":6212,"禍":6213,"禎":6214,"福":6215,"禑":6216,"禓":6217,"禔":6218,"禕":6219,"禖":6220,"禚":6221,"禛":6222,"禝":6223,"禠":6224,"禡":6225,"禢":6226,"禤":6227,"禦":6228,"禧":6229,"禩":6230,"禪":6231,"禫":6232,"禮":6233,"禰":6234,"禱":6235,"禳":6236,"禶":6237,"禹":6238,"禺":6239,"离":6240,"禽":6241,"禾":6242,"禿":6243,"秀":6244,"私":6245,"秃":6246,"秈":6247,"秉":6248,"秋":6249,"种":6250,"秏":6251,"秐":6252,"科":6253,"秒":6254,"秕":6255,"秖":6256,"秘":6257,"秛":6258,"秝":6259,"租":6260,"秣":6261,"秤":6262,"秦":6263,"秧":6264,"秩":6265,"秫":6266,"秭":6267,"称":6268,"秸":6269,"移":6270,"稀":6271,"稄":6272,"稅":6273,"稈":6274,"稉":6275,"程":6276,"稍":6277,"税":6278,"稐":6279,"稑":6280,"稔":6281,"稗":6282,"稙":6283,"稚":6284,"稜":6285,"稝":6286,"稞":6287,"稟":6288,"稠":6289,"稣":6290,"種":6291,"稱":6292,"稲":6293,"稳":6294,"稷":6295,"稹":6296,"稻":6297,"稼":6298,"稽":6299,"稾":6300,"稿":6301,"穀":6302,"穂":6303,"穆":6304,"穌":6305,"積":6306,"穎":6307,"穏":6308,"穑":6309,"穖":6310,"穗":6311,"穚":6312,"穠":6313,"穢":6314,"穣":6315,"穧":6316,"穩":6317,"穫":6318,"穰":6319,"穴":6320,"究":6321,"穹":6322,"空":6323,"穼":6324,"穾":6325,"穿":6326,"突":6327,"窃":6328,"窄":6329,"窈":6330,"窊":6331,"窌":6332,"窒":6333,"窓":6334,"窔":6335,"窕":6336,"窖":6337,"窗":6338,"窘":6339,"窟":6340,"窠":6341,"窣":6342,"窨":6343,"窩":6344,"窪":6345,"窮":6346,"窯":6347,"窰":6348,"窳":6349,"窴":6350,"窸":6351,"窺":6352,"窿":6353,"竂":6354,"竄":6355,"竅":6356,"竇":6357,"竈":6358,"竉":6359,"竊":6360,"立":6361,"竑":6362,"站":6363,"竛":6364,"竜":6365,"竝":6366,"竞":6367,"竟":6368,"章":6369,"竣":6370,"竤":6371,"童":6372,"竦":6373,"竪":6374,"竫":6375,"竭":6376,"端":6377,"競":6378,"竸":6379,"竹":6380,"竺":6381,"竻":6382,"竽":6383,"竿":6384,"笄":6385,"笅":6386,"笆":6387,"笈":6388,"笊":6389,"笋":6390,"笏":6391,"笑":6392,"笒":6393,"笙":6394,"笛":6395,"笞":6396,"笠":6397,"笥":6398,"符":6399,"笨":6400,"笩":6401,"笪":6402,"笫":6403,"第":6404,"笭":6405,"笱":6406,"笳":6407,"笹":6408,"筅":6409,"筆":6410,"筇":6411,"等":6412,"筊":6413,"筋":6414,"筌":6415,"筍":6416,"筏":6417,"筐":6418,"筑":6419,"筒":6420,"答":6421,"策":6422,"筝":6423,"筞":6424,"筠":6425,"筢":6426,"筣":6427,"筥":6428,"筦":6429,"筧":6430,"筫":6431,"筯":6432,"筱":6433,"筲":6434,"筳":6435,"筴":6436,"筵":6437,"筶":6438,"筷":6439,"简":6440,"箂":6441,"箄":6442,"箅":6443,"箇":6444,"箊":6445,"箋":6446,"箍":6447,"箎":6448,"箏":6449,"箐":6450,"箒":6451,"箔":6452,"箕":6453,"箖":6454,"算":6455,"箘":6456,"箙":6457,"箜":6458,"箝":6459,"管":6460,"箪":6461,"箬":6462,"箭":6463,"箱":6464,"箴":6465,"箸":6466,"箺":6467,"箽":6468,"節":6469,"篁":6470,"範":6471,"篆":6472,"篇":6473,"築":6474,"篋":6475,"篌":6476,"篐":6477,"篓":6478,"篔":6479,"篙":6480,"篛":6481,"篝":6482,"篟":6483,"篠":6484,"篡":6485,"篣":6486,"篤":6487,"篥":6488,"篦":6489,"篩":6490,"篮":6491,"篰":6492,"篳":6493,"篴":6494,"篷":6495,"篸":6496,"篹":6497,"篼":6498,"篾":6499,"簀":6500,"簃":6501,"簇":6502,"簋":6503,"簌":6504,"簍":6505,"簎":6506,"簑":6507,"簕":6508,"簘":6509,"簞":6510,"簟":6511,"簡":6512,"簣":6513,"簧":6514,"簪":6515,"簫":6516,"簮":6517,"簶":6518,"簷":6519,"簸":6520,"簹":6521,"簽":6522,"簾":6523,"簿":6524,"籀":6525,"籃":6526,"籄":6527,"籈":6528,"籌":6529,"籍":6530,"籐":6531,"籓":6532,"籔":6533,"籖":6534,"籗":6535,"籙":6536,"籚":6537,"籛":6538,"籜":6539,"籝":6540,"籟":6541,"籠":6542,"籣":6543,"籤":6544,"籥":6545,"籨":6546,"籬":6547,"籮":6548,"籲":6549,"米":6550,"籹":6551,"籼":6552,"籽":6553,"籾":6554,"粄":6555,"粈":6556,"粉":6557,"粋":6558,"粍":6559,"粏":6560,"粑":6561,"粒":6562,"粕":6563,"粗":6564,"粘":6565,"粛":6566,"粟":6567,"粢":6568,"粤":6569,"粥":6570,"粦":6571,"粧":6572,"粨":6573,"粩":6574,"粮":6575,"粯":6576,"粰":6577,"粱":6578,"粲":6579,"粳":6580,"粴":6581,"粵":6582,"粷":6583,"粹":6584,"粼":6585,"粽":6586,"精":6587,"粿":6588,"糀":6589,"糅":6590,"糊":6591,"糌":6592,"糍":6593,"糎":6594,"糑":6595,"糒":6596,"糕":6597,"糖":6598,"糗":6599,"糙":6600,"糜":6601,"糝":6602,"糞":6603,"糟":6604,"糠":6605,"糢":6606,"糥":6607,"糧":6608,"糨":6609,"糬":6610,"糯":6611,"糰":6612,"糴":6613,"糵":6614,"糶":6615,"糸":6616,"糺":6617,"系":6618,"糼":6619,"糾":6620,"紀":6621,"紁":6622,"紂":6623,"約":6624,"紅":6625,"紆":6626,"紈":6627,"紉":6628,"紊":6629,"紋":6630,"納":6631,"紎":6632,"紏":6633,"紐":6634,"紓":6635,"純":6636,"紕":6637,"紗":6638,"紘":6639,"紙":6640,"級":6641,"紛":6642,"紜":6643,"紝":6644,"素":6645,"紡":6646,"索":6647,"紥":6648,"紦":6649,"紫":6650,"紬":6651,"紮":6652,"累":6653,"細":6654,"紳":6655,"紶":6656,"紸":6657,"紹":6658,"紺":6659,"紿":6660,"絀":6661,"終":6662,"絃":6663,"組":6664,"絆":6665,"絈":6666,"経":6667,"絍":6668,"絎":6669,"結":6670,"絕":6671,"絛":6672,"絜":6673,"絝":6674,"絞":6675,"絟":6676,"絡":6677,"絢":6678,"絣":6679,"給":6680,"絧":6681,"絨":6682,"絪":6683,"絭":6684,"絮":6685,"統":6686,"絲":6687,"絳":6688,"絴":6689,"絵":6690,"絶":6691,"絸":6692,"絹":6693,"絿":6694,"綀":6695,"綁":6696,"綃":6697,"綉":6698,"綏":6699,"綑":6700,"經":6701,"継":6702,"続":6703,"綜":6704,"綝":6705,"綠":6706,"綢":6707,"綣":6708,"綦":6709,"綪":6710,"綫":6711,"綬":6712,"維":6713,"綰":6714,"綱":6715,"網":6716,"綳":6717,"綴":6718,"綵":6719,"綷":6720,"綸":6721,"綹":6722,"綺":6723,"綻":6724,"綽":6725,"綾":6726,"綿":6727,"緀":6728,"緁":6729,"緃":6730,"緄":6731,"緇":6732,"緊":6733,"緋":6734,"緍":6735,"総":6736,"緑":6737,"緒":6738,"緖":6739,"緗":6740,"緘":6741,"緙":6742,"線":6743,"緜":6744,"緝":6745,"緞":6746,"締":6747,"緣":6748,"緦":6749,"編":6750,"緩":6751,"緬":6752,"緯":6753,"緱":6754,"緲":6755,"練":6756,"緹":6757,"緻":6758,"緾":6759,"縁":6760,"縂":6761,"縄":6762,"縈":6763,"縉":6764,"縊":6765,"縋":6766,"縐":6767,"縑":6768,"縕":6769,"縛":6770,"縝":6771,"縞":6772,"縟":6773,"縠":6774,"縡":6775,"縢":6776,"縣":6777,"縦":6778,"縧":6779,"縫":6780,"縭":6781,"縮":6782,"縯":6783,"縱":6784,"縲":6785,"縳":6786,"縴":6787,"縵":6788,"縷":6789,"縹":6790,"縻":6791,"縼":6792,"總":6793,"績":6794,"繀":6795,"繁":6796,"繃":6797,"繄":6798,"繆":6799,"繈":6800,"繋":6801,"繌":6802,"繍":6803,"繐":6804,"繒":6805,"織":6806,"繕":6807,"繖":6808,"繗":6809,"繚":6810,"繝":6811,"繞":6812,"繡":6813,"繥":6814,"繩":6815,"繪":6816,"繫":6817,"繭":6818,"繮":6819,"繯":6820,"繰":6821,"繳":6822,"繶":6823,"繷":6824,"繹":6825,"繻":6826,"繼":6827,"繽":6828,"繾":6829,"纁":6830,"纂":6831,"纆":6832,"纇":6833,"纈":6834,"續":6835,"纍":6836,"纎":6837,"纏":6838,"纐":6839,"纒":6840,"纓":6841,"纔":6842,"纖":6843,"纘":6844,"纛":6845,"纜":6846,"纞":6847,"纠":6848,"纡":6849,"红":6850,"约":6851,"级":6852,"纪":6853,"纯":6854,"纱":6855,"纳":6856,"纷":6857,"纸":6858,"纹":6859,"纺":6860,"纽":6861,"纾":6862,"线":6863,"练":6864,"组":6865,"绅":6866,"细":6867,"终":6868,"绊":6869,"绍":6870,"经":6871,"绑":6872,"绒":6873,"结":6874,"绗":6875,"给":6876,"绚":6877,"络":6878,"绝":6879,"统":6880,"绡":6881,"绣":6882,"继":6883,"绩":6884,"绪":6885,"绫":6886,"续":6887,"绮":6888,"绯":6889,"绰":6890,"绲":6891,"维":6892,"绵":6893,"绷":6894,"绸":6895,"绹":6896,"综":6897,"绽":6898,"绿":6899,"缀":6900,"缄":6901,"缈":6902,"缉":6903,"缎":6904,"缐":6905,"缓":6906,"缔":6907,"编":6908,"缘":6909,"缚":6910,"缝":6911,"缠":6912,"缩":6913,"缪":6914,"缳":6915,"缴":6916,"缶":6917,"缷":6918,"缸":6919,"缹":6920,"缺":6921,"缼":6922,"缽":6923,"罄":6924,"罅":6925,"罇":6926,"罈":6927,"罊":6928,"罌":6929,"罍":6930,"罎":6931,"罐":6932,"网":6933,"罒":6934,"罔":6935,"罕":6936,"罘":6937,"罝":6938,"罟":6939,"罡":6940,"罢":6941,"罣":6942,"罨":6943,"罩":6944,"罪":6945,"罫":6946,"置":6947,"罰":6948,"署":6949,"罵":6950,"罷":6951,"罸":6952,"罹":6953,"罽":6954,"罾":6955,"羁":6956,"羅":6957,"羆":6958,"羇":6959,"羈":6960,"羊":6961,"羋":6962,"羌":6963,"美":6964,"羏":6965,"羔":6966,"羚":6967,"羝":6968,"羞":6969,"羡":6970,"羢":6971,"羣":6972,"群":6973,"羥":6974,"羦":6975,"羧":6976,"羨":6977,"義":6978,"羮":6979,"羯":6980,"羰":6981,"羱":6982,"羲":6983,"羴":6984,"羶":6985,"羸":6986,"羹":6987,"羺":6988,"羽":6989,"羾":6990,"羿":6991,"翀":6992,"翁":6993,"翃":6994,"翅":6995,"翊":6996,"翌":6997,"翎":6998,"習":6999,"翓":7000,"翔":7001,"翕":7002,"翖":7003,"翗":7004,"翘":7005,"翙":7006,"翟":7007,"翠":7008,"翡":7009,"翦":7010,"翩":7011,"翫":7012,"翬":7013,"翮":7014,"翯":7015,"翰":7016,"翱":7017,"翳":7018,"翹":7019,"翺":7020,"翻":7021,"翼":7022,"翾":7023,"耀":7024,"老":7025,"考":7026,"耄":7027,"者":7028,"耆":7029,"耋":7030,"而":7031,"耍":7032,"耐":7033,"耑":7034,"耒":7035,"耔":7036,"耕":7037,"耖":7038,"耗":7039,"耘":7040,"耙":7041,"耜":7042,"耦":7043,"耨":7044,"耪":7045,"耬":7046,"耳":7047,"耵":7048,"耶":7049,"耷":7050,"耹":7051,"耻":7052,"耽":7053,"耿":7054,"聃":7055,"聆":7056,"聊":7057,"职":7058,"聎":7059,"聒":7060,"联":7061,"聖":7062,"聘":7063,"聚":7064,"聞":7065,"聟":7066,"聡":7067,"聨":7068,"聮":7069,"聯":7070,"聰":7071,"聱":7072,"聲":7073,"聳":7074,"聴":7075,"聵":7076,"聶":7077,"職":7078,"聹":7079,"聼":7080,"聽":7081,"聾":7082,"聿":7083,"肁":7084,"肄":7085,"肅":7086,"肆":7087,"肇":7088,"肈":7089,"肉":7090,"肋":7091,"肌":7092,"肏":7093,"肐":7094,"肓":7095,"肕":7096,"肖":7097,"肘":7098,"肚":7099,"肛":7100,"肝":7101,"股":7102,"肢":7103,"肤":7104,"肥":7105,"肦":7106,"肧":7107,"肩":7108,"肪":7109,"肫":7110,"肮":7111,"肯":7112,"肰":7113,"肱":7114,"育":7115,"肴":7116,"肶":7117,"肺":7118,"肼":7119,"肽":7120,"肿":7121,"胂":7122,"胃":7123,"胄":7124,"胆":7125,"胇":7126,"胋":7127,"背":7128,"胍":7129,"胎":7130,"胖":7131,"胗":7132,"胙":7133,"胚":7134,"胛":7135,"胜":7136,"胝":7137,"胞":7138,"胠":7139,"胡":7140,"胤":7141,"胥":7142,"胭":7143,"胯":7144,"胰":7145,"胱":7146,"胳":7147,"胴":7148,"胵":7149,"胶":7150,"胸":7151,"胺":7152,"胼":7153,"能":7154,"脂":7155,"脅":7156,"脆":7157,"脇":7158,"脈":7159,"脉":7160,"脊":7161,"脋":7162,"脑":7163,"脕":7164,"脖":7165,"脗":7166,"脘":7167,"脚":7168,"脛":7169,"脞":7170,"脠":7171,"脢":7172,"脣":7173,"脤":7174,"脥":7175,"脩":7176,"脫":7177,"脬":7178,"脯":7179,"脱":7180,"脲":7181,"脳":7182,"脷":7183,"脸":7184,"脹":7185,"脻":7186,"脽":7187,"脾":7188,"腂":7189,"腄":7190,"腆":7191,"腈":7192,"腊":7193,"腋":7194,"腌":7195,"腍":7196,"腎":7197,"腐":7198,"腑":7199,"腓":7200,"腔":7201,"腕":7202,"腚":7203,"腠":7204,"腥":7205,"腦":7206,"腧":7207,"腩":7208,"腫":7209,"腭":7210,"腮":7211,"腰":7212,"腱":7213,"腳":7214,"腴":7215,"腸":7216,"腹":7217,"腺":7218,"腻":7219,"腼":7220,"腾":7221,"腿":7222,"膀":7223,"膁":7224,"膂":7225,"膃":7226,"膈":7227,"膊":7228,"膏":7229,"膓":7230,"膕":7231,"膘":7232,"膚":7233,"膛":7234,"膜":7235,"膝":7236,"膞":7237,"膠":7238,"膡":7239,"膣":7240,"膦":7241,"膨":7242,"膩":7243,"膫":7244,"膱":7245,"膲":7246,"膳":7247,"膴":7248,"膸":7249,"膺":7250,"膻":7251,"膽":7252,"膾":7253,"膿":7254,"臀":7255,"臂":7256,"臃":7257,"臄":7258,"臆":7259,"臉":7260,"臊":7261,"臌":7262,"臍":7263,"臏":7264,"臑":7265,"臒":7266,"臓":7267,"臖":7268,"臗":7269,"臘":7270,"臚":7271,"臟":7272,"臠":7273,"臣":7274,"臥":7275,"臧":7276,"臨":7277,"自":7278,"臬":7279,"臭":7280,"臮":7281,"臯":7282,"臲":7283,"至":7284,"致":7285,"臺":7286,"臻":7287,"臼":7288,"臾":7289,"舀":7290,"舂":7291,"舅":7292,"舆":7293,"與":7294,"興":7295,"舉":7296,"舊":7297,"舌":7298,"舍":7299,"舎":7300,"舐":7301,"舒":7302,"舔":7303,"舕":7304,"舖":7305,"舗":7306,"舘":7307,"舙":7308,"舛":7309,"舜":7310,"舞":7311,"舟":7312,"舠":7313,"舢":7314,"舦":7315,"舨":7316,"舩":7317,"航":7318,"舫":7319,"般":7320,"舭":7321,"舯":7322,"舲":7323,"舵":7324,"舶":7325,"舷":7326,"舸":7327,"船":7328,"舺":7329,"舾":7330,"艃":7331,"艇":7332,"艉":7333,"艋":7334,"艏":7335,"艘":7336,"艙":7337,"艟":7338,"艤":7339,"艦":7340,"艨":7341,"艫":7342,"艮":7343,"良":7344,"艱":7345,"色":7346,"艶":7347,"艷":7348,"艸":7349,"艹":7350,"艼":7351,"艽":7352,"艾":7353,"艿":7354,"节":7355,"芃":7356,"芈":7357,"芊":7358,"芋":7359,"芍":7360,"芎":7361,"芐":7362,"芑":7363,"芒":7364,"芔":7365,"芘":7366,"芙":7367,"芚":7368,"芛":7369,"芜":7370,"芝":7371,"芠":7372,"芡":7373,"芢":7374,"芣":7375,"芥":7376,"芦":7377,"芧":7378,"芨":7379,"芩":7380,"芪":7381,"芫":7382,"芬":7383,"芭":7384,"芮":7385,"芯":7386,"花":7387,"芳":7388,"芶":7389,"芷":7390,"芸":7391,"芹":7392,"芺":7393,"芻":7394,"芼":7395,"芽":7396,"芾":7397,"芿":7398,"苀":7399,"苅":7400,"苍":7401,"苏":7402,"苐":7403,"苑":7404,"苒":7405,"苓":7406,"苔":7407,"苕":7408,"苖":7409,"苗":7410,"苙":7411,"苛":7412,"苜":7413,"苞":7414,"苟":7415,"苡":7416,"苣":7417,"若":7418,"苦":7419,"苧":7420,"苪":7421,"苫":7422,"苯":7423,"英":7424,"苳":7425,"苴":7426,"苷":7427,"苹":7428,"苺":7429,"苼":7430,"苾":7431,"苿":7432,"茀":7433,"茁":7434,"茂":7435,"范":7436,"茄":7437,"茅":7438,"茆":7439,"茈":7440,"茉":7441,"茍":7442,"茐":7443,"茖":7444,"茗":7445,"茘":7446,"茚":7447,"茛":7448,"茜":7449,"茡":7450,"茤":7451,"茨":7452,"茫":7453,"茬":7454,"茭":7455,"茮":7456,"茯":7457,"茱":7458,"茲":7459,"茴":7460,"茵":7461,"茶":7462,"茸":7463,"茹":7464,"茺":7465,"茻":7466,"茼":7467,"茾":7468,"茿":7469,"荀":7470,"荁":7471,"荃":7472,"荄":7473,"荅":7474,"荆":7475,"荇":7476,"草":7477,"荊":7478,"荋":7479,"荏":7480,"荐":7481,"荑":7482,"荒":7483,"荔":7484,"荖":7485,"荘":7486,"荟":7487,"荧":7488,"荫":7489,"药":7490,"荲":7491,"荳":7492,"荵":7493,"荷":7494,"荸":7495,"荺":7496,"荻":7497,"荼":7498,"荽":7499,"荾":7500,"莆":7501,"莉":7502,"莊":7503,"莎":7504,"莒":7505,"莓":7506,"莕":7507,"莖":7508,"莗":7509,"莘":7510,"莙":7511,"莛":7512,"莞":7513,"莠":7514,"莢":7515,"莧":7516,"莨":7517,"莪":7518,"莫":7519,"莯":7520,"莰":7521,"莱":7522,"莵":7523,"莽":7524,"莾":7525,"莿":7526,"菀":7527,"菁":7528,"菂":7529,"菄":7530,"菅":7531,"菇":7532,"菈":7533,"菊":7534,"菌":7535,"菎":7536,"菏":7537,"菒":7538,"菓":7539,"菔":7540,"菕":7541,"菖":7542,"菘":7543,"菜":7544,"菝":7545,"菟":7546,"菠":7547,"菡":7548,"菤":7549,"菥":7550,"菩":7551,"菪":7552,"菫":7553,"華":7554,"菰":7555,"菱":7556,"菲":7557,"菴":7558,"菸":7559,"菹":7560,"菻":7561,"菽":7562,"萁":7563,"萂":7564,"萃":7565,"萄":7566,"萇":7567,"萊":7568,"萋":7569,"萌":7570,"萍":7571,"萎":7572,"萘":7573,"萛":7574,"萜":7575,"萝":7576,"萠":7577,"萣":7578,"营":7579,"萩":7580,"萪":7581,"萬":7582,"萭":7583,"萱":7584,"萲":7585,"萵":7586,"萶":7587,"萸":7588,"萼":7589,"落":7590,"葆":7591,"葇":7592,"葉":7593,"葐":7594,"葑":7595,"葒":7596,"著":7597,"葙":7598,"葚":7599,"葛":7600,"葜":7601,"葡":7602,"董":7603,"葥":7604,"葦":7605,"葩":7606,"葪":7607,"葫":7608,"葬":7609,"葭":7610,"葯":7611,"葱":7612,"葳":7613,"葵":7614,"葶":7615,"葷":7616,"葸":7617,"葹":7618,"葺":7619,"蒂":7620,"蒄":7621,"蒎":7622,"蒐":7623,"蒓":7624,"蒔":7625,"蒙":7626,"蒜":7627,"蒝":7628,"蒞":7629,"蒟":7630,"蒡":7631,"蒨":7632,"蒪":7633,"蒯":7634,"蒲":7635,"蒴":7636,"蒸":7637,"蒹":7638,"蒺":7639,"蒻":7640,"蒼":7641,"蒽":7642,"蒿":7643,"蓀":7644,"蓁":7645,"蓄":7646,"蓆":7647,"蓉":7648,"蓊":7649,"蓋":7650,"蓍":7651,"蓎":7652,"蓑":7653,"蓓":7654,"蓔":7655,"蓖":7656,"蓜":7657,"蓟":7658,"蓪":7659,"蓬":7660,"蓮":7661,"蓯":7662,"蓳":7663,"蓴":7664,"蓸":7665,"蓻":7666,"蓼":7667,"蓽":7668,"蓿":7669,"蔆":7670,"蔑":7671,"蔓":7672,"蔔":7673,"蔕":7674,"蔖":7675,"蔗":7676,"蔘":7677,"蔚":7678,"蔝":7679,"蔞":7680,"蔟":7681,"蔡":7682,"蔣":7683,"蔥":7684,"蔦":7685,"蔫":7686,"蔬":7687,"蔭":7688,"蔴":7689,"蔵":7690,"蔷":7691,"蔻":7692,"蔽":7693,"蔾":7694,"蕀":7695,"蕁":7696,"蕂":7697,"蕃":7698,"蕈":7699,"蕉":7700,"蕊":7701,"蕋":7702,"蕎":7703,"蕓":7704,"蕕":7705,"蕖":7706,"蕗":7707,"蕘":7708,"蕙":7709,"蕚":7710,"蕞":7711,"蕢":7712,"蕣":7713,"蕤":7714,"蕥":7715,"蕨":7716,"蕩":7717,"蕪":7718,"蕫":7719,"蕬":7720,"蕭":7721,"蕯":7722,"蕵":7723,"蕷":7724,"蕸":7725,"蕹":7726,"蕺":7727,"蕻":7728,"蕾":7729,"薀":7730,"薁":7731,"薄":7732,"薅":7733,"薆":7734,"薇":7735,"薈":7736,"薊":7737,"薌":7738,"薍":7739,"薏":7740,"薑":7741,"薔":7742,"薗":7743,"薘":7744,"薙":7745,"薛":7746,"薜":7747,"薟":7748,"薡":7749,"薤":7750,"薥":7751,"薦":7752,"薨":7753,"薩":7754,"薪":7755,"薫":7756,"薬":7757,"薮":7758,"薯":7759,"薰":7760,"薴":7761,"薶":7762,"薷":7763,"薹":7764,"薺":7765,"薻":7766,"薾":7767,"藁":7768,"藂":7769,"藉":7770,"藍":7771,"藎":7772,"藏":7773,"藐":7774,"藓":7775,"藕":7776,"藜":7777,"藝":7778,"藠":7779,"藢":7780,"藤":7781,"藥":7782,"藩":7783,"藪":7784,"藭":7785,"藯":7786,"藴":7787,"藶":7788,"藷":7789,"藸":7790,"藹":7791,"藺":7792,"藻":7793,"藿":7794,"蘄":7795,"蘅":7796,"蘆":7797,"蘇":7798,"蘊":7799,"蘋":7800,"蘑":7801,"蘖":7802,"蘗":7803,"蘘":7804,"蘚":7805,"蘝":7806,"蘞":7807,"蘢":7808,"蘩":7809,"蘭":7810,"蘯":7811,"蘶":7812,"蘸":7813,"蘼":7814,"蘿":7815,"虀":7816,"虂":7817,"虅":7818,"虊":7819,"虌":7820,"虎":7821,"虐":7822,"虒":7823,"虓":7824,"虔":7825,"處":7826,"虚":7827,"虛":7828,"虜":7829,"虞":7830,"號":7831,"虧":7832,"虫":7833,"虬":7834,"虯":7835,"虱":7836,"虵":7837,"虸":7838,"虹":7839,"虺":7840,"虻":7841,"虽":7842,"蚊":7843,"蚋":7844,"蚌":7845,"蚍":7846,"蚎":7847,"蚓":7848,"蚕":7849,"蚚":7850,"蚛":7851,"蚜":7852,"蚝":7853,"蚣":7854,"蚤":7855,"蚧":7856,"蚩":7857,"蚪":7858,"蚯":7859,"蚰":7860,"蚱":7861,"蚴":7862,"蚵":7863,"蚶":7864,"蚺":7865,"蛀":7866,"蛄":7867,"蛆":7868,"蛇":7869,"蛈":7870,"蛉":7871,"蛋":7872,"蛍":7873,"蛎":7874,"蛐":7875,"蛔":7876,"蛙":7877,"蛛":7878,"蛞":7879,"蛟":7880,"蛤":7881,"蛩":7882,"蛪":7883,"蛭":7884,"蛯":7885,"蛰":7886,"蛸":7887,"蛹":7888,"蛺":7889,"蛻":7890,"蛾":7891,"蜀":7892,"蜂":7893,"蜃":7894,"蜆":7895,"蜇":7896,"蜈":7897,"蜉":7898,"蜊":7899,"蜋":7900,"蜍":7901,"蜑":7902,"蜒":7903,"蜓":7904,"蜕":7905,"蜘":7906,"蜚":7907,"蜜":7908,"蜞":7909,"蜡":7910,"蜢":7911,"蜣":7912,"蜥":7913,"蜨":7914,"蜩":7915,"蜱":7916,"蜴":7917,"蜷":7918,"蜻":7919,"蜾":7920,"蜿":7921,"蝉":7922,"蝌":7923,"蝎":7924,"蝏":7925,"蝓":7926,"蝕":7927,"蝗":7928,"蝙":7929,"蝟":7930,"蝠":7931,"蝣":7932,"蝥":7933,"蝦":7934,"蝨":7935,"蝪":7936,"蝮":7937,"蝰":7938,"蝲":7939,"蝴":7940,"蝶":7941,"蝸":7942,"蝹":7943,"蝽":7944,"蝿":7945,"螁":7946,"螂":7947,"螃":7948,"螄":7949,"螅":7950,"螈":7951,"螊":7952,"融":7953,"螓":7954,"螗":7955,"螞":7956,"螟":7957,"螠":7958,"螢":7959,"螨":7960,"螫":7961,"螬":7962,"螭":7963,"螯":7964,"螲":7965,"螳":7966,"螵":7967,"螺":7968,"螻":7969,"螽":7970,"蟀":7971,"蟄":7972,"蟅":7973,"蟆":7974,"蟈":7975,"蟋":7976,"蟌":7977,"蟎":7978,"蟑":7979,"蟒":7980,"蟓":7981,"蟛":7982,"蟞":7983,"蟠":7984,"蟥":7985,"蟧":7986,"蟬":7987,"蟯":7988,"蟲":7989,"蟳":7990,"蟴":7991,"蟶":7992,"蟷":7993,"蟹":7994,"蟻":7995,"蟾":7996,"蠃":7997,"蠅":7998,"蠆":7999,"蠊":8000,"蠋":8001,"蠍":8002,"蠎":8003,"蠐":8004,"蠑":8005,"蠓":8006,"蠔":8007,"蠕":8008,"蠖":8009,"蠟":8010,"蠡":8011,"蠢":8012,"蠣":8013,"蠧":8014,"蠱":8015,"蠲":8016,"蠵":8017,"蠶":8018,"蠹":8019,"蠺":8020,"蠻":8021,"血":8022,"衄":8023,"衆":8024,"衊":8025,"行":8026,"衍":8027,"衑":8028,"術":8029,"衕":8030,"衖":8031,"街":8032,"衘":8033,"衙":8034,"衚":8035,"衛":8036,"衝":8037,"衞":8038,"衟":8039,"衡":8040,"衢":8041,"衣":8042,"衤":8043,"补":8044,"表":8045,"衩":8046,"衪":8047,"衫":8048,"衰":8049,"衲":8050,"衳":8051,"衷":8052,"衹":8053,"衼":8054,"衽":8055,"衾":8056,"衿":8057,"袁":8058,"袂":8059,"袃":8060,"袈":8061,"袋":8062,"袍":8063,"袐":8064,"袒":8065,"袓":8066,"袖":8067,"袗":8068,"袚":8069,"袛":8070,"袜":8071,"袝":8072,"袞":8073,"袢":8074,"袤":8075,"袪":8076,"被":8077,"袮":8078,"袱":8079,"袴":8080,"袷":8081,"袽":8082,"袿":8083,"裁":8084,"裂":8085,"装":8086,"裇":8087,"裉":8088,"裊":8089,"裎":8090,"裏":8091,"裔":8092,"裕":8093,"裖":8094,"裘":8095,"裙":8096,"補":8097,"裝":8098,"裞":8099,"裟":8100,"裡":8101,"裤":8102,"裦":8103,"裨":8104,"裩":8105,"裬":8106,"裮":8107,"裰":8108,"裱":8109,"裳":8110,"裴":8111,"裵":8112,"裸":8113,"裹":8114,"裼":8115,"製":8116,"裾":8117,"褀":8118,"褂":8119,"褆":8120,"複":8121,"褊":8122,"褋":8123,"褌":8124,"褐":8125,"褒":8126,"褓":8127,"褔":8128,"褕":8129,"褘":8130,"褙":8131,"褚":8132,"褟":8133,"褡":8134,"褣":8135,"褥":8136,"褪":8137,"褫":8138,"褭":8139,"褲":8140,"褳":8141,"褵":8142,"褶":8143,"褸":8144,"褺":8145,"褻":8146,"褽":8147,"襁":8148,"襂":8149,"襄":8150,"襇":8151,"襉":8152,"襌":8153,"襖":8154,"襝":8155,"襞":8156,"襟":8157,"襠":8158,"襤":8159,"襦":8160,"襧":8161,"襪":8162,"襬":8163,"襯":8164,"襲":8165,"西":8166,"要":8167,"覃":8168,"覆":8169,"覇":8170,"覈":8171,"覊":8172,"見":8173,"覎":8174,"規":8175,"覑":8176,"覒":8177,"覓":8178,"覔":8179,"視":8180,"覘":8181,"覙":8182,"覚":8183,"覤":8184,"覥":8185,"覦":8186,"覧":8187,"親":8188,"覬":8189,"覰":8190,"覲":8191,"観":8192,"覷":8193,"覺":8194,"覻":8195,"覽":8196,"觀":8197,"见":8198,"规":8199,"视":8200,"觉":8201,"角":8202,"觔":8203,"觘":8204,"觙":8205,"觚":8206,"觜":8207,"解":8208,"觥":8209,"触":8210,"觧":8211,"觨":8212,"觳":8213,"觴":8214,"觶":8215,"觸":8216,"言":8217,"訁":8218,"訂":8219,"訃":8220,"訇":8221,"計":8222,"訉":8223,"訊":8224,"訌":8225,"討":8226,"訐":8227,"訑":8228,"訒":8229,"訓":8230,"訕":8231,"訖":8232,"託":8233,"記":8234,"訛":8235,"訝":8236,"訟":8237,"訢":8238,"訣":8239,"訥":8240,"訧":8241,"訪":8242,"設":8243,"訮":8244,"許":8245,"訳":8246,"訴":8247,"訶":8248,"訸":8249,"診":8250,"註":8251,"証":8252,"訽":8253,"訾":8254,"詀":8255,"詁":8256,"詂":8257,"詅":8258,"詆":8259,"詈":8260,"詊":8261,"詋":8262,"詌":8263,"詎":8264,"詐":8265,"詑":8266,"詒":8267,"詔":8268,"評":8269,"詖":8270,"詗":8271,"詘":8272,"詚":8273,"詛":8274,"詞":8275,"詠":8276,"詡":8277,"詢":8278,"詣":8279,"試":8280,"詨":8281,"詩":8282,"詪":8283,"詫":8284,"詬":8285,"詭":8286,"詮":8287,"詰":8288,"話":8289,"該":8290,"詳":8291,"詵":8292,"詹":8293,"詼":8294,"詿":8295,"誀":8296,"誁":8297,"誅":8298,"誆":8299,"誇":8300,"誌":8301,"認":8302,"誏":8303,"誑":8304,"誒":8305,"誓":8306,"誔":8307,"誕":8308,"誘":8309,"誜":8310,"語":8311,"誟":8312,"誠":8313,"誡":8314,"誣":8315,"誤":8316,"誥":8317,"誦":8318,"誨":8319,"說":8320,"説":8321,"読":8322,"誰":8323,"誱":8324,"課":8325,"誹":8326,"誼":8327,"調":8328,"諂":8329,"諄":8330,"談":8331,"諈":8332,"諉":8333,"請":8334,"諌":8335,"諍":8336,"諎":8337,"諏":8338,"諒":8339,"論":8340,"諗":8341,"諘":8342,"諛":8343,"諜":8344,"諞":8345,"諠":8346,"諡":8347,"諢":8348,"諤":8349,"諦":8350,"諧":8351,"諪":8352,"諫":8353,"諭":8354,"諮":8355,"諱":8356,"諳":8357,"諴":8358,"諵":8359,"諶":8360,"諷":8361,"諸":8362,"諺":8363,"諼":8364,"諽":8365,"諾":8366,"謀":8367,"謁":8368,"謂":8369,"謄":8370,"謅":8371,"謉":8372,"謊":8373,"謌":8374,"謍":8375,"謎":8376,"謐":8377,"謔":8378,"謖":8379,"謗":8380,"謙":8381,"謚":8382,"講":8383,"謝":8384,"謞":8385,"謟":8386,"謠":8387,"謡":8388,"謢":8389,"謦":8390,"謨":8391,"謫":8392,"謬":8393,"謮":8394,"謳":8395,"謷":8396,"謹":8397,"謺":8398,"謾":8399,"譁":8400,"證":8401,"譎":8402,"譏":8403,"譓":8404,"譔":8405,"譕":8406,"譖":8407,"識":8408,"譙":8409,"譚":8410,"譛":8411,"譜":8412,"譟":8413,"譠":8414,"譥":8415,"警":8416,"譨":8417,"譩":8418,"譪":8419,"譫":8420,"譬":8421,"譭":8422,"譯":8423,"議":8424,"譲":8425,"譴":8426,"護":8427,"譸":8428,"譺":8429,"譽":8430,"讀":8431,"讃":8432,"讉":8433,"變":8434,"讌":8435,"讎":8436,"讐":8437,"讒":8438,"讓":8439,"讖":8440,"讚":8441,"讜":8442,"讞":8443,"计":8444,"认":8445,"讨":8446,"让":8447,"议":8448,"记":8449,"讲":8450,"许":8451,"论":8452,"设":8453,"访":8454,"诀":8455,"证":8456,"评":8457,"识":8458,"诉":8459,"诊":8460,"词":8461,"试":8462,"话":8463,"询":8464,"该":8465,"语":8466,"误":8467,"诱":8468,"说":8469,"诶":8470,"请":8471,"诺":8472,"课":8473,"谁":8474,"调":8475,"谅":8476,"谈":8477,"谓":8478,"谝":8479,"谢":8480,"谤":8481,"谬":8482,"谷":8483,"谿":8484,"豁":8485,"豆":8486,"豇":8487,"豈":8488,"豉":8489,"豊":8490,"豋":8491,"豌":8492,"豎":8493,"豐":8494,"豑":8495,"豔":8496,"豕":8497,"豚":8498,"象":8499,"豢":8500,"豦":8501,"豨":8502,"豪":8503,"豫":8504,"豬":8505,"豳":8506,"豸":8507,"豹":8508,"豺":8509,"豼":8510,"豿":8511,"貂":8512,"貅":8513,"貉":8514,"貌":8515,"貍":8516,"貎":8517,"貒":8518,"貓":8519,"貔":8520,"貘":8521,"貛":8522,"貝":8523,"貞":8524,"貟":8525,"負":8526,"財":8527,"貢":8528,"貧":8529,"貨":8530,"販":8531,"貪":8532,"貫":8533,"責":8534,"貭":8535,"貮":8536,"貯":8537,"貲":8538,"貳":8539,"貴":8540,"貶":8541,"買":8542,"貸":8543,"貹":8544,"貺":8545,"費":8546,"貼":8547,"貽":8548,"貿":8549,"賀":8550,"賁":8551,"賂":8552,"賃":8553,"賄":8554,"賅":8555,"資":8556,"賈":8557,"賊":8558,"賍":8559,"賑":8560,"賒":8561,"賓":8562,"賖":8563,"賙":8564,"賚":8565,"賛":8566,"賜":8567,"賝":8568,"賞":8569,"賠":8570,"賡":8571,"賢":8572,"賣":8573,"賤":8574,"賦":8575,"質":8576,"賬":8577,"賭":8578,"賴":8579,"賶":8580,"賸":8581,"賺":8582,"賻":8583,"購":8584,"賽":8585,"贄":8586,"贅":8587,"贇":8588,"贈":8589,"贊":8590,"贋":8591,"贍":8592,"贏":8593,"贒":8594,"贓":8595,"贔":8596,"贖":8597,"贗":8598,"贘":8599,"贛":8600,"贜":8601,"负":8602,"财":8603,"责":8604,"质":8605,"购":8606,"贯":8607,"贴":8608,"贵":8609,"贸":8610,"费":8611,"贼":8612,"资":8613,"赌":8614,"赏":8615,"赐":8616,"赔":8617,"赖":8618,"赚":8619,"赛":8620,"赞":8621,"赠":8622,"赢":8623,"赤":8624,"赥":8625,"赦":8626,"赧":8627,"赫":8628,"赭":8629,"走":8630,"赳":8631,"赴":8632,"赵":8633,"起":8634,"赸":8635,"赹":8636,"趁":8637,"趄":8638,"超":8639,"趆":8640,"趇":8641,"越":8642,"趋":8643,"趌":8644,"趐":8645,"趑":8646,"趕":8647,"趖":8648,"趙":8649,"趛":8650,"趜":8651,"趟":8652,"趣":8653,"趧":8654,"趨":8655,"趲":8656,"足":8657,"趴":8658,"趵":8659,"趺":8660,"趾":8661,"跂":8662,"跃":8663,"跆":8664,"跉":8665,"跋":8666,"跌":8667,"跎":8668,"跏":8669,"跑":8670,"跔":8671,"跖":8672,"跗":8673,"跘":8674,"跙":8675,"跚":8676,"跛":8677,"距":8678,"跟":8679,"跡":8680,"跤":8681,"跨":8682,"跩":8683,"跪":8684,"跬":8685,"路":8686,"跳":8687,"践":8688,"跺":8689,"踄":8690,"踅":8691,"踉":8692,"踊":8693,"踏":8694,"踐":8695,"踜":8696,"踝":8697,"踞":8698,"踟":8699,"踢":8700,"踦":8701,"踨":8702,"踩":8703,"踪":8704,"踫":8705,"踭":8706,"踮":8707,"踰":8708,"踱":8709,"踴":8710,"踵":8711,"踹":8712,"踺":8713,"踼":8714,"踽":8715,"蹀":8716,"蹁":8717,"蹂":8718,"蹃":8719,"蹄":8720,"蹆":8721,"蹇":8722,"蹈":8723,"蹉":8724,"蹊":8725,"蹋":8726,"蹌":8727,"蹎":8728,"蹓":8729,"蹕":8730,"蹙":8731,"蹚":8732,"蹛":8733,"蹝":8734,"蹟":8735,"蹠":8736,"蹣":8737,"蹤":8738,"蹦":8739,"蹧":8740,"蹩":8741,"蹬":8742,"蹭":8743,"蹱":8744,"蹲":8745,"蹴":8746,"蹶":8747,"蹺":8748,"蹻":8749,"蹼":8750,"蹽":8751,"躁":8752,"躂":8753,"躄":8754,"躅":8755,"躇":8756,"躉":8757,"躊":8758,"躋":8759,"躍":8760,"躑":8761,"躓":8762,"躕":8763,"躙":8764,"躚":8765,"躜":8766,"躝":8767,"躞":8768,"躡":8769,"躣":8770,"躥":8771,"躦":8772,"躪":8773,"身":8774,"躬":8775,"躭":8776,"躱":8777,"躲":8778,"躹":8779,"躺":8780,"躼":8781,"軀":8782,"車":8783,"軋":8784,"軌":8785,"軍":8786,"軎":8787,"軑":8788,"軒":8789,"軔":8790,"軛":8791,"軟":8792,"転":8793,"軫":8794,"軮":8795,"軰":8796,"軸":8797,"軻":8798,"軼":8799,"軽":8800,"軾":8801,"較":8802,"輅":8803,"載":8804,"輊":8805,"輌":8806,"輒":8807,"輓":8808,"輔":8809,"輕":8810,"輚":8811,"輛":8812,"輜":8813,"輝":8814,"輞":8815,"輟":8816,"輢":8817,"輥":8818,"輦":8819,"輨":8820,"輩":8821,"輪":8822,"輭":8823,"輯":8824,"輳":8825,"輸":8826,"輻":8827,"輾":8828,"輿":8829,"轂":8830,"轄":8831,"轅":8832,"轆":8833,"轉":8834,"轍":8835,"轎":8836,"轟":8837,"轡":8838,"轤":8839,"车":8840,"轨":8841,"转":8842,"轮":8843,"载":8844,"较":8845,"辈":8846,"辑":8847,"输":8848,"辛":8849,"辜":8850,"辞":8851,"辟":8852,"辣":8853,"辦":8854,"辧":8855,"辨":8856,"辩":8857,"辫":8858,"辬":8859,"辭":8860,"辮":8861,"辯":8862,"辰":8863,"辱":8864,"農":8865,"辵":8866,"辶":8867,"辷":8868,"边":8869,"辺":8870,"辻":8871,"込":8872,"辿":8873,"迁":8874,"迂":8875,"迄":8876,"迅":8877,"过":8878,"迌":8879,"迎":8880,"近":8881,"迓":8882,"返":8883,"迗":8884,"还":8885,"这":8886,"进":8887,"远":8888,"连":8889,"迢":8890,"迤":8891,"迥":8892,"迦":8893,"迨":8894,"迪":8895,"迫":8896,"迬":8897,"迭":8898,"述":8899,"迴":8900,"迶":8901,"迷":8902,"迸":8903,"迹":8904,"迺":8905,"迼":8906,"追":8907,"退":8908,"送":8909,"适":8910,"逃":8911,"逄":8912,"逅":8913,"逆":8914,"选":8915,"逍":8916,"逎":8917,"透":8918,"逐":8919,"逑":8920,"途":8921,"逕":8922,"逖":8923,"逗":8924,"這":8925,"通":8926,"逛":8927,"逝":8928,"逞":8929,"速":8930,"造":8931,"逡":8932,"逢":8933,"連":8934,"逤":8935,"逧":8936,"逨":8937,"逬":8938,"逭":8939,"逮":8940,"逯":8941,"週":8942,"進":8943,"逵":8944,"逶":8945,"逸":8946,"逹":8947,"逺":8948,"逼":8949,"逾":8950,"遁":8951,"遂":8952,"遅":8953,"遇":8954,"遈":8955,"遊":8956,"運":8957,"遍":8958,"過":8959,"遏":8960,"遐":8961,"遑":8962,"遒":8963,"道":8964,"達":8965,"違":8966,"遖":8967,"遗":8968,"遘":8969,"遙":8970,"遛":8971,"遜":8972,"遝":8973,"遞":8974,"遠":8975,"遢":8976,"遣":8977,"遥":8978,"遦":8979,"遨":8980,"適":8981,"遭":8982,"遮":8983,"遲":8984,"遴":8985,"遵":8986,"遶":8987,"遷":8988,"選":8989,"遺":8990,"遻":8991,"遼":8992,"遽":8993,"避":8994,"邀":8995,"邁":8996,"邂":8997,"邃":8998,"還":8999,"邅":9000,"邆":9001,"邇":9002,"邈":9003,"邉":9004,"邊":9005,"邋":9006,"邏":9007,"邐":9008,"邑":9009,"邓":9010,"邕":9011,"邗":9012,"邙":9013,"邛":9014,"邜":9015,"邠":9016,"邡":9017,"邢":9018,"那":9019,"邦":9020,"邨":9021,"邪":9022,"邮":9023,"邯":9024,"邰":9025,"邱":9026,"邳":9027,"邴":9028,"邵":9029,"邶":9030,"邸":9031,"邽":9032,"邾":9033,"郁":9034,"郃":9035,"郄":9036,"郅":9037,"郇":9038,"郊":9039,"郋":9040,"郎":9041,"郗":9042,"郜":9043,"郝":9044,"郞":9045,"郟":9046,"郡":9047,"郢":9048,"郤":9049,"部":9050,"郪":9051,"郫":9052,"郭":9053,"郯":9054,"郴":9055,"郵":9056,"郷":9057,"都":9058,"郿":9059,"鄂":9060,"鄆":9061,"鄉":9062,"鄒":9063,"鄔":9064,"鄕":9065,"鄖":9066,"鄙":9067,"鄚":9068,"鄜":9069,"鄞":9070,"鄠":9071,"鄢":9072,"鄣":9073,"鄥":9074,"鄧":9075,"鄫":9076,"鄭":9077,"鄯":9078,"鄰":9079,"鄱":9080,"鄲":9081,"鄴":9082,"鄺":9083,"酆":9084,"酈":9085,"酉":9086,"酊":9087,"酋":9088,"酌":9089,"配":9090,"酎":9091,"酏":9092,"酐":9093,"酒":9094,"酔":9095,"酖":9096,"酗":9097,"酙":9098,"酚":9099,"酛":9100,"酞":9101,"酡":9102,"酢":9103,"酣":9104,"酤":9105,"酥":9106,"酩":9107,"酪":9108,"酫":9109,"酬":9110,"酮":9111,"酯":9112,"酰":9113,"酵":9114,"酶":9115,"酷":9116,"酸":9117,"酹":9118,"酼":9119,"酿":9120,"醂":9121,"醃":9122,"醄":9123,"醅":9124,"醇":9125,"醉":9126,"醋":9127,"醌":9128,"醍":9129,"醎":9130,"醐":9131,"醒":9132,"醖":9133,"醚":9134,"醛":9135,"醜":9136,"醞":9137,"醡":9138,"醢":9139,"醣":9140,"醤":9141,"醪":9142,"醫":9143,"醬":9144,"醭":9145,"醮":9146,"醯":9147,"醰":9148,"醱":9149,"醳":9150,"醴":9151,"醵":9152,"醸":9153,"醹":9154,"醺":9155,"釀":9156,"釁":9157,"釂":9158,"釆":9159,"采":9160,"釈":9161,"釉":9162,"释":9163,"釋":9164,"里":9165,"重":9166,"野":9167,"量":9168,"釐":9169,"金":9170,"釔":9171,"釕":9172,"釗":9173,"釘":9174,"釙":9175,"釜":9176,"針":9177,"釡":9178,"釣":9179,"釦":9180,"釧":9181,"釩":9182,"釪":9183,"釬":9184,"釵":9185,"釷":9186,"釹":9187,"釺":9188,"鈀":9189,"鈁":9190,"鈃":9191,"鈄":9192,"鈅":9193,"鈈":9194,"鈉":9195,"鈊":9196,"鈍":9197,"鈎":9198,"鈐":9199,"鈑":9200,"鈔":9201,"鈕":9202,"鈘":9203,"鈚":9204,"鈜":9205,"鈞":9206,"鈡":9207,"鈣":9208,"鈥":9209,"鈦":9210,"鈧":9211,"鈮":9212,"鈰":9213,"鈳":9214,"鈴":9215,"鈷":9216,"鈸":9217,"鈹":9218,"鈺":9219,"鈽":9220,"鈾":9221,"鈿":9222,"鉀":9223,"鉁":9224,"鉄":9225,"鉅":9226,"鉆":9227,"鉈":9228,"鉉":9229,"鉋":9230,"鉍":9231,"鉎":9232,"鉏":9233,"鉐":9234,"鉑":9235,"鉗":9236,"鉚":9237,"鉛":9238,"鉞":9239,"鉠":9240,"鉢":9241,"鉤":9242,"鉦":9243,"鉨":9244,"鉬":9245,"鉭":9246,"鉱":9247,"鉲":9248,"鉸":9249,"鉺":9250,"鉻":9251,"鉾":9252,"鉿":9253,"銀":9254,"銂":9255,"銃":9256,"銅":9257,"銈":9258,"銉":9259,"銊":9260,"銌":9261,"銍":9262,"銎":9263,"銑":9264,"銓":9265,"銖":9266,"銘":9267,"銙":9268,"銚":9269,"銜":9270,"銠":9271,"銡":9272,"銢":9273,"銣":9274,"銥":9275,"銦":9276,"銧":9277,"銨":9278,"銩":9279,"銪":9280,"銫":9281,"銬":9282,"銭":9283,"銲":9284,"銳":9285,"銶":9286,"銷":9287,"銹":9288,"銻":9289,"銼":9290,"鋁":9291,"鋂":9292,"鋃":9293,"鋅":9294,"鋆":9295,"鋇":9296,"鋉":9297,"鋌":9298,"鋏":9299,"鋐":9300,"鋑":9301,"鋒":9302,"鋓":9303,"鋕":9304,"鋟":9305,"鋤":9306,"鋥":9307,"鋦":9308,"鋪":9309,"鋭":9310,"鋮":9311,"鋯":9312,"鋰":9313,"鋱":9314,"鋳":9315,"鋸":9316,"鋺":9317,"鋻":9318,"鋼":9319,"錀":9320,"錁":9321,"錂":9322,"錄":9323,"錆":9324,"錊":9325,"錏":9326,"錐":9327,"錒":9328,"錔":9329,"錕":9330,"錘":9331,"錙":9332,"錚":9333,"錛":9334,"錝":9335,"錞":9336,"錠":9337,"錡":9338,"錢":9339,"錤":9340,"錦":9341,"錨":9342,"錩":9343,"錫":9344,"錬":9345,"錮":9346,"錯":9347,"録":9348,"錳":9349,"錵":9350,"錶":9351,"錸":9352,"鍀":9353,"鍁":9354,"鍅":9355,"鍇":9356,"鍈":9357,"鍉":9358,"鍊":9359,"鍋":9360,"鍍":9361,"鍏":9362,"鍔":9363,"鍘":9364,"鍚":9365,"鍛":9366,"鍜":9367,"鍠":9368,"鍥":9369,"鍬":9370,"鍮":9371,"鍰":9372,"鍳":9373,"鍵":9374,"鍶":9375,"鍹":9376,"鍺":9377,"鍼":9378,"鍾":9379,"鎂":9380,"鎅":9381,"鎊":9382,"鎌":9383,"鎏":9384,"鎓":9385,"鎔":9386,"鎕":9387,"鎖":9388,"鎗":9389,"鎘":9390,"鎚":9391,"鎛":9392,"鎝":9393,"鎢":9394,"鎣":9395,"鎦":9396,"鎧":9397,"鎩":9398,"鎬":9399,"鎭":9400,"鎮":9401,"鎯":9402,"鎰":9403,"鎳":9404,"鎵":9405,"鎷":9406,"鎸":9407,"鏃":9408,"鏄":9409,"鏇":9410,"鏈":9411,"鏊":9412,"鏌":9413,"鏍":9414,"鏑":9415,"鏖":9416,"鏗":9417,"鏘":9418,"鏜":9419,"鏝":9420,"鏞":9421,"鏟":9422,"鏠":9423,"鏡":9424,"鏢":9425,"鏤":9426,"鏦":9427,"鏨":9428,"鏩":9429,"鏮":9430,"鏰":9431,"鏲":9432,"鏴":9433,"鏵":9434,"鏸":9435,"鏹":9436,"鏻":9437,"鏽":9438,"鏾":9439,"鐀":9440,"鐃":9441,"鐅":9442,"鐏":9443,"鐐":9444,"鐒":9445,"鐔":9446,"鐗":9447,"鐘":9448,"鐙":9449,"鐠":9450,"鐡":9451,"鐤":9452,"鐧":9453,"鐫":9454,"鐮":9455,"鐲":9456,"鐳":9457,"鐵":9458,"鐶":9459,"鐸":9460,"鐺":9461,"鐼":9462,"鐽":9463,"鐿":9464,"鑀":9465,"鑄":9466,"鑇":9467,"鑊":9468,"鑌":9469,"鑑":9470,"鑒":9471,"鑚":9472,"鑛":9473,"鑞":9474,"鑠":9475,"鑢":9476,"鑣":9477,"鑪":9478,"鑫":9479,"鑭":9480,"鑰":9481,"鑲":9482,"鑴":9483,"鑵":9484,"鑶":9485,"鑷":9486,"鑼":9487,"鑽":9488,"鑾":9489,"鑿":9490,"钅":9491,"针":9492,"钓":9493,"钙":9494,"钜":9495,"钞":9496,"钟":9497,"钢":9498,"钩":9499,"钱":9500,"铁":9501,"铃":9502,"铆":9503,"铜":9504,"铣":9505,"铤":9506,"银":9507,"铽":9508,"销":9509,"锅":9510,"锈":9511,"锋":9512,"错":9513,"锡":9514,"锣":9515,"键":9516,"镇":9517,"镊":9518,"镍":9519,"镑":9520,"镖":9521,"镜":9522,"镳":9523,"镶":9524,"長":9525,"长":9526,"門":9527,"閂":9528,"閃":9529,"閆":9530,"閈":9531,"閉":9532,"開":9533,"閎":9534,"閏":9535,"閑":9536,"閒":9537,"間":9538,"閔":9539,"閖":9540,"閘":9541,"閙":9542,"閜":9543,"閞":9544,"閠":9545,"閡":9546,"関":9547,"閣":9548,"閤":9549,"閥":9550,"閦":9551,"閧":9552,"閨":9553,"閩":9554,"閪":9555,"閬":9556,"閭":9557,"閰":9558,"閱":9559,"閲":9560,"閹":9561,"閻":9562,"閼":9563,"閾":9564,"闃":9565,"闆":9566,"闇":9567,"闈":9568,"闊":9569,"闋":9570,"闌":9571,"闍":9572,"闐":9573,"闔":9574,"闕":9575,"闖":9576,"闗":9577,"闘":9578,"闙":9579,"關":9580,"闞":9581,"闡":9582,"闢":9583,"闭":9584,"问":9585,"间":9586,"闻":9587,"阎":9588,"阚":9589,"阜":9590,"阝":9591,"阡":9592,"阢":9593,"阣":9594,"阧":9595,"阨":9596,"阪":9597,"阭":9598,"阮":9599,"阯":9600,"阱":9601,"防":9602,"阳":9603,"阴":9604,"阻":9605,"阿":9606,"陀":9607,"陂":9608,"附":9609,"际":9610,"陋":9611,"陌":9612,"降":9613,"陏":9614,"限":9615,"陔":9616,"陘":9617,"陛":9618,"陜":9619,"陝":9620,"陞":9621,"陟":9622,"陡":9623,"院":9624,"陣":9625,"除":9626,"陥":9627,"险":9628,"陪":9629,"陬":9630,"陮":9631,"陯":9632,"陰":9633,"陲":9634,"陳":9635,"陴":9636,"陵":9637,"陶":9638,"陷":9639,"陸":9640,"険":9641,"陽":9642,"隁":9643,"隂":9644,"隄":9645,"隅":9646,"隆":9647,"隈":9648,"隊":9649,"隋":9650,"隌":9651,"隍":9652,"階":9653,"随":9654,"隐":9655,"隔":9656,"隕":9657,"隗":9658,"隘":9659,"隙":9660,"際":9661,"障":9662,"隝":9663,"隠":9664,"隣":9665,"隧":9666,"隨":9667,"險":9668,"隫":9669,"隬":9670,"隮":9671,"隰":9672,"隱":9673,"隴":9674,"隷":9675,"隸":9676,"隹":9677,"隻":9678,"隼":9679,"隽":9680,"雀":9681,"雁":9682,"雃":9683,"雄":9684,"雅":9685,"集":9686,"雇":9687,"雉":9688,"雋":9689,"雌":9690,"雍":9691,"雎":9692,"雑":9693,"雕":9694,"雖":9695,"雙":9696,"雛":9697,"雜":9698,"雝":9699,"雞":9700,"離":9701,"難":9702,"雤":9703,"雧":9704,"雨":9705,"雩":9706,"雪":9707,"雫":9708,"雯":9709,"雰":9710,"雲":9711,"零":9712,"雷":9713,"雸":9714,"雹":9715,"電":9716,"需":9717,"霄":9718,"霆":9719,"震":9720,"霈":9721,"霉":9722,"霊":9723,"霍":9724,"霎":9725,"霏":9726,"霑":9727,"霓":9728,"霖":9729,"霙":9730,"霚":9731,"霜":9732,"霝":9733,"霞":9734,"霟":9735,"霧":9736,"霨":9737,"霪":9738,"霰":9739,"霱":9740,"露":9741,"霸":9742,"霹":9743,"霻":9744,"霽":9745,"霾":9746,"靂":9747,"靄":9748,"靆":9749,"靈":9750,"靉":9751,"靐":9752,"靑":9753,"青":9754,"靓":9755,"靖":9756,"静":9757,"靚":9758,"靛":9759,"靜":9760,"靝":9761,"非":9762,"靠":9763,"靡":9764,"面":9765,"靣":9766,"靦":9767,"靨":9768,"革":9769,"靭":9770,"靱":9771,"靳":9772,"靴":9773,"靶":9774,"靺":9775,"靼":9776,"鞄":9777,"鞅":9778,"鞆":9779,"鞊":9780,"鞋":9781,"鞍":9782,"鞏":9783,"鞕":9784,"鞘":9785,"鞠":9786,"鞣":9787,"鞤":9788,"鞥":9789,"鞦":9790,"鞧":9791,"鞨":9792,"鞫":9793,"鞭":9794,"鞲":9795,"鞴":9796,"韁":9797,"韃":9798,"韆":9799,"韋":9800,"韌":9801,"韐":9802,"韒":9803,"韓":9804,"韖":9805,"韙":9806,"韜":9807,"韞":9808,"韡":9809,"韭":9810,"韮":9811,"韱":9812,"音":9813,"韵":9814,"韶":9815,"韺":9816,"韻":9817,"韾":9818,"響":9819,"頁":9820,"頂":9821,"頃":9822,"項":9823,"順":9824,"頇":9825,"須":9826,"頊":9827,"頌":9828,"頎":9829,"預":9830,"頑":9831,"頒":9832,"頓":9833,"頔":9834,"頗":9835,"領":9836,"頜":9837,"頡":9838,"頣":9839,"頤":9840,"頦":9841,"頪":9842,"頬":9843,"頭":9844,"頰":9845,"頴":9846,"頵":9847,"頷":9848,"頸":9849,"頹":9850,"頻":9851,"頼":9852,"頽":9853,"顀":9854,"顁":9855,"顂":9856,"顄":9857,"顅":9858,"顆":9859,"顉":9860,"題":9861,"額":9862,"顎":9863,"顏":9864,"顓":9865,"顔":9866,"顕":9867,"顗":9868,"願":9869,"顙":9870,"顚":9871,"顛":9872,"類":9873,"顢":9874,"顥":9875,"顦":9876,"顧":9877,"顨":9878,"顪":9879,"顫":9880,"顯":9881,"顰":9882,"顱":9883,"顳":9884,"顴":9885,"项":9886,"顺":9887,"须":9888,"顾":9889,"颂":9890,"预":9891,"颅":9892,"领":9893,"颇":9894,"频":9895,"颗":9896,"题":9897,"颜":9898,"额":9899,"颠":9900,"颤":9901,"風":9902,"颩":9903,"颪":9904,"颮":9905,"颯":9906,"颱":9907,"颳":9908,"颴":9909,"颶":9910,"颷":9911,"颺":9912,"颼":9913,"颿":9914,"飄":9915,"飆":9916,"飇":9917,"飈":9918,"飊":9919,"风":9920,"飘":9921,"飙":9922,"飛":9923,"飞":9924,"食":9925,"飢":9926,"飥":9927,"飧":9928,"飩":9929,"飪":9930,"飫":9931,"飭":9932,"飮":9933,"飯":9934,"飱":9935,"飲":9936,"飴":9937,"飻":9938,"飼":9939,"飽":9940,"飾":9941,"餃":9942,"餄":9943,"餅":9944,"餉":9945,"養":9946,"餌":9947,"餎":9948,"餐":9949,"餑":9950,"餒":9951,"餓":9952,"餔":9953,"餖":9954,"餘":9955,"餙":9956,"餚":9957,"餛":9958,"餜":9959,"餞":9960,"餠":9961,"餡":9962,"餧":9963,"館":9964,"餬":9965,"餮":9966,"餲":9967,"餵":9968,"餸":9969,"餺":9970,"餽":9971,"餾":9972,"餿":9973,"饀":9974,"饂":9975,"饃":9976,"饅":9977,"饈":9978,"饉":9979,"饊":9980,"饋":9981,"饌":9982,"饍":9983,"饑":9984,"饒":9985,"饕":9986,"饗":9987,"饘":9988,"饙":9989,"饜":9990,"饞":9991,"饟":9992,"饡":9993,"饢":9994,"饭":9995,"饮":9996,"饰":9997,"馆":9998,"首":9999,"馗":10000,"馘":10001,"香":10002,"馜":10003,"馡":10004,"馥":10005,"馨":10006,"馫":10007,"馬":10008,"馭":10009,"馮":10010,"馰":10011,"馱":10012,"馳":10013,"馴":10014,"馽":10015,"馾":10016,"駀":10017,"駁":10018,"駄":10019,"駅":10020,"駆":10021,"駋":10022,"駌":10023,"駐":10024,"駑":10025,"駒":10026,"駔":10027,"駕":10028,"駘":10029,"駙":10030,"駛":10031,"駝":10032,"駟":10033,"駡":10034,"駢":10035,"駭":10036,"駱":10037,"駷":10038,"駻":10039,"駿":10040,"騁":10041,"騅":10042,"騆":10043,"騉":10044,"騌":10045,"騎":10046,"騏":10047,"騒":10048,"験":10049,"騖":10050,"騙":10051,"騜":10052,"騨":10053,"騫":10054,"騮":10055,"騰":10056,"騴":10057,"騷":10058,"騺":10059,"騼":10060,"騽":10061,"騾":10062,"驀":10063,"驁":10064,"驃":10065,"驄":10066,"驅":10067,"驆":10068,"驊":10069,"驌":10070,"驍":10071,"驎":10072,"驒":10073,"驕":10074,"驖":10075,"驗":10076,"驚":10077,"驛":10078,"驟":10079,"驢":10080,"驣":10081,"驤":10082,"驥":10083,"驩":10084,"驪":10085,"驫":10086,"马":10087,"驳":10088,"驻":10089,"驽":10090,"驾":10091,"骁":10092,"骑":10093,"骚":10094,"骤":10095,"骨":10096,"骯":10097,"骰":10098,"骶":10099,"骷":10100,"骸":10101,"骹":10102,"骺":10103,"骼":10104,"骽":10105,"骿":10106,"髁":10107,"髂":10108,"髃":10109,"髄":10110,"髈":10111,"髋":10112,"髎":10113,"髏":10114,"髑":10115,"髒":10116,"髓":10117,"體":10118,"髕":10119,"髖":10120,"髗":10121,"高":10122,"髙":10123,"髚":10124,"髢":10125,"髤":10126,"髥":10127,"髦":10128,"髪":10129,"髫":10130,"髭":10131,"髮":10132,"髯":10133,"髹":10134,"髺":10135,"髻":10136,"髽":10137,"鬃":10138,"鬆":10139,"鬈":10140,"鬉":10141,"鬍":10142,"鬏":10143,"鬓":10144,"鬙":10145,"鬚":10146,"鬛":10147,"鬟":10148,"鬢":10149,"鬣":10150,"鬥":10151,"鬦":10152,"鬧":10153,"鬨":10154,"鬩":10155,"鬪":10156,"鬫":10157,"鬮":10158,"鬯":10159,"鬰":10160,"鬱":10161,"鬲":10162,"鬻":10163,"鬼":10164,"魁":10165,"魂":10166,"魃":10167,"魄":10168,"魅":10169,"魆":10170,"魇":10171,"魈":10172,"魉":10173,"魍":10174,"魎":10175,"魏":10176,"魑":10177,"魔":10178,"魕":10179,"魘":10180,"魚":10181,"魞":10182,"魟":10183,"魠":10184,"魢":10185,"魨":10186,"魩":10187,"魬":10188,"魭":10189,"魯":10190,"魴":10191,"魷":10192,"魽":10193,"鮁":10194,"鮃":10195,"鮄":10196,"鮈":10197,"鮊":10198,"鮋":10199,"鮍":10200,"鮎":10201,"鮏":10202,"鮐":10203,"鮑":10204,"鮒":10205,"鮓":10206,"鮔":10207,"鮕":10208,"鮗":10209,"鮞":10210,"鮟":10211,"鮣":10212,"鮨":10213,"鮪":10214,"鮫":10215,"鮭":10216,"鮮":10217,"鮰":10218,"鮸":10219,"鮺":10220,"鯀":10221,"鯁":10222,"鯃":10223,"鯇":10224,"鯈":10225,"鯉":10226,"鯊":10227,"鯒":10228,"鯓":10229,"鯔":10230,"鯕":10231,"鯖":10232,"鯗":10233,"鯙":10234,"鯛":10235,"鯝":10236,"鯡":10237,"鯢":10238,"鯤":10239,"鯥":10240,"鯧":10241,"鯨":10242,"鯪":10243,"鯭":10244,"鯮":10245,"鯰":10246,"鯱":10247,"鯵":10248,"鯷":10249,"鯽":10250,"鯿":10251,"鰂":10252,"鰆":10253,"鰈":10254,"鰉":10255,"鰍":10256,"鰐":10257,"鰒":10258,"鰓":10259,"鰕":10260,"鰜":10261,"鰝":10262,"鰟":10263,"鰡":10264,"鰣":10265,"鰤":10266,"鰥":10267,"鰨":10268,"鰩":10269,"鰭":10270,"鰮":10271,"鰯":10272,"鰱":10273,"鰲":10274,"鰳":10275,"鰴":10276,"鰵":10277,"鰶":10278,"鰷":10279,"鰹":10280,"鰺":10281,"鰻":10282,"鰽":10283,"鰾":10284,"鱀":10285,"鱂":10286,"鱄":10287,"鱅":10288,"鱆":10289,"鱇":10290,"鱈":10291,"鱉":10292,"鱊":10293,"鱒":10294,"鱔":10295,"鱖":10296,"鱗":10297,"鱘":10298,"鱙":10299,"鱚":10300,"鱝":10301,"鱟":10302,"鱠":10303,"鱤":10304,"鱥":10305,"鱧":10306,"鱨":10307,"鱭":10308,"鱰":10309,"鱲":10310,"鱵":10311,"鱷":10312,"鱸":10313,"鱺":10314,"鱻":10315,"鱼":10316,"鱾":10317,"鱿":10318,"鲀":10319,"鲁":10320,"鲂":10321,"鲃":10322,"鲅":10323,"鲆":10324,"鲉":10325,"鲌":10326,"鲍":10327,"鲑":10328,"鲜":10329,"鲣":10330,"鲤":10331,"鲨":10332,"鲫":10333,"鲬":10334,"鲭":10335,"鲮":10336,"鲱":10337,"鲲":10338,"鲶":10339,"鲷":10340,"鲸":10341,"鲾":10342,"鳌":10343,"鳍":10344,"鳏":10345,"鳐":10346,"鳔":10347,"鳕":10348,"鳖":10349,"鳗":10350,"鳙":10351,"鳞":10352,"鳟":10353,"鳥":10354,"鳧":10355,"鳩":10356,"鳬":10357,"鳯":10358,"鳲":10359,"鳳":10360,"鳴":10361,"鳶":10362,"鳽":10363,"鳾":10364,"鴂":10365,"鴃":10366,"鴆":10367,"鴇":10368,"鴉":10369,"鴐":10370,"鴒":10371,"鴕":10372,"鴙":10373,"鴛":10374,"鴝":10375,"鴞":10376,"鴟":10377,"鴣":10378,"鴦":10379,"鴨":10380,"鴫":10381,"鴭":10382,"鴮":10383,"鴯":10384,"鴴":10385,"鴷":10386,"鴸":10387,"鴻":10388,"鴿":10389,"鵂":10390,"鵌":10391,"鵐":10392,"鵑":10393,"鵜":10394,"鵝":10395,"鵟":10396,"鵠":10397,"鵡":10398,"鵣":10399,"鵨":10400,"鵩":10401,"鵪":10402,"鵬":10403,"鵭":10404,"鵯":10405,"鵰":10406,"鵲":10407,"鵸":10408,"鵺":10409,"鶁":10410,"鶆":10411,"鶇":10412,"鶉":10413,"鶏":10414,"鶑":10415,"鶓":10416,"鶖":10417,"鶘":10418,"鶚":10419,"鶥":10420,"鶩":10421,"鶫":10422,"鶯":10423,"鶱":10424,"鶲":10425,"鶳":10426,"鶴":10427,"鶹":10428,"鶺":10429,"鶻":10430,"鶼":10431,"鶿":10432,"鷀":10433,"鷂":10434,"鷃":10435,"鷄":10436,"鷈":10437,"鷉":10438,"鷓":10439,"鷗":10440,"鷙":10441,"鷚":10442,"鷞":10443,"鷟":10444,"鷥":10445,"鷦":10446,"鷯":10447,"鷲":10448,"鷳":10449,"鷴":10450,"鷸":10451,"鷹":10452,"鷺":10453,"鷿":10454,"鸁":10455,"鸅":10456,"鸊":10457,"鸌":10458,"鸑":10459,"鸕":10460,"鸚":10461,"鸛":10462,"鸝":10463,"鸞":10464,"鸣":10465,"鸭":10466,"鸰":10467,"鸷":10468,"鹀":10469,"鹅":10470,"鹉":10471,"鹘":10472,"鹡":10473,"鹦":10474,"鹨":10475,"鹫":10476,"鹬":10477,"鹭":10478,"鹮":10479,"鹰":10480,"鹵":10481,"鹸":10482,"鹹":10483,"鹼":10484,"鹽":10485,"鹿":10486,"麂":10487,"麅":10488,"麈":10489,"麋":10490,"麒":10491,"麓":10492,"麕":10493,"麖":10494,"麗":10495,"麝":10496,"麟":10497,"麤":10498,"麥":10499,"麦":10500,"麩":10501,"麪":10502,"麫":10503,"麯":10504,"麴":10505,"麵":10506,"麶":10507,"麸":10508,"麹":10509,"麺":10510,"麻":10511,"麼":10512,"麽":10513,"麾":10514,"麿":10515,"黁":10516,"黃":10517,"黄":10518,"黇":10519,"黌":10520,"黍":10521,"黎":10522,"黏":10523,"黐":10524,"黑":10525,"黒":10526,"黔":10527,"黗":10528,"默":10529,"黙":10530,"黚":10531,"黛":10532,"黜":10533,"黝":10534,"點":10535,"黟":10536,"黠":10537,"黢":10538,"黣":10539,"黥":10540,"黦":10541,"黧":10542,"黨":10543,"黯":10544,"黴":10545,"黷":10546,"黹":10547,"黻":10548,"黼":10549,"黽":10550,"黿":10551,"鼇":10552,"鼈":10553,"鼉":10554,"鼋":10555,"鼎":10556,"鼐":10557,"鼓":10558,"鼔":10559,"鼖":10560,"鼙":10561,"鼟":10562,"鼠":10563,"鼩":10564,"鼬":10565,"鼯":10566,"鼰":10567,"鼱":10568,"鼴":10569,"鼷":10570,"鼹":10571,"鼻":10572,"鼽":10573,"鼾":10574,"齁":10575,"齊":10576,"齋":10577,"齏":10578,"齒":10579,"齗":10580,"齙":10581,"齜":10582,"齟":10583,"齡":10584,"齢":10585,"齣":10586,"齦":10587,"齧":10588,"齨":10589,"齪":10590,"齬":10591,"齰":10592,"齲":10593,"齵":10594,"齶":10595,"齷":10596,"齿":10597,"龄":10598,"龊":10599,"龌":10600,"龍":10601,"龎":10602,"龐":10603,"龑":10604,"龔":10605,"龕":10606,"龘":10607,"龙":10608,"龜":10609,"龝":10610,"龟":10611,"龢":10612,"龥":10613,"龫":10614,"龭":10615,"龴":10616,"늘":10617,"수":10618,"순":10619,"오":10620,"의":10621,"집":10622,"﨑":10623,"﻿":10624,"um":10625,"num":10626,"er":10627,"per":10628,"oc":10629,"loc":10630,"TE":10631,"TI":10632,"per0":10633,"or":10634,"org":10635,",<":10636,"en":10637,"LE":10638,"OR":10639,"ATE":10640,"loc0":10641,"per1":10642,"to":10643,"da":10644,"day":10645,"today":10646,"><":10647,"loc1":10648,"org0":10649,"01":10650,"et":10651,"AN":10652,"CO":10653,"AR":10654,"ME":10655,"EN":10656,"RE":10657,"MP":10658,"TLE":10659,"END":10660,"CLE":10661,"CATE":10662,"DATE":10663,"GOR":10664,"POR":10665,"TER":10666,"TIME":10667,"TITLE":10668,"TICLE":10669,"ettoday":10670,"ANY":10671,"COMP":10672,"ARTICLE":10673,"REPOR":10674,"CATEGOR":10675,"DATETIME":10676,"COMPANY":10677,"REPORTER":10678,"CATEGORY":10679,"201":10680,"、<":10681,">.":10682,">,":10683,"]<":10684,"表示":10685,",「":10686,"per2":10687,"。[":10688,"un":10689,"unk":10690,"loc2":10691,"」,":10692,">、<":10693,"org1":10694,"。」":10695,"記者":10696,"ET":10697,"自己":10698,">.<":10699,"ETtoday":10700,"沒有":10701,"「<":10702,"公司":10703,"per3":10704,"loc3":10705,"可以":10706,"/<":10707,"中心":10708,"」、":10709,"因為":10710,"..":10711,"。<":10712,"網友":10713,":<":10714,">/<":10715,"」、「":10716,"org2":10717,"不過":10718,"一個":10719,"時間":10720,":「":10721,"目前":10722,"就是":10723,"發生":10724,"per4":10725,"loc4":10726,"發現":10727,"已經":10728,"可能":10729,"國際":10730,"」。":10731,"我們":10732,"!」":10733,"指出":10734,"運動":10735,"生活":10736,">,<":10737,"希望":10738,"今年":10739,"民眾":10740,"認為":10741,"最後":10742,">」":10743,"因此":10744,"發言":10745,"進行":10746,"活動":10747,"報導":10748,"工作":10749,"開始":10750,"他們":10751,"現在":10752,"許多":10753,"第一":10754,"社會":10755,"org3":10756,"粉絲":10757,"雖然":10758,"不是":10759,"其他":10760,"當時":10761,"還有":10762,"大家":10763,"警方":10764,"還是":10765,"問題":10766,"除了":10767,"loc5":10768,"一名":10769,">-":10770,"看到":10771,"以及":10772,"per5":10773,"相當":10774,"2017":10775,"如果":10776,"真的":10777,"星光":10778,">、":10779,"為了":10780,"對於":10781,"政治":10782,"甚至":10783,"2019":10784,"一起":10785,"星光雲":10786,"什麼":10787,"不會":10788,"ETtoday星光雲":10789,"日前":10790,"非常":10791,"其中":10792,"都是":10793,"的人":10794,"這樣":10795,"2016":10796,"成為":10797,">。":10798,"市場":10799,"朋友":10800,"人員":10801,"世界":10802,">:<":10803,"所以":10804,"現場":10805,"影響":10806,"知道":10807,"也是":10808,"之後":10809,"總統":10810,"影片":10811,"這個":10812,"臉書":10813,"比賽":10814,"去年":10815,"政府":10816,"對方":10817,"未來":10818,"使用":10819,"運動雲":10820,"ETtoday運動雲":10821,"發言人":10822,"地方":10823,"也有":10824,"相關":10825,"覺得":10826,"人的":10827,"特別":10828,"根據":10829,"資料":10830,"機會":10831,"萬元":10832,"董事":10833,"提供":10834,"照片":10835,"透過":10836,"出現":10837,"無法":10838,"06":10839,"不少":10840,"男子":10841,"推出":10842,"同時":10843,"另外":10844,"學生":10845,"」<":10846,"其實":10847,"03":10848,"媒體":10849,"應該":10850,"造成":10851,"表現":10852,"關係":10853,"2015":10854,"包括":10855,"loc6":10856,"個月":10857,"02":10858,"不要":10859,"過去":10860,"由於":10861,"部分":10862,"安打":10863,"想到":10864,"12":10865,"本公司":10866,"04":10867,"的是":10868,"自己的":10869,"...":10870,"org4":10871,"以上":10872,"電影":10873,"per6":10874,"05":10875,"網路":10876,"接受":10877,"結果":10878,"球員":10879,"安全":10880,"持續":10881,"11":10882,"小時":10883,"調查":10884,"只是":10885,"這次":10886,"需要":10887,"起來":10888,"國家":10889,"對此":10890,"重要":10891,"2018":10892,">-<":10893,"事實":10894,"07":10895,"服務":10896,"狀況":10897,"兩人":10898,"媽媽":10899,"08":10900,"方式":10901,"一直":10902,"今天":10903,"加上":10904,"要求":10905,">:":10906,"他的":10907,"10":10908,"是否":10909,"很多":10910,"財經":10911,"強調":10912,"透露":10913,"超過":10914,"出來":10915,"一定":10916,"歲的":10917,"!<":10918,"說明":10919,"健康":10920,"一樣":10921,"只要":10922,"系統":10923,"發展":10924,"個人":10925,"決定":10926,"不同":10927,"設計":10928,"合作":10929,"獲得":10930,"?」":10931,"電話":10932,"09":10933,"消費":10934,"這些":10935,"規定":10936,"沒想到":10937,"受到":10938,"參加":10939,"時候":10940,"代表":10941,"節目":10942,"手機":10943,"分享":10944,"面對":10945,"球隊":10946,"市長":10947,"支持":10948,"教練":10949,"![":10950,"討論":10951,"大的":10952,"先發":10953,"則是":10954,"期間":10955,"這是":10956,"孩子":10957,"比較":10958,"下午":10959,"第二":10960,"直接":10961,"只有":10962,"喜歡":10963,"2014":10964,"選擇":10965,"投資":10966,"公開":10967,"地區":10968,"準備":10969,"有人":10970,"女兒":10971,"不能":10972,"處理":10973,"怎麼":10974,"針對":10975,"一次":10976,"2012":10977,"但是":10978,"新聞":10979,"舉辦":10980,"財經雲":10981,"ETtoday財經雲":10982,"經濟":10983,"更多":10984,"完成":10985,"日在":10986,"遊戲":10987,"冠軍":10988,"旅遊":10989,"回應":10990,"分鐘":10991,"擔任":10992,"都會":10993,"也不":10994,"了一":10995,"年的":10996,"好的":10997,"進入":10998,"上的":10999,"了解":11000,"loc7":11001,">「":11002,"增加":11003,"內容":11004,"至於":11005,"中的":11006,"完全":11007,"此外":11008,"億元":11009,"不僅":11010,"過程":11011,"負責":11012,"大陸":11013,"而且":11014,"所有":11015,"就會":11016,"繼續":11017,"必須":11018,"前往":11019,"女子":11020,"宣布":11021,"公告":11022,"不斷":11023,"成功":11024,"最近":11025,"身體":11026,"下來":11027,"的一":11028,"全球":11029,"能夠":11030,"導致":11031,"事件":11032,"消息":11033,"都有":11034,"國際中心":11035,"正式":11036,"per7":11037,"情況":11038,"。」[":11039,"不到":11040,"投手":11041,"引起":11042,"經過":11043,"研究":11044,"建議":11045,"原本":11046,"雙方":11047,"兒子":11048,"擁有":11049,"原因":11050,"預計":11051,"提到":11052,"結束":11053,"拍攝":11054,"當地":11055,"紛紛":11056,"上午":11057,"提出":11058,"畫面":11059,"或是":11060,"紀錄":11061,"通過":11062,"晚間":11063,"任何":11064,"也會":11065,"年輕":11066,"系列":11067,"寵物":11068,"行為":11069,"意外":11070,"計畫":11071,"突然":11072,"方面":11073,"這麼":11074,"主要":11075,"均由":11076,"我的":11077,"家人":11078,"成長":11079,"加入":11080,"訊息":11081,"org5":11082,"參與":11083,"業者":11084,"讓人":11085,"感覺":11086,"她的":11087,"演出":11088,"嚴重":11089,"環境":11090,"產品":11091,"接著":11092,"可愛":11093,"企業":11094,"留言":11095,"注意":11096,"立委":11097,"容易":11098,"兄弟":11099,"開心":11100,"拿下":11101,"在臉書":11102,"想要":11103,"品牌":11104,"小孩":11105,"醫院":11106,"符合":11107,"有一":11108,"出席":11109,"再度":11110,"努力":11111,"幫助":11112,"記者林":11113,"笑說":11114,"訓練":11115,"事情":11116,"經理":11117,"挑戰":11118,"近日":11119,"最高":11120,"傳出":11121,"協助":11122,"這種":11123,"醫師":11124,"小組":11125,"打擊":11126,"動物":11127,"執行":11128,"顯示":11129,"將在":11130,"音樂":11131,"引發":11132,"吸引":11133,"女友":11134,"今日":11135,"女性":11136,"後來":11137,"選手":11138,"一步":11139,"男友":11140,"之前":11141,">[":11142,",「<":11143,"」[":11144,"讓他":11145,"員工":11146,"分別":11147,"團隊":11148,"交易":11149,"loc8":11150,"事實發生":11151,"事實發生日":11152,"像是":11153,"一般":11154,"年來":11155,"人民":11156,"電視":11157,"根本":11158,"年度":11159,"事項":11160,"治療":11161,"國內":11162,"本季":11163,"確定":11164,"曝光":11165,"報告":11166,"擔心":11167,"美元":11168,"連續":11169,"駕駛":11170,"年前":11171,"才能":11172,"每天":11173,"搭配":11174,"舉行":11175,"取得":11176,"提醒":11177,"邀請":11178,"公布":11179,"更是":11180,"外界":11181,"的時候":11182,"如何":11183,"以來":11184,"?<":11185,"資訊":11186,"政策":11187,"單位":11188,"來說":11189,"之一":11190,"以為":11191,"金額":11192,"之外":11193,"感到":11194,"一點":11195,"結婚":11196,"第三":11197,"行動":11198,"文化":11199,"技術":11200,"學校":11201,"回家":11202,"目標":11203,"感謝":11204,"維持":11205,"對外":11206,"共同":11207,"終於":11208,"能力":11209,"立刻":11210,"附近":11211,"爸爸":11212,"這樣的":11213,"離開":11214,"管理":11215,"才會":11216,"開放":11217,"只能":11218,"是在":11219,"當天":11220,"主持":11221,"利用":11222,"委員":11223,"per8":11224,"員警":11225,"演唱":11226,"老師":11227,"另一":11228,"產業":11229,"期待":11230,"藝人":11231,"經驗":11232,"商品":11233,"網站":11234,"調整":11235,"。」<":11236,"資金":11237,"關注":11238,"竟然":11239,"最佳":11240,"展現":11241,"母親":11242,"遭到":11243,"知名":11244,"的大":11245,"也在":11246,"球迷":11247,"壓力":11248,"將於":11249,"股東":11250,"發表":11251,"順利":11252,"正在":11253,"東西":11254,"公尺":11255,"死亡":11256,"老公":11257,"積極":11258,"來自":11259,"隨後":11260,"董事長":11261,"穩定":11262,"保護":11263,"的小":11264,"]「":11265,"幾乎":11266,"到了":11267,"角色":11268,"價格":11269,"....":11270,"空間":11271,"製作":11272,"日期":11273,"警察":11274,"有些":11275,"成員":11276,"台幣":11277,"公里":11278,"都不":11279,"避免":11280,"讓她":11281,"家庭":11282,"是一":11283,"平均":11284,"機車":11285,"受傷":11286,"先前":11287,"最終":11288,"自由":11289,"不適":11290,"」。[":11291,"最新":11292,"規劃":11293,"賽事":11294,"科技":11295,"變成":11296,"相信":11297,"疑似":11298,"體驗":11299,"公佈":11300,"成績":11301,"最大":11302,"自然":11303,"動作":11304,"並且":11305,"提升":11306,"觀眾":11307,"統一":11308,"事後":11309,"團體":11310,"記者會":11311,"他說":11312,"他在":11313,"他也":11314,"會議":11315,"至今":11316,"一度":11317,"生涯":11318,"直到":11319,"日晚間":11320,"日起":11321,"一下":11322,"解決":11323,"專業":11324,"決議":11325,"財務":11326,"進一步":11327,"照顧":11328,"似乎":11329,"明顯":11330,"交通":11331,"申請":11332,"就有":11333,"申報":11334,"得到":11335,">」,":11336,"功能":11337,"免費":11338,"棒球":11339,"老闆":11340,"作品":11341,"如此":11342,"主席":11343,"所屬":11344,"不住":11345,"幫忙":11346,"的話":11347,"2013":11348,"議員":11349,"聯盟":11350,"回到":11351,"精神":11352,"左右":11353,"關鍵":11354,"歷史":11355,"記者陳":11356,"經典":11357,"包含":11358,"--":11359,"姓男子":11360,"感情":11361,"同樣":11362,"願意":11363,"攻擊":11364,"掌握":11365,"減少":11366,"來到":11367,"醫療":11368,"展開":11369,"下載":11370,"生命":11371,"穿著":11372,"父親":11373,"選舉":11374,"作為":11375,"措施":11376,"辦法":11377,"你們":11378,"令人":11379,"會有":11380,"需求":11381,"條款":11382,"咖啡":11383,"人士":11384,"來的":11385,"近期":11386,"教育":11387,"出賽":11388,"十分":11389,"呼籲":11390,"該公司":11391,"loc9":11392,"大學":11393,"不實":11394,"長期":11395,"召開":11396,"受訪":11397,"org6":11398,"總經理":11399,"壘打":11400,"高達":11401,"老婆":11402,"領先":11403,"」,<":11404,"主角":11405,"第一次":11406,"演員":11407,"選人":11408,"機場":11409,"檢查":11410,"保險":11411,"旅客":11412,"藝術":11413,"在地":11414,"日下午":11415,"一天":11416,"還要":11417,"籃球":11418,"整體":11419,"身上":11420,"女生":11421,"歡迎":11422,"新的":11423,"還在":11424,"清楚":11425,"遇到":11426,"少女":11427,"態度":11428,"導演":11429,"隨著":11430,"絕對":11431,"馬上":11432,"就能":11433,"名單":11434,"立即":11435,"至少":11436,"將會":11437,"休息":11438,"表演":11439,"打造":11440,"如有":11441,"~<":11442,"直呼":11443,"尤其":11444,"不知道":11445,"公斤":11446,"購買":11447,"找到":11448,"日上午":11449,"告訴":11450,"消費者":11451,"發文":11452,"身材":11453,"首度":11454,"晚上":11455,"改變":11456,"故事":11457,"不得":11458,"再次":11459,">/":11460,"外野":11461,"一年":11462,"明星":11463,"董事會":11464,"全壘打":11465,"都在":11466,"距離":11467,"銀行":11468,"一位":11469,"營業":11470,"質疑":11471,"優惠":11472,"帶著":11473,"反應":11474,"配合":11475,"聽到":11476,"明年":11477,"即將":11478,"全國":11479,"原來":11480,"達到":11481,"一場":11482,"改善":11483,"先生":11484,"分析":11485,"一些":11486,"看起來":11487,"推動":11488,"重新":11489,"食物":11490,"不好":11491,"事業":11492,"有機會":11493,"寵物雲":11494,"整個":11495,"首次":11496,"正常":11497,"安排":11498,"此次":11499,"公園":11500,"凌晨":11501,"不滿":11502,"價值":11503,"解釋":11504,"曾經":11505,"階段":11506,"有關":11507,"觀察":11508,"辦理":11509,"電子":11510,"當場":11511,"per9":11512,"當然":11513,"觀光":11514,"然而":11515,"對手":11516,"官方":11517,"發行":11518,"業務":11519,"不但":11520,"呈現":11521,"詢問":11522,"為主":11523,"狗狗":11524,"直播":11525,"工程":11526,"之間":11527,"職稱":11528,"下的":11529,"人氣":11530,"爆料":11531,"也讓":11532,"市府":11533,"如今":11534,"那麼":11535,"經紀":11536,"天氣":11537,"手術":11538,"因應":11539,"的心":11540,"本次":11541,"時代":11542,"就在":11543,"保證":11544,"總教練":11545,"經營":11546,"看了":11547,"身分":11548,"玩家":11549,"互動":11550,"高中":11551,"學習":11552,"支安打":11553,"到場":11554,"籃板":11555,"萬人":11556,"疫苗":11557,"到底":11558,"之規定":11559,"保持":11560,"幸福":11561,"情形":11562,"奧運":11563,":[":11564,"成立":11565,"ETtoday寵物雲":11566,"出的":11567,"而是":11568,"生活中心":11569,"三振":11570,"據了解":11571,"各種":11572,"法院":11573,">~<":11574,"表達":11575,"演唱會":11576,"女孩":11577,"符合條款":11578,"由本":11579,"指數":11580,"好友":11581,"緊急":11582,"虛偽":11583,"金融":11584,"認識":11585,"傳統":11586,"有限":11587,"畢業":11588,"危險":11589,".[":11590,"廣告":11591,"出一":11592,"的新":11593,"主旨":11594,"產生":11595,"造型":11596,"效果":11597,"比例":11598,"這一":11599,"敘明":11600,"城市":11601,"地點":11602,"現金":11603,"妻子":11604,"各公司":11605,"社會中心":11606,"結合":11607,"對外公佈":11608,"有點":11609,"發言時間":11610,"敘明事項":11611,"習慣":11612,"完整":11613,"現身":11614,"虛偽不實":11615,"符合條款第":11616,"該公司負責":11617,"發言人職稱":11618,"申報後":11619,"以上資料":11620,"發言人電話":11621,"責任":11622,"當時所屬":11623,"市場別":11624,"時尚":11625,"如有虛偽不實":11626,"由本系統":11627,"依發言":11628,"資料如有虛偽不實":11629,"均由各公司":11630,"均由該公司負責":11631,"之規定申報後":11632,"以上資料均由各公司":11633,"當時所屬市場別":11634,"由本系統對外公佈":11635,"依發言當時所屬市場別":11636,"以上資料均由各公司依發言當時所屬市場別":11637,"以上資料均由各公司依發言當時所屬市場別之規定申報後":11638,"主動":11639,"專家":11640,"網路上":11641,"網搜":11642,"同學":11643,"父母":11644,"應敘明事項":11645,"坦言":11646,"家屬":11647,"好好":11648,"消防":11649,"一路":11650,"體育":11651,"開幕":11652,"餐廳":11653,"力量":11654,"其他應敘明事項":11655,"多次":11656,"傷害":11657,"智慧":11658,"小心":11659,"情緒":11660,"過程中":11661,"確實":11662,"的照片":11663,"加油":11664,"也將":11665,"新台幣":11666,"標準":11667,"登場":11668,"下一":11669,"下去":11670,"加強":11671,"不錯":11672,"來看":11673,"他表示":11674,"開發":11675,"的方式":11676,"每年":11677,"並沒有":11678,"颱風":11679,"鼓勵":11680,"22":11681,"風險":11682,"很好":11683,"基本":11684,"的事":11685,"並不":11686,"為什麼":11687,"是因為":11688,"感動":11689,"來越":11690,"派出":11691,"方向":11692,"月底":11693,"交流":11694,"以前":11695,"不管":11696,"一定要":11697,"21":11698,"26":11699,"主人":11700,"公告本公司":11701,"越來越":11702,"合約":11703,"上班":11704,"25":11705,"狀態":11706,"實際":11707,"關心":11708,"場比賽":11709,"名稱":11710,"公分":11711,"不用":11712,"儘管":11713,"足球":11714,"看見":11715,"聲明":11716,"歌手":11717,"法人":11718,"訪問":11719,"19":11720,"20":11721,"24":11722,"營運":11723,"18":11724,"15":11725,"的問題":11726,"27":11727,"夫妻":11728,"在這":11729,"23":11730,"營收":11731,"忍不住":11732,"位置":11733,"道歉":11734,"控制":11735,"兩個":11736,"簡單":11737,"也能":11738,"交往":11739,"鏡頭":11740,"模樣":11741,"14":11742,"反而":11743,"還會":11744,"13":11745,"快速":11746,"人數":11747,"平台":11748,"眼睛":11749,"16":11750,"充滿":11751,"17":11752,"法官":11753,"肯定":11754,"這位":11755,"家中":11756,"上傳":11757,"作業":11758,"自行":11759,"屬於":11760,"有網友":11761,"確認":11762,"28":11763,"微博":11764,"統計":11765,"瞬間":11766,"位於":11767,"醫生":11768,"組織":11769,"製造":11770,"事實上":11771,"球場":11772,"季後":11773,"堅持":11774,"超級":11775,"以後":11776,"批評":11777,"飯店":11778,"不可":11779,"局下":11780,"數據":11781,"突破":11782,"風格":11783,"恢復":11784,"局上":11785,"全場":11786,"一同":11787,"遊客":11788,"的情況":11789,"保送":11790,"全面":11791,"各地":11792,"中央":11793,"貓咪":11794,"實在":11795,"loc10":11796,"大陸中心":11797,"衣服":11798,"行程":11799,"裡面":11800,"條件":11801,"銷售":11802,"全新":11803,"帶來":11804,"回來":11805,"就要":11806,"當中":11807,"也很":11808,"你的":11809,"太多":11810,"跟著":11811,"29":11812,"人在":11813,"拍照":11814,"得知":11815,"性侵":11816,"經常":11817,"投入":11818,"但他":11819,"值得":11820,"累積":11821,"然後":11822,"桃猿":11823,"社區":11824,"擊出":11825,"收到":11826,"陸續":11827,"的時間":11828,"通知":11829,"身為":11830,"騎士":11831,"宣傳":11832,"股份":11833,"這名":11834,"隨即":11835,"性感":11836,"可能會":11837,"主場":11838,"意見":11839,"希望能":11840,"做出":11841,"還沒":11842,"二壘":11843,"於是":11844,"逐漸":11845,"攝影":11846,"一段":11847,"緊張":11848,"粉絲團":11849,"最多":11850,"出道":11851,"主任":11852,"也要":11853,"政治中心":11854,"後的":11855,"感染":11856,"溝通":11857,"證明":11858,"大量":11859,"被問":11860,"中職":11861,"這段":11862,"綜合":11863,"隊友":11864,"主題":11865,"議題":11866,"性的":11867,"網搜小組":11868,"的好":11869,"趕緊":11870,"記者張":11871,"真的很":11872,"更加":11873,"下半":11874,"適合":11875,"項目":11876,"30":11877,"有效":11878,"重大":11879,"爭議":11880,"主管":11881,"拒絕":11882,"助攻":11883,"的她":11884,"資源":11885,"競爭":11886,"都很":11887,"享受":11888,"!」[":11889,"發布":11890,"不只":11891,"許多人":11892,"司機":11893,"南部":11894,"送醫":11895,"形象":11896,"達成":11897,"證實":11898,"總是":11899,"唯一":11900,"即使":11901,"見面":11902,"同意":11903,"車輛":11904,"行政":11905,"靠著":11906,"家裡":11907,"民生":11908,"白色":11909,"尚未":11910,"退休":11911,"重點":11912,"監視":11913,"上半":11914,"具有":11915,"曾在":11916,"就算":11917,"少年":11918,"黑色":11919,"國外":11920,"就可以":11921,"症狀":11922,"並未":11923,"患者":11924,"愛的":11925,"收入":11926,"家長":11927,"記者楊":11928,"全部":11929,"個性":11930,"提高":11931,"以下":11932,"月份":11933,"飛機":11934,"即時":11935,"飾演":11936,"都沒有":11937,"對象":11938,"平常":11939,"旅遊雲":11940,"ETtoday旅遊雲":11941,"降低":11942,"都能":11943,"排名":11944,"資格":11945,"有的":11946,"生日":11947,"毒品":11948,"停車":11949,"每次":11950,"尊重":11951,"建築":11952,"上市":11953,"per10":11954,"露出":11955,"的地方":11956,"早上":11957,"投票":11958,"集團":11959,"市民":11960,"擴大":11961,"職棒":11962,"停止":11963,"防禦":11964,"心情":11965,"-<":11966,"創作":11967,"男性":11968,"懷孕":11969,"爭取":11970,"特色":11971,"任務":11972,"放在":11973,"工作人員":11974,"親自":11975,"開車":11976,"食品":11977,"一開始":11978,"演藝":11979,"委員會":11980,"救援":11981,"北部":11982,"全力":11983,"面臨":11984,"出局":11985,"品質":11986,"org7":11987,"寶寶":11988,"共有":11989,"考慮":11990,"專輯":11991,"並非":11992,"謝謝":11993,"發出":11994,"一張":11995,"辛苦":11996,"之下":11997,"人生":11998,"貸與":11999,"聲音":12000,"賽後":12001,"名的":12002,"承認":12003,"一切":12004,"起訴":12005,"女星":12006,"美食":12007,"說是":12008,"生產":12009,"規模":12010,"也沒有":12011,"內的":12012,"案件":12013,"本來":12014,"得分":12015,"不適用":12016,"建設":12017,"牠們":12018,"抗議":12019,"廠商":12020,"千萬":12021,"法律":12022,"紀念":12023,"航空":12024,"速度":12025,"發揮":12026,"接下來":12027,"疫情":12028,"熱烈":12029,"不足":12030,"為何":12031,"預估":12032,"逮捕":12033,"常常":12034,"考量":12035,"電腦":12036,"上場":12037,"主持人":12038,"並在":12039,"接觸":12040,"真正":12041,"區域":12042,"可能是":12043,"別人":12044,"季後賽":12045,"違反":12046,"採用":12047,"太陽":12048,"敲出":12049,"地說":12050,"不想":12051,"兒童":12052,"機關":12053,"小朋友":12054,"貿易":12055,"偶像":12056,"限制":12057,"給予":12058,"三分":12059,"放棄":12060,"都要":12061,"後續":12062,"坦承":12063,"預期":12064,"印象":12065,"機構":12066,"地震":12067,"汽車":12068,"澄清":12069,"旅行":12070,"一隻":12071,"女神":12072,"是個":12073,"報警":12074,"程序":12075,"爆發":12076,"判決":12077,"變化":12078,"實施":12079,"的高":12080,"很有":12081,"表情":12082,"不敢":12083,"留下":12084,"哈哈":12085,"無奈":12086,"紅色":12087,"等人":12088,"每個":12089,"候選人":12090,"獨立":12091,"友人":12092,"輕鬆":12093,"店家":12094,"只見":12095,"對戰":12096,"舞台":12097,"道路":12098,"無論":12099,"她也":12100,"的他":12101,"受訪時":12102,"一旁":12103,"方案":12104,"垃圾":12105,"男人":12106,"變得":12107,"程度":12108,"出門":12109,"離婚":12110,"擊敗":12111,"丈夫":12112,"她說":12113,"多數":12114,"球季":12115,"坐在":12116,"費用":12117,"就像":12118,"參賽":12119,"妹妹":12120,"懷疑":12121,"介紹":12122,"接獲":12123,"即可":12124,"職業":12125,"疾病":12126,"通報":12127,"才是":12128,"新任":12129,"有限公司":12130,"愛情":12131,"大樓":12132,"只好":12133,"許多網友":12134,"實力":12135,"健康雲":12136,"近來":12137,"練習":12138,"律師":12139,"購物":12140,"出去":12141,"ETtoday健康雲":12142,"辦公":12143,"歌曲":12144,"第四":12145,"皮膚":12146,"基金":12147,"方法":12148,"乘客":12149,"模式":12150,"這項":12151,"分手":12152,"資金貸與":12153,"土地":12154,"報名":12155,"為止":12156,"保障":12157,"重要的":12158,"是不是":12159,"評估":12160,"史上":12161,"參選":12162,"典禮":12163,"設備":12164,"當下":12165,"報案":12166,"目的":12167,"做好":12168,"最大的":12169,"教授":12170,"站在":12171,"更有":12172,"身邊":12173,"豐富":12174,"合照":12175,"一家":12176,"昨天":12177,"車禍":12178,"女方":12179,"小姐":12180,"打點":12181,"娛樂":12182,"防禦率":12183,"仍有":12184,"營養":12185,"會在":12186,"on":12187,"中午":12188,"她們":12189,"回憶":12190,"男生":12191,"勝利":12192,"信心":12193,"彼此":12194,"類似":12195,"sh":12196,"打出":12197,"修正":12198,"範圍":12199,"監視器":12200,"shi":12201,"ashi":12202,"ashion":12203,"空氣":12204,"和平":12205,"剛好":12206,"國人":12207,"時期":12208,"帶領":12209,"背書":12210,"貢獻":12211,"fashion":12212,"ETfashion":12213,"也可以":12214,"已有":12215,"旁邊":12216,"還能":12217,"決賽":12218,"好像":12219,"三壘":12220,"loc11":12221,"她在":12222,"不知":12223,"也被":12224,"補助":12225,"新高":12226,"困難":12227,"房間":12228,"多元":12229,"居民":12230,"的事情":12231,"也有人":12232,"協議":12233,"否認":12234,"回答":12235,"公共":12236,"當初":12237,"優勢":12238,"快樂":12239,"談到":12240,"方便":12241,"不同的":12242,"想法":12243,"台灣":12244,"檢方":12245,"抵達":12246,"創意":12247,"完美":12248,"上一":12249,"感受":12250,"專案":12251,"對話":12252,"維護":12253,"內部":12254,"不再":12255,"依舊":12256,"恐怖":12257,"縣市":12258,"被害":12259,"年底":12260,"來源":12261,"出生":12262,"測試":12263,"文章":12264,"男女":12265,"指揮":12266,"我是":12267,">。[":12268,"臨時":12269,"?[":12270,"不了":12271,"承諾":12272,"人民幣":12273,"的民眾":12274,"形成":12275,"記者洪":12276,"長的":12277,"民主":12278,"保養":12279,"衛生":12280,"預算":12281,"反對":12282,"民生消費":12283,"日凌晨":12284,"客人":12285,"薪資":12286,"例如":12287,"數量":12288,"機率":12289,"勇士":12290,"失去":12291,"」、「<":12292,"裡的":12293,"婚姻":12294,"也說":12295,"建立":12296,"園區":12297,"檢察":12298,"社團":12299,"全身":12300,"影片中":12301,"創造":12302,"民調":12303,"背書保證":12304,"經歷":12305,"的機會":12306,"平時":12307,"存在":12308,"打算":12309,"人物":12310,"獎金":12311,"台北":12312,"必要":12313,"有沒有":12314,"通常":12315,"登記":12316,"官員":12317,"車站":12318,"就連":12319,"病毒":12320,"女人":12321,"飲料":12322,"......":12323,"但在":12324,"勞工":12325,"衝突":12326,"新奇":12327,"打開":12328,"年輕人":12329,"科學":12330,"在一起":12331,"院長":12332,"盈餘":12333,"因素":12334,"大型":12335,"共識":12336,"可是":12337,"依照":12338,"記者吳":12339,"經紀人":12340,"局長":12341,"過的":12342,"年齡":12343,"出發":12344,"的狀況":12345,"聯合":12346,"祝福":12347,"改革":12348,"年後":12349,"捷運":12350,"幾天":12351,"都沒":12352,"熱情":12353,"心的":12354,"球團":12355,"大約":12356,"這件":12357,"就被":12358,"多少":12359,"說法":12360,"就好":12361,"特地":12362,"也表示":12363,"」!":12364,"推薦":12365,"基礎":12366,"難以":12367,"還不":12368,"拿到":12369,"讓我":12370,"合併":12371,"慢慢":12372,"上網":12373,"他們的":12374,"話題":12375,"人類":12376,"記得":12377,"制度":12378,"年紀":12379,"高的":12380,"藉由":12381,"看完":12382,"記者李":12383,"可見":12384,"不少網友":12385,"威脅":12386,"路上":12387,"組成":12388,"破壞":12389,"我們的":12390,"弟弟":12391,"寫下":12392,"或許":12393,"青年":12394,"興趣":12395,"日的":12396,"失誤":12397,"精彩":12398,"社群":12399,"帶動":12400,"提前":12401,"氣氛":12402,"用戶":12403,"per11":12404,"事故":12405,"持股":12406,"相同":12407,"婚禮":12408,"相對":12409,"指控":12410,"特殊":12411,"直言":12412,"有趣":12413,"陷入":12414,"興奮":12415,"也沒":12416,"爆出":12417,"這場":12418,"姓名":12419,"開玩":12420,"禮物":12421,"大方":12422,"運用":12423,"危機":12424,"從事":12425,"我國":12426,"秘書":12427,"一定會":12428,"地方中心":12429,"禁止":12430,"瘋狂":12431,"拍到":12432,"飼主":12433,"大批":12434,"所幸":12435,"名字":12436,"蘋果":12437,"公益":12438,"夢想":12439,"線上":12440,"喜愛":12441,"獲利":12442,"董事會決議":12443,"概念":12444,"成本":12445,"車上":12446,"晉級":12447,"涉嫌":12448,"當年":12449,"據悉":12450,"重視":12451,"火箭":12452,"最好":12453,"依據":12454,"救護":12455,"接近":12456,"面的":12457,"最後一":12458,"限量":12459,"記者許":12460,"資產":12461,"徒刑":12462,"主辦":12463,"主委":12464,"名為":12465,"派出所":12466,"。「":12467,"料理":12468,"哥哥":12469,">!":12470,"相互":12471,"廁所":12472,"貼文":12473,"權益":12474,"的感覺":12475,"大小":12476,"海外":12477,"原則":12478,"不太":12479,"一邊":12480,"大選":12481,"女童":12482,"飲食":12483,"兩岸":12484,"被問到":12485,"隊長":12486,"領導":12487,"應該是":12488,"飛行":12489,"美麗":12490,"螢幕":12491,"大運":12492,"記者黃":12493,":「<":12494,"可惜":12495,"聖誕":12496,"可望":12497,"世界盃":12498,"真實":12499,"看著":12500,"大幅":12501,"生態":12502,"新聞雲":12503,"看好":12504,"終場":12505,"排除":12506,"很難":12507,"取消":12508,"審查":12509,"家的":12510,"阿嬤":12511,"補充":12512,"詐騙":12513,"掀起":12514,"還說":12515,"我覺得":12516,"客戶":12517,"肌膚":12518,"呼吸":12519,"受害":12520,"從小":12521,"酒店":12522,"婦人":12523,"啟動":12524,"永遠":12525,"上漲":12526,"卻被":12527,"流行":12528,"力的":12529,"負擔":12530,"在網路上":12531,"操作":12532,"對決":12533,"出面":12534,"地球":12535,"眾人":12536,"意識":12537,"歌迷":12538,"認定":12539,"店員":12540,"拿出":12541,"新增":12542,"自動":12543,"意義":12544,"現象":12545,"股份有限公司":12546,">。<":12547,"組合":12548,"都被":12549,"----":12550,"比率":12551,"選秀":12552,"族群":12553,"領域":12554,"若是":12555,"戲劇":12556,"住在":12557,"看看":12558,"大眾":12559,"天的":12560,"大會":12561,"售價":12562,"不少人":12563,"的外":12564,"在家":12565,"多年":12566,"等等":12567,"吃飯":12568,"失分":12569,"國民":12570,"辦公室":12571,"結束後":12572,"不及":12573,">::[":12574,"聯絡":12575,"股票":12576,"落後":12577,"創下":12578,"工業":12579,"大賽":12580,"出口":12581,"子的":12582,"支援":12583,"黃金":12584,"頭髮":12585,"次三振":12586,"等待":12587,"執政":12588,"國中":12589,"連勝":12590,"協會":12591,"上前":12592,"演藝圈":12593,"就醫":12594,"搭乘":12595,"無人":12596,"那個":12597,"股價":12598,"他是":12599,"都可以":12600,"的前":12601,"周邊":12602,"採取":12603,"傻眼":12604,"正確":12605,"見到":12606,"這裡":12607,"等到":12608,"時的":12609,"進步":12610,"超商":12611,"情侶":12612,"本身":12613,"清潔":12614,"犯罪":12615,"中華":12616,"意思":12617,"才發現":12618,"研發":12619,"即日起":12620,"仍然":12621,"最快":12622,"短短":12623,"引來":12624,"不論":12625,"上映":12626,"全案":12627,"旗下":12628,"回歸":12629,"讓網友":12630,"本屆":12631,"偵辦":12632,"高度":12633,"記者劉":12634,"錄影":12635,"人口":12636,"31":12637,"時許":12638,"不起":12639,"各界":12640,"支付":12641,"的表現":12642,"協商":12643,"心中":12644,"很大":12645,"山區":12646,"下車":12647,"自殺":12648,"睡覺":12649,"記者蔡":12650,"釐清":12651,"漂亮":12652,"一個人":12653,"的水":12654,"變動":12655,"在場":12656,"則說":12657,"證券":12658,"防守":12659,"的手":12660,"焦點":12661,"校園":12662,"總冠軍":12663,"賠償":12664,"提告":12665,"統一獅":12666,"有著":12667,"玻璃":12668,"嫌犯":12669,"將近":12670,"一種":12671,"播出":12672,"好奇":12673,"課程":12674,"公車":12675,"長達":12676,"英文":12677,"指定":12678,"打擊率":12679,"事發":12680,"!」、「":12681,"最低":12682,"戰績":12683,"者的":12684,"愛心":12685,"機制":12686,"有多":12687,"同步":12688,"顏色":12689,"販售":12690,"環保":12691,"整理":12692,"但她":12693,"嘗試":12694,"則表示":12695,"穿上":12696,"滿足":12697,"對上":12698,"檢察官":12699,"版本":12700,"趨勢":12701,"預測":12702,"工具":12703,"延長":12704,"有所":12705,"設施":12706,"代理":12707,"推特":12708,"移送":12709,"認真":12710,"不見":12711,"億美元":12712,"鄰居":12713,"org8":12714,"攻下":12715,"男方":12716,"創新":12717,"體重":12718,"聯繫":12719,"隨時":12720,"正面":12721,"暫時":12722,"初步":12723,"巨蛋":12724,"甜蜜":12725,"不佳":12726,"一事":12727,"浪漫":12728,"異動":12729,"心理":12730,"殺人":12731,"舒服":12732,"障礙":12733,"男童":12734,"民國":12735,"不一樣":12736,"用的":12737,"地址":12738,"真的是":12739,"門票":12740,"賽前":12741,"先是":12742,"防疫":12743,"我要":12744,"累計":12745,"接到":12746,"在臉書上":12747,"人才":12748,"住宅":12749,"我想":12750,"工廠":12751,"的影片":12752,"限定":12753,"立場":12754,"打者":12755,"loc12":12756,"新人":12757,"時刻":12758,"紛紛留言":12759,"欣賞":12760,"投球":12761,"與其他":12762,"子公司":12763,"確保":12764,"同事":12765,"萬美元":12766,"元的":12767,"不夠":12768,"!」<":12769,"而言":12770,"英雄":12771,"街頭":12772,"成了":12773,"很多人":12774,"出國":12775,"人家":12776,"該名":12777,"門口":12778,"依法":12779,"管制":12780,"也都":12781,"卻在":12782,"最好的":12783,"202":12784,"房子":12785,"繳出":12786,"出爐":12787,"上訴":12788,"家電":12789,"熱門":12790,"公務":12791,"並無":12792,"投資人":12793,"2021":12794,"打電話":12795,"代言":12796,"互相":12797,"成交":12798,"理由":12799,"資深":12800,"藥物":12801,"而在":12802,"溫暖":12803,"一手":12804,"釋出":12805,"的美":12806,"供應":12807,"本人":12808,"部長":12809,"劇情":12810,"春節":12811,"幸運":12812,"我會":12813,"清晨":12814,"設置":12815,"蛋糕":12816,"刺激":12817,"隊伍":12818,"路線":12819,"來了":12820,"景點":12821,"記錄":12822,"傷勢":12823,"害怕":12824,"崩潰":12825,"他人":12826,"罹患":12827,"策略":12828,"理事":12829,"世大運":12830,"截至":12831,"」。<":12832,"情人":12833,"酒駕":12834,"仍在":12835,"一個月":12836,"以往":12837,"而已":12838,"金牌":12839,"驚喜":12840,"媒報導":12841,"平安":12842,"同時也":12843,"中信":12844,"觀看":12845,"鎖定":12846,">」<":12847,"基地":12848,"中間":12849,"更新":12850,"大雨":12851,"百萬":12852,"當選":12853,"入圍":12854,"詳細":12855,"的朋友":12856,"思考":12857,"開出":12858,"幾年":12859,"強烈":12860,"下降":12861,"因應措施":12862,"陪伴":12863,"言論":12864,"慶祝":12865,"違規":12866,"迅速":12867,"此事":12868,"否則":12869,"想像":12870,"不停":12871,"東森":12872,"處分":12873,"公司名稱":12874,"隔天":12875,"很快":12876,"的生活":12877,"本土":12878,"他認為":12879,"底下":12880,"會員":12881,"便利":12882,"計劃":12883,"可愛的":12884,"關於":12885,"機器":12886,"一半":12887,"報表":12888,"計程":12889,"十足":12890,"句話":12891,"強化":12892,"中文":12893,"肚子":12894,"先發投手":12895,"不多":12896,"我就":12897,"畢竟":12898,"現代":12899,"損失":12900,"預告":12901,"在外":12902,"移動":12903,"爆炸":12904,"固定":12905,"相較":12906,"常會":12907,"也曾":12908,"死者":12909,"媒體報導":12910,"不料":12911,"進攻":12912,"確診":12913,"大讚":12914,"的工作":12915,"不小心":12916,"協調":12917,"後方":12918,"恐怕":12919,"聊天":12920,"形容":12921,"各項":12922,"雜誌":12923,"依然":12924,"宣告":12925,"服裝":12926,"一陣":12927,"數字":12928,"自我":12929,"激烈":12930,"一出":12931,"國內外":12932,"哪裡":12933,"給我":12934,"搶救":12935,"水果":12936,"搞笑":12937,"的原因":12938,"也就是":12939,"細節":12940,"的比賽":12941,"同仁":12942,"時表示":12943,"湖人":12944,"檢討":12945,"不如":12946,"滿滿":12947,"加盟":12948,"餘額":12949,"告知":12950,"日表示":12951,"per12":12952,"女主角":12953,"股利":12954,"軍事":12955,"同期":12956,"還有人":12957,"明天":12958,"設定":12959,"再加上":12960,"住民":12961,"開打":12962,"深夜":12963,"影劇":12964,"或者":12965,"消失":12966,"進口":12967,"會不會":12968,"評論":12969,"眾多":12970,"整合":12971,"稱讚":12972,"笑翻":12973,"肌肉":12974,"被害人":12975,"登上":12976,"證據":12977,"劇中":12978,"口味":12979,"部落":12980,"部份":12981,"事宜":12982,"的關係":12983,"權證":12984,"過來":12985,"應該要":12986,"正妹":12987,"的重要":12988,"健身":12989,"一間":12990,"拿著":12991,"條例":12992,"迎接":12993,"應用":12994,"目前已":12995,"角度":12996,"違法":12997,"單場":12998,"卻是":12999,"列車":13000,"一口":13001,"部門":13002,"近年來":13003,"爆紅":13004,"成果":13005,"採訪":13006,"初選":13007,"保留":13008,"首戰":13009,"強制":13010,"商業":13011,"尋找":13012,"計算":13013,"參考":13014,"不在":13015,"利率":13016,"趕快":13017,"助理":13018,"專屬":13019,"一人":13020,"近年":13021,"稱為":13022,"多人":13023,"利益":13024,"好幾":13025,"加碼":13026,"計程車":13027,"熱身":13028,"罪嫌":13029,"是否有":13030,"司法":13031,"扮演":13032,"路口":13033,"將他":13034,"那些":13035,"逆轉":13036,"攻勢":13037,"官網":13038,"檢驗":13039,"不明":13040,"上演":13041,"月初":13042,"主播":13043,"女網友":13044,"預防":13045,"帥氣":13046,"是一個":13047,"相處":13048,"動力":13049,"影劇中心":13050,"生的":13051,"軟體":13052,"更好":13053,"校長":13054,"身高":13055,"便宜":13056,"出現在":13057,"低調":13058,"論壇":13059,"身穿":13060,"帶回":13061,"短暫":13062,"這隻":13063,"深刻":13064,"也不會":13065,"賽季":13066,"志工":13067,"海洋":13068,"事務":13069,"排隊":13070,"長大":13071,"外交":13072,"的情況下":13073,"雙手":13074,"網友們":13075,"義大":13076,"廣場":13077,"體育中心":13078,"大概":13079,"行銷":13080,"這也是":13081,"藉此":13082,"百分":13083,"各國":13084,"路邊":13085,"不動":13086,"抱怨":13087,"不願":13088,"即便":13089,"結構":13090,"延續":13091,"每股":13092,"小的":13093,"舉動":13094,"讓你":13095,"不然":13096,"錯誤":13097,"太空":13098,"進而":13099,"還被":13100,"味道":13101,"股東會":13102,"花了":13103,"能量":13104,"推廣":13105,"旅館":13106,"競選":13107,"故意":13108,"財務報表":13109,"目擊":13110,"按摩":13111,"登板":13112,"集中":13113,"裝置":13114,"急救":13115,"試圖":13116,"水準":13117,"追求":13118,"車子":13119,"神經":13120,"的行為":13121,"是要":13122,"電動":13123,"權利":13124,"熱烈討論":13125,"暴力":13126,"二軍":13127,"大家都":13128,"頭部":13129,"此戰":13130,"第一個":13131,"的模樣":13132,"笑容":13133,"帳號":13134,"犀牛":13135,"球星":13136,"大多":13137,"加速":13138,"戀愛":13139,"每個人":13140,"升級":13141,"數位":13142,"閱讀":13143,"人選":13144,"誇張":13145,"使得":13146,"還可以":13147,"前來":13148,"但仍":13149,"武器":13150,"在今年":13151,"有了":13152,"的畫面":13153,"衝擊":13154,"找來":13155,"路人":13156,"規則":13157,"魅力":13158,"回饋":13159,"視為":13160,"進去":13161,"尷尬":13162,"寶貝":13163,"看法":13164,"就業":13165,"延伸":13166,"居然":13167,"看過":13168,"還好":13169,"跟我":13170,"亮眼":13171,"難得":13172,"有許多":13173,"溫度":13174,"給他":13175,"星期":13176,"會計":13177,"實驗":13178,"兩位":13179,"記憶":13180,"警方表示":13181,"就讀":13182,"力挺":13183,"所謂":13184,"生物":13185,"年代":13186,"儀式":13187,"差點":13188,"僅有":13189,"背後":13190,"滿意":13191,"上面":13192,"大部分":13193,"前進":13194,"涉及":13195,"難過":13196,"戀情":13197,"一旦":13198,"是由":13199,"病患":13200,">」、「":13201,"做的":13202,"早餐":13203,"秘書長":13204,"公社":13205,"地下":13206,"全家":13207,"就是要":13208,"新鮮":13209,"看來":13210,"落實":13211,"尤其是":13212,"經費":13213,"部位":13214,"交手":13215,"對抗":13216,"房屋":13217,"差距":13218,"車主":13219,"聯賽":13220,"千元":13221,"夜市":13222,"眼鏡":13223,"打破":13224,"拍戲":13225,"綠色":13226,"始終":13227,"]「<":13228,"公平":13229,"命中":13230,"意願":13231,"日在臉書":13232,"外資":13233,"授權":13234,"開玩笑":13235,"奪下":13236,"頒獎":13237,"又有":13238,"面積":13239,"失敗":13240,"實現":13241,"留在":13242,"的消息":13243,"高溫":13244,"寫道":13245,"一條":13246,"背景":13247,"職務":13248,"心臟":13249,"全世界":13250,"?」、「":13251,"記者王":13252,"區的":13253,"遺憾":13254,"門市":13255,"轉換":13256,"出了":13257,"奪冠":13258,"拍下":13259,"實習":13260,"發放":13261,"困擾":13262,"上任":13263,"談判":13264,"民間":13265,"專訪":13266,"感受到":13267,"資本":13268,"合理":13269,"熱議":13270,"送往":13271,"不久":13272,"並將":13273,"我很":13274,"動畫":13275,"把握":13276,"外型":13277,"關懷":13278,"報導指出":13279,"陣容":13280,"接種":13281,"緣由":13282,"追蹤":13283,"化的":13284,"持股比例":13285,"仔細":13286,">「<":13287,"屆時":13288,"熟悉":13289,"一片":13290,"促進":13291,"尋求":13292,"不可能":13293,"此時":13294,"局部":13295,"但也":13296,"公路":13297,"夥伴":13298,"多了":13299,"驚訝":13300,"日子":13301,"獨特":13302,"頻頻":13303,"招牌":13304,"只剩":13305,"並不是":13306,"執行長":13307,"做了":13308,"不幸":13309,"有時":13310,"樣子":13311,"守備":13312,"兩名":13313,"身份":13314,"超越":13315,"自主":13316,"亮相":13317,"個小時":13318,"心疼":13319,"可以看到":13320,"一輛":13321,"三大":13322,"國小":13323,"激動":13324,"財經中心":13325,"良好":13326,"說話":13327,"記者歐":13328,"參選人":13329,"物品":13330,"真是":13331,"引擎":13332,"自身":13333,"理想":13334,"私下":13335,"流浪":13336,"讓大家":13337,"車道":13338,"簽約":13339,"食材":13340,"議會":13341,"警員":13342,"太太":13343,"與公司":13344,"送出":13345,"化妝":13346,"當局":13347,"模特":13348,"出手":13349,"日前在":13350,"獨家":13351,"嬰兒":13352,"老人":13353,"百貨":13354,"娃娃":13355,"提案":13356,"藍色":13357,"包裝":13358,"作用":13359,"過了":13360,"天然":13361,"當作":13362,"轎車":13363,"弱勢":13364,"觀念":13365,"見的":13366,">,「":13367,"房價":13368,"早已":13369,"這對":13370,"是我":13371,"分打點":13372,"建智":13373,"戰力":13374,"好手":13375,"不容易":13376,"仟元":13377,"用餐":13378,"沒辦法":13379,"戰鬥":13380,"床上":13381,"記者歐建智":13382,"以外":13383,"昨日":13384,"有可能":13385,"訊後":13386,"半年":13387,"經紀公司":13388,"從來":13389,"熱身賽":13390,"算是":13391,"美女":13392,"痛批":13393,"有時候":13394,"火力":13395,"能在":13396,"所得":13397,"有個":13398,"定期":13399,"自拍":13400,"驚人":13401,"但我":13402,"股市":13403,"的確":13404,"國道":13405,"提名":13406,"薪水":13407,"讓粉絲":13408,"展示":13409,"得很":13410,"備受":13411,"路段":13412,"商店":13413,"後面":13414,"接連":13415,"時常":13416,"不出":13417,"貼心":13418,"自己是":13419,"此役":13420,"增資":13421,"主演":13422,"多的":13423,"男孩":13424,"宣導":13425,"夏天":13426,"政黨":13427,"前的":13428,"降雨":13429,"一看":13430,"一大":13431,"照片中":13432,"行經":13433,"日常":13434,"優先":13435,"這件事":13436,"彷彿":13437,"年級":13438,"通訊":13439,"loc13":13440,"開季":13441,"第一時間":13442,"發生緣由":13443,"認同":13444,"身心":13445,"姓女子":13446,"爸媽":13447,"樂觀":13448,"個案":13449,"吃到":13450,"重返":13451,"理事長":13452,"期徒刑":13453,"等級":13454,"自信":13455,"暫停":13456,"胸部":13457,"指導":13458,"全程":13459,"熱血":13460,"她表示":13461,"贏球":13462,"但卻":13463,"打球":13464,"犧牲":13465,"甜美":13466,"修法":13467,"外出":13468,"每日":13469,"的球員":13470,"兩天":13471,"每月":13472,"進場":13473,"任期":13474,"人們":13475,"護理":13476,"真相":13477,"生氣":13478,"例行":13479,"開啟":13480,"外套":13481,"痛苦":13482,"中信兄弟":13483,"單身":13484,"多久":13485,"才剛":13486,"最強":13487,"縣長":13488,"原先":13489,"各式":13490,"甚至還":13491,"發動":13492,"捕手":13493,"推出的":13494,"大聲":13495,"乾淨":13496,"明確":13497,"也可":13498,"貨車":13499,"普通":13500,"監督":13501,"保育":13502,"簡歷":13503,"點多":13504,"人力":13505,"發起":13506,"仍是":13507,"送到":13508,"上有":13509,"心裡":13510,"假日":13511,"面前":13512,"指標":13513,"模特兒":13514,"成熟":13515,"這起":13516,"退場":13517,"早在":13518,"優質":13519,"喊話":13520,"不治":13521,"業績":13522,"的態度":13523,"肇事":13524,"施打":13525,"回收":13526,"姐姐":13527,"還沒有":13528,"行李":13529,"過年":13530,"單純":13531,"的部分":13532,"下跌":13533,"早就":13534,"眼神":13535,">」。":13536,"轉型":13537,"特定":13538,"攜手":13539,"東區":13540,"秘密":13541,"可說是":13542,"部隊":13543,"發生在":13544,"主張":13545,"主打":13546,"主要是":13547,"核心":13548,"過世":13549,"世代":13550,"快訊":13551,"過度":13552,"大生":13553,"兩年":13554,"陪同":13555,"以免":13556,"家族":13557,"貼出":13558,"氣溫":13559,"分配":13560,"安心":13561,"運輸":13562,"約會":13563,"親子":13564,"海軍":13565,"與公司關係":13566,"減肥":13567,"一件":13568,"樂園":13569,"挑選":13570,"成的":13571,"大喊":13572,"我也":13573,"親友":13574,"為此":13575,"農業":13576,"記者賴":13577,"的不":13578,"果然":13579,"日於":13580,"空中":13581,"景氣":13582,"解除":13583,"入選":13584,"冷氣":13585,"過後":13586,"春訓":13587,"副總經理":13588,"洋基":13589,"男主角":13590,"只會":13591,"二壘安打":13592,"行駛":13593,"現任":13594,"並於":13595,"巧克":13596,"福利":13597,"嚇得":13598,"審理":13599,"簽名":13600,"連結":13601,"塑膠":13602,"究竟":13603,"震驚":13604,"合法":13605,"搜索":13606,"流感":13607,"判斷":13608,"一對":13609,"其他人":13610,"戶外":13611,"漫畫":13612,"姿勢":13613,"上述":13614,"靠近":13615,"決心":13616,"上升":13617,"參觀":13618,"臉上":13619,"per13":13620,"太大":13621,"攝取":13622,"退出":13623,"捐贈":13624,"也因此":13625,"許可":13626,"2011":13627,"刻意":13628,"運勢":13629,"自從":13630,"全數":13631,"影像":13632,"估計":13633,"到現在":13634,"厲害":13635,"攜帶":13636,"撞上":13637,"總裁":13638,"的女":13639,"設立":13640,"遭遇":13641,"培養":13642,"這款":13643,"公主":13644,"上周":13645,"現實":13646,"得獎":13647,"全隊":13648,"回去":13649,"相互持股比例":13650,"農曆":13651,"警方調查":13652,"的東西":13653,"監察":13654,"是他":13655,"遊戲雲":13656,"獲報":13657,"及簡歷":13658,"對著":13659,"是很":13660,"者姓名":13661,"教學":13662,"指示":13663,"設計師":13664,"身亡":13665,"考試":13666,"喝酒":13667,"校方":13668,"是什麼":13669,"在於":13670,"不已":13671,"打數":13672,"行車":13673,"元素":13674,"風波":13675,"象徵":13676,"自家":13677,"以上的":13678,"遊行":13679,"玩具":13680,"麵包":13681,"姊妹":13682,"各自":13683,"多名":13684,"忘記":13685,"是有":13686,"檢測":13687,"游泳":13688,"查獲":13689,"負責人":13690,"燃燒":13691,"視覺":13692,"的支持":13693,"劇組":13694,"持有":13695,"被網友":13696,"內衣":13697,"記者游":13698,"好了":13699,"看得":13700,"記者林悅":13701,"語言":13702,"巧克力":13703,"巨人":13704,"場地":13705,"出來的":13706,"理解":13707,"處於":13708,"這時":13709,"期望":13710,"人潮":13711,"盡量":13712,"綜藝":13713,"失控":13714,"車的":13715,"org9":13716,"還是要":13717,"3C":13718,"、「":13719,"直說":13720,"買賣":13721,"按照":13722,"變更":13723,"3C家電":13724,"害羞":13725,"一連":13726,"理念":13727,"導彈":13728,"同志":13729,"警告":13730,"天使":13731,"一份":13732,"巡邏":13733,"休閒":13734,"不對":13735,"回覆":13736,"有很多":13737,"規範":13738,"原住民":13739,"查詢":13740,"ETtoday遊戲雲":13741,"舒適":13742,"要在":13743,"基層":13744,"效力":13745,"讓他們":13746,"位在":13747,"正義":13748,"週年":13749,"具體":13750,"霸氣":13751,"傷口":13752,"一壘":13753,"住院":13754,"的就是":13755,"這次的":13756,"片中":13757,"我不":13758,"認證":13759,"失蹤":13760,"室內":13761,"接收":13762,"財產":13763,"創辦":13764,"票房":13765,"抱著":13766,"檢舉":13767,"追查":13768,"作戰":13769,"幽默":13770,"贏得":13771,"月中":13772,"優秀":13773,"各大":13774,"漲幅":13775,"發射":13776,"分別是":13777,"分別為":13778,"人體":13779,"企圖":13780,"有意":13781,"顧客":13782,"是為了":13783,"姊姊":13784,"下滑":13785,"開賣":13786,"首先":13787,"血管":13788,"連敗":13789,"森林":13790,"分為":13791,"讓民眾":13792,"才知道":13793,"毫無":13794,"相比":13795,"做到":13796,"美金":13797,"便當":13798,"描述":13799,"主力":13800,"短期":13801,"除此":13802,"了一個":13803,"下方":13804,"運作":13805,"高層":13806,"上路":13807,"嚴格":13808,"案例":13809,"唱歌":13810,"做為":13811,"到案":13812,"對他":13813,"提早":13814,"騷擾":13815,"上下":13816,"病人":13817,"修訂":13818,"幾個":13819,"錦賽":13820,"正是":13821,"他還":13822,"牛肉":13823,"不慎":13824,"引進":13825,"色的":13826,"會被":13827,"禮拜":13828,"也希望":13829,"諮詢":13830,"透明":13831,"其餘":13832,"生意":13833,"月的":13834,"神秘":13835,"飛彈":13836,"守護":13837,"自稱":13838,"躺在":13839,"舞蹈":13840,"預定":13841,"後就":13842,"小時候":13843,"騎車":13844,"不讓":13845,"了吧":13846,"獨自":13847,"公投":13848,"面上":13849,"送給":13850,"分的":13851,"長輩":13852,"被告":13853,"異常":13854,"除此之外":13855,">+":13856,"大戰":13857,"高興":13858,"但因為":13859,"不需要":13860,"則有":13861,"放鬆":13862,"航班":13863,"倒數":13864,"但因":13865,"展覽":13866,"吃的":13867,"專頁":13868,"內心":13869,"這部":13870,"團員":13871,"張照片":13872,"太過":13873,"收視":13874,"警消":13875,"的說":13876,"細胞":13877,"動態":13878,"工會":13879,"癌症":13880,"氛圍":13881,"型的":13882,"戰機":13883,"地位":13884,"中繼":13885,"小三":13886,"溫馨":13887,"白天":13888,"度的":13889,"影音":13890,"游擊":13891,"輔導":13892,"大膽":13893,"跨年":13894,"人工":13895,"付出":13896,"一軍":13897,"前後":13898,"下周":13899,"歷經":13900,"們的":13901,"留意":13902,"不捨":13903,"黨內":13904,"食用":13905,"知識":13906,"上台":13907,"未能":13908,"場上":13909,"日出席":13910,"答案":13911,"火腿":13912,"裝備":13913,"教頭":13914,"臉部":13915,"半部":13916,"其實是":13917,"醫學":13918,"間的":13919,"投出":13920,"了嗎":13921,"信用":13922,"球衣":13923,"氣勢":13924,"停車場":13925,"樣的":13926,"介入":13927,"空軍":13928,"金曲":13929,"帶給":13930,"睡眠":13931,"植物":13932,"疼痛":13933,"召開記者會":13934,"失望":13935,"簽下":13936,"樂團":13937,"幸好":13938,"大使":13939,"跑到":13940,"率先":13941,"滾地球":13942,"一時":13943,"已經有":13944,"男星":13945,"教師":13946,"現在的":13947,"!!":13948,"勇敢":13949,"調閱":13950,"住戶":13951,"顧問":13952,"牠的":13953,"驚呼":13954,"陽光":13955,"火鍋":13956,"我在":13957,"是誰":13958,"舉辦的":13959,"蛋白":13960,"阻止":13961,"可怕":13962,"表態":13963,"很大的":13964,"店內":13965,"上課":13966,"親密":13967,"節目中":13968,"獲勝":13969,"報到":13970,"進度":13971,"傳播":13972,"住處":13973,"暑假":13974,"深入":13975,"質詢":13976,"診斷":13977,"合計":13978,"稅後":13979,"平衡":13980,"也有網友":13981,"有助":13982,"重量":13983,"流傳":13984,"大哥":13985,"受邀":13986,"淘汰":13987,"差異":13988,"東森新聞":13989,"免費下載":13990,"幼兒":13991,"總計":13992,"嚇到":13993,"脂肪":13994,"難道":13995,"洋投":13996,"洗澡":13997,"恐嚇":13998,"走到":13999,"度過":14000,"場面":14001,"這就是":14002,"缺乏":14003,"之間的":14004,"右外野":14005,"打到":14006,"隊員":14007,"警局":14008,"手指":14009,"最重要":14010,"亞運":14011,"氣得":14012,"複雜":14013,"兩隊":14014,"壓制":14015,"再來":14016,"途中":14017,"納入":14018,"外國":14019,"年初":14020,"明星賽":14021,"讓自己":14022,">..":14023,"又被":14024,"團結":14025,"餐飲":14026,"的影響":14027,"老翁":14028,"當成":14029,"簽署":14030,"瞭解":14031,"等於":14032,"生效":14033,"之中":14034,"骨折":14035,"找不到":14036,"日將":14037,"頭的":14038,"亞洲":14039,"宇宙":14040,"獎項":14041,"處長":14042,"一顆":14043,"尖叫":14044,"節奏":14045,"不管是":14046,"敏感":14047,"交換":14048,"第五":14049,"上了":14050,"場景":14051,"海域":14052,"高速":14053,"收費":14054,"具備":14055,"電視台":14056,"新生":14057,"天天":14058,"從未":14059,"行的":14060,"契約":14061,"追平":14062,"則在":14063,"美國":14064,"和解":14065,"豪宅":14066,"世紀":14067,"周年":14068,"左外野":14069,"犯案":14070,"屍體":14071,"全都":14072,"新北":14073,"較為":14074,"座位":14075,"使用者":14076,"瘋傳":14077,"一致":14078,"奇怪":14079,"沒人":14080,"草案":14081,"答應":14082,"而他":14083,"嘴巴":14084,"救護車":14085,"東北":14086,"基準":14087,"房產":14088,"交給":14089,"天后":14090,"飛球":14091,"健保":14092,"所有人":14093,"就不":14094,"居住":14095,"不要再":14096,"出動":14097,"全民":14098,"前方":14099,"手上":14100,"文件":14101,"採購":14102,"青春":14103,"到現場":14104,"口感":14105,"的可能":14106,"的網友":14107,"學者":14108,"一手掌握":14109,"比起":14110,"適應":14111,"遺體":14112,"才有":14113,"性愛":14114,"會中":14115,"在大":14116,"帶有":14117,"頻道":14118,"成分":14119,"搜救":14120,"去年同期":14121,"農民":14122,"會讓":14123,"技巧":14124,"包包":14125,"打完":14126,"場的":14127,"口罩":14128,"麻煩":14129,"就已經":14130,"主辦單位":14131,"野生":14132,"以為是":14133,"的經驗":14134,"股東常會":14135,"年內":14136,"成年":14137,"主權":14138,"兩次":14139,"列為":14140,"能源":14141,"落在":14142,"紅襪":14143,"就開始":14144,"自己在":14145,"信任":14146,"期盼":14147,"競賽":14148,"有期徒刑":14149,"曝光後":14150,"一處":14151,"手臂":14152,"公民":14153,"禮服":14154,"桃園":14155,"假期":14156,"祭出":14157,"用品":14158,"與其他國內外":14159,"籃球訊息":14160,"取代":14161,"嘉賓":14162,"與其他國內外籃球訊息":14163,"但這":14164,"告白":14165,"賠率":14166,"loc14":14167,"寫著":14168,"的角色":14169,"的設計":14170,"最重要的":14171,"地上":14172,"示範":14173,"反映":14174,"號碼":14175,"致詞":14176,"不懂":14177,"疑慮":14178,"看似":14179,"徹底":14180,"文字":14181,"基於":14182,"急診":14183,"隊史":14184,"循環":14185,"主義":14186,"屁股":14187,"提及":14188,"開唱":14189,"成就":14190,"相機":14191,"返回":14192,"微笑":14193,"過往":14194,"查看":14195,"反彈":14196,"冠軍戰":14197,"五月":14198,"共計":14199,"私人":14200,"會長":14201,"上衣":14202,"合體":14203,"打扮":14204,"婦女":14205,"的車":14206,"上壘":14207,"戰略":14208,"日與":14209,"明明":14210,"妨害":14211,"判刑":14212,"氣象":14213,"連假":14214,"西裝":14215,"熱愛":14216,"賺錢":14217,"不分":14218,"的機率":14219,"首歌":14220,"專注":14221,"人事":14222,"另有":14223,"說要":14224,"上去":14225,"也許":14226,"附近的":14227,"美的":14228,"顯得":14229,"傳奇":14230,"巡迴":14231,"博士":14232,"不當":14233,"電梯":14234,"一群":14235,"復出":14236,"陣子":14237,"另一個":14238,"培訓":14239,"還是會":14240,"打線":14241,"診所":14242,"已在":14243,"沒有任何":14244,"中南部":14245,"紅包":14246,"跡象":14247,"的目標":14248,"到來":14249,"輩子":14250,"醫護":14251,"約有":14252,"聰明":14253,"會上":14254,"性別":14255,"黨主席":14256,"就以":14257,"三個":14258,"材質":14259,"羨慕":14260,"覺得很":14261,"派對":14262,"糾紛":14263,"溫泉":14264,"貸款":14265,"防治":14266,"牛棚":14267,"專線":14268,"子女":14269,"鄉民":14270,"稍早":14271,"普遍":14272,"中部":14273,"分數":14274,"上季":14275,"顯然":14276,"營造":14277,"漸漸":14278,"行情":14279,"經典賽":14280,"逗趣":14281,"光是":14282,"的第一":14283,"非法":14284,"求婚":14285,"風景":14286,"洋裝":14287,"被發現":14288,"居家":14289,"拍賣":14290,"無失分":14291,"考驗":14292,"過於":14293,"有什麼":14294,"法案":14295,"創業":14296,"穿搭":14297,"不排除":14298,"孩子的":14299,"換上":14300,"並以":14301,"玫瑰":14302,"搜尋":14303,"轉播":14304,"趁著":14305,"女學生":14306,"碰到":14307,"三星":14308,"前總統":14309,"在地上":14310,"長者":14311,"享有":14312,"萬元的":14313,"低溫":14314,"演技":14315,"金屬":14316,"總部":14317,"氣質":14318,"搶先":14319,"將是":14320,"陣中":14321,"過敏":14322,"一整":14323,"不舒服":14324,"重建":14325,"不良":14326,"火辣":14327,"就可":14328,"對我":14329,"按讚":14330,"震盪":14331,"青少年":14332,"一舉":14333,"登錄":14334,"下次":14335,"友善":14336,"大師":14337,"後發現":14338,"往往":14339,"內野":14340,"深受":14341,"的聲音":14342,"防護":14343,"車內":14344,"贊助":14345,"帳戶":14346,"開設":14347,"錯過":14348,"婚紗":14349,"傳聞":14350,"選民":14351,"兩國":14352,"前一":14353,"預賽":14354,"可以在":14355,"他命":14356,"per14":14357,"的老":14358,"錦標":14359,"大聯盟":14360,"默默":14361,"聯手":14362,"規格":14363,"商機":14364,"旅遊中心":14365,"無限":14366,"奶奶":14367,"含有":14368,"台上":14369,"本周":14370,"吞下":14371,"也相當":14372,"大腿":14373,"充分":14374,"足夠":14375,"強的":14376,"新一":14377,"的活動":14378,"免費下載新聞雲":14379,"年多":14380,"搭載":14381,"出戰":14382,"模仿":14383,"想起":14384,"首輪":14385,"下班":14386,"氣候":14387,"勝投":14388,"陣雨":14389,"創辦人":14390,"兩大":14391,"好評":14392,"的故事":14393,"訊息免費下載新聞雲":14394,"立法":14395,"若有":14396,"同一":14397,"出身":14398,"被打":14399,"火車":14400,"甜點":14401,"到期":14402,"日正式":14403,"找回":14404,"浪費":14405,"在此":14406,"將有":14407,"?」<":14408,"時光":14409,"紅燈":14410,"王子":14411,"高齡":14412,"一名男子":14413,"半夜":14414,"的那":14415,"但其實":14416,"戴著":14417,"左投":14418,"年金":14419,"攝影師":14420,"情人節":14421,"復健":14422,"評價":14423,"大獎":14424,"捐款":14425,"憂鬱":14426,"不時":14427,"之旅":14428,"」,「":14429,"還可":14430,"很久":14431,"智慧型":14432,"蔬菜":14433,"電視劇":14434,"日中午":14435,"研判":14436,"感嘆":14437,"更多的":14438,"無緣":14439,"進駐":14440,"檢警":14441,"吸收":14442,"病房":14443,"夫妻倆":14444,"場所":14445,"中外野":14446,"根本是":14447,"上陣":14448,"也因為":14449,"海上":14450,"聯名":14451,"長髮":14452,"效率":14453,"簡訊":14454,"監察人":14455,"錦標賽":14456,"及時":14457,"花費":14458,"聲稱":14459,"命中率":14460,"封鎖":14461,"物質":14462,"房市":14463,"血液":14464,"各位":14465,"月薪":14466,"比數":14467,"是最":14468,"後再":14469,"不行":14470,"選戰":14471,"全體":14472,"總共":14473,"就像是":14474,"不合":14475,"預約":14476,"多項":14477,"戰爭":14478,"簡直":14479,"外觀":14480,"危害":14481,"未來的":14482,"排行":14483,"也不是":14484,"這回":14485,"判處":14486,"時機":14487,"票選":14488,"訴求":14489,"軍團":14490,"逃逸":14491,"住宿":14492,"檢視":14493,"低於":14494,"要去":14495,"夫婦":14496,"保單":14497,"過戶":14498,"對方的":14499,"社群網站":14500,"內褲":14501,"體力":14502,"大笑":14503,"陌生":14504,"走了":14505,"就這樣":14506,"立勳":14507,"認購":14508,"記者陳立勳":14509,"棒的":14510,"通路":14511,"如同":14512,"是以":14513,"跟他":14514,"年增":14515,"希望大家":14516,"流動":14517,"的成績":14518,"電池":14519,"龍頭":14520,"此舉":14521,"多個":14522,"日至":14523,"訂單":14524,"走路":14525,"強勢":14526,"所有的":14527,"委託":14528,"警戒":14529,"罰金":14530,"盡快":14531,"所長":14532,"加班":14533,"用來":14534,"國防":14535,"次數":14536,"沒有人":14537,"怎麼辦":14538,"顆星":14539,"引起網友":14540,"基因":14541,"召集":14542,"說的":14543,"高級":14544,"相似":14545,"一支":14546,"增強":14547,"南下":14548,"走出":14549,"上班族":14550,"說明會":14551,"在微博":14552,"上週":14553,"將由":14554,"防止":14555,"現年":14556,"櫻花":14557,"有一個":14558,"者姓名及簡歷":14559,"說出":14560,"聚集":14561,"講話":14562,"教練團":14563,"個月的":14564,"承擔":14565,"脖子":14566,"堪稱":14567,"迎戰":14568,"並表示":14569,"偷拍":14570,"裁判":14571,"客運":14572,"年起":14573,"海岸":14574,"定位":14575,"里長":14576,"死刑":14577,"送上":14578,"寵物小組":14579,"會計師":14580,"看出":14581,"是否會":14582,"上半場":14583,"另一半":14584,"到處":14585,"因而":14586,"機票":14587,"新年":14588,"三分球":14589,"更換":14590,"打氣":14591,"今年的":14592,"喜歡的":14593,"掌握即時":14594,"日舉行":14595,"夢幻":14596,"小小":14597,"長相":14598,"病例":14599,"更好的":14600,"亮點":14601,"度假":14602,"的過程":14603,"最高的":14604,"熱鬧":14605,"走向":14606,"外媒報導":14607,"入境":14608,"怎樣":14609,">、、":14610,"終結":14611,"時代力量":14612,"化學":14613,"污染":14614,"身旁":14615,"電信":14616,"關閉":14617,"一名網友":14618,"興建":14619,"密切":14620,"管道":14621,"支全壘打":14622,"宛如":14623,"評審":14624,"不只是":14625,"今晚":14626,"直升":14627,"罰鍰":14628,"展出":14629,"傍晚":14630,"次保送":14631,"出血":14632,"一一":14633,"請求":14634,"之際":14635,"總統大選":14636,"受惠":14637,"受歡迎":14638,"市政":14639,"做法":14640,"冬季":14641,"動物園":14642,"但還是":14643,"不禁":14644,"會的":14645,"拜託":14646,"的愛":14647,"掌握即時訊息免費下載新聞雲":14648,"這麼多":14649,"在這裡":14650,"熱量":14651,">。」":14652,"年在":14653,"服飾":14654,"會後":14655,"編輯":14656,"發票":14657,"用心":14658,"而不是":14659,"日晚上":14660,"看電影":14661,"輸球":14662,"每一":14663,"添加":14664,"作家":14665,"年終":14666,"能否":14667,"意味":14668,"少了":14669,"記者杜":14670,"忘了":14671,".<":14672,"說道":14673,"表明":14674,"黃色":14675,"人都":14676,"姐妹":14677,"要有":14678,"當事":14679,"粉絲專頁":14680,"牛奶":14681,"將以":14682,"胞胎":14683,"子宮":14684,"腳步":14685,"出遊":14686,"全年":14687,"次的":14688,"博物":14689,"最愛":14690,"供稱":14691,"很開心":14692,"自爆":14693,"有望":14694,"站上":14695,"局被":14696,"在他":14697,"領導人":14698,"場合":14699,"黨團":14700,"月間":14701,"廣播":14702,"抱歉":14703,"後援":14704,"到的":14705,"領袖":14706,"腳踏":14707,"啤酒":14708,"正好":14709,"多位":14710,"招募":14711,"打席":14712,"偷偷":14713,"的國家":14714,"轉戰":14715,"反擊":14716,"精品":14717,"訴訟":14718,"就曾":14719,"北上":14720,"奕君":14721,"為了讓":14722,"記者杜奕君":14723,"更為":14724,"程式":14725,"負面":14726,"時段":14727,"的心情":14728,"核准":14729,"淇淋":14730,"信義":14731,"金馬":14732,"平日":14733,"不動產":14734,"宣佈":14735,"主管機關":14736,"收容":14737,"一早":14738,"完工":14739,"見狀":14740,"高峰":14741,"乖乖":14742,"激勵":14743,"廚房":14744,"已經是":14745,"勞動":14746,"義務":14747,"為例":14748,"的樣子":14749,"頂級":14750,"掉了":14751,"記者蕭":14752,"笑稱":14753,"名人":14754,"版的":14755,"將與":14756,"甚麼":14757,"小學":14758,"多達":14759,"連霸":14760,"震撼":14761,"一旁的":14762,"色彩":14763,"無論是":14764,"睽違":14765,"豪雨":14766,"每人":14767,"又是":14768,"施工":14769,"活潑":14770,"優雅":14771,"獎勵":14772,"走進":14773,"孩童":14774,"精緻":14775,"將持續":14776,"租金":14777,"待在":14778,"手的":14779,"法規":14780,"新興":14781,"點半":14782,"...<":14783,"求救":14784,"競業":14785,"年開始":14786,"返家":14787,"號召":14788,"飼養":14789,"個多":14790,"之戰":14791,"直擊":14792,"跑者":14793,"而她":14794,"不清楚":14795,"外線":14796,"當晚":14797,"線條":14798,"訪問時":14799,"入住":14800,"畫面中":14801,"的關鍵":14802,"大道":14803,"打了":14804,"都市":14805,"情況下":14806,"前面":14807,"熱火":14808,"療癒":14809,"製作人":14810,"頒獎典禮":14811,"增長":14812,"手法":14813,"擁抱":14814,"如果你":14815,"例行賽":14816,"商圈":14817,"還未":14818,"完全沒有":14819,"專門":14820,"禁區":14821,"婆婆":14822,"的學生":14823,"捕捉":14824,"維修":14825,"搭檔":14826,"民意":14827,"罷工":14828,"觀賞":14829,"歡樂":14830,"每週":14831,"驚傳":14832,"安慰":14833,"女的":14834,"差不多":14835,"受害者":14836,"博物館":14837,"即將在":14838,"公司的":14839,"點名":14840,"記者潘":14841,"稍微":14842,"宿舍":14843,"推測":14844,"打工":14845,"被人":14846,"車廂":14847,"沒事":14848,"一項":14849,"偵查":14850,"發佈":14851,"賣場":14852,"餐點":14853,"拿起":14854,"憤怒":14855,"衛星":14856,"馬拉":14857,"星人":14858,"美味":14859,"鋒面":14860,"直升機":14861,"洋將":14862,"富邦":14863,"血壓":14864,"提問":14865,"無辜":14866,"買了":14867,"慘遭":14868,"災害":14869,"國家的":14870,"配備":14871,"鼻子":14872,"增添":14873,"真正的":14874,"剛剛":14875,"珠寶":14876,"悍將":14877,"住家":14878,"案的":14879,"副總統":14880,"少數":14881,"男的":14882,"手中":14883,"適用":14884,"總理":14885,"會面":14886,"猜測":14887,"猥褻":14888,"超前":14889,"不少粉絲":14890,"高鐵":14891,"孕婦":14892,"圖片":14893,"隊的":14894,"打得":14895,"軍人":14896,"屋主":14897,"受理":14898,"劇本":14899,"緋聞":14900,"已於":14901,"夜店":14902,"藝術家":14903,"想說":14904,"夏季":14905,"日圓":14906,"日本":14907,"勤務":14908,"強度":14909,"兩人的":14910,"完全不":14911,"資料顯示":14912,"是一種":14913,"追問":14914,"本季第":14915,"長時間":14916,"開口":14917,"難度":14918,"原來是":14919,"的第":14920,"改編":14921,"之處":14922,"機器人":14923,"融入":14924,"來不及":14925,"國旗":14926,"我有":14927,"條文":14928,"適當":14929,"給你":14930,"貨幣":14931,"拿來":14932,"學長":14933,"推進":14934,"大多數":14935,"連署":14936,"纖維":14937,"類的":14938,"心態":14939,"日到":14940,"首長":14941,"停在":14942,"另一名":14943,"通緝":14944,"對不起":14945,"實在太":14946,"少棒":14947,"迄事實發生日":14948,"現行":14949,"東部":14950,"等地":14951,"腫瘤":14952,"季節":14953,"這份":14954,"魔術":14955,"入口":14956,"有民眾":14957,"無關":14958,"為由":14959,"受影響":14960,"打卡":14961,"的情":14962,"第一名":14963,"如下":14964,"鄉親":14965,"航線":14966,"後才":14967,"市區":14968,"詐欺":14969,"她是":14970,"投保":14971,"演講":14972,"一哥":14973,"開罰":14974,"昏迷":14975,"熱潮":14976,"大學生":14977,"一日":14978,"刪除":14979,"紅毯":14980,"目前在":14981,"天王":14982,"信用卡":14983,"缺席":14984,"商務":14985,"合一":14986,"吵架":14987,"保存":14988,"來回":14989,"期限":14990,"傳染":14991,"效應":14992,"誤會":14993,"觀測":14994,"曖昧":14995,"受損":14996,"標示":14997,"改為":14998,"發作":14999,"照護":15000,"預計在":15001,"的說法":15002,"感冒":15003,"大人":15004,"髮型":15005,"開會":15006,"汽油":15007,"爺爺":15008,"重傷":15009,"接任":15010,"更在":15011,"的中":15012,"酒測":15013,"記者周":15014,"班機":15015,"列入":15016,"org10":15017,"當日":15018,"他強調":15019,"既然":15020,"致死":15021,"東方":15022,"陸客":15023,"辯稱":15024,"法第":15025,"首局":15026,"相較於":15027,"啟用":15028,"收購":15029,"何時":15030,"嚴重的":15031,"國手":15032,"罕見":15033,"右手":15034,"起火":15035,"地區的":15036,"已經在":15037,"月起":15038,"吃了":15039,"截止":15040,"治安":15041,"指稱":15042,"一共":15043,"馬路":15044,"得以":15045,"人權":15046,"他和":15047,"網紅":15048,"記者會上":15049,"出貨":15050,"職場":15051,"辯論":15052,"國軍":15053,"給付":15054,"找出":15055,"改造":15056,"店面":15057,"提起":15058,"外籍":15059,"人次":15060,"科醫師":15061,"使用的":15062,"鐵路":15063,"抄截":15064,"討厭":15065,"兌換":15066,"錄音":15067,"類股":15068,"嚇壞":15069,"幅度":15070,"不上":15071,"讓我們":15072,"給她":15073,"同性":15074,"首位":15075,"毫不":15076,"不喜歡":15077,"轟出":15078,"倒地":15079,"有感":15080,"承受":15081,"一身":15082,"則為":15083,"犯規":15084,"連任":15085,"一句":15086,"心跳":15087,"獅隊":15088,"盡力":15089,"販賣":15090,"通通":15091,"一臉":15092,"曾被":15093,"loc15":15094,"特別是":15095,"公所":15096,"生下":15097,"散步":15098,"活力":15099,"分差":15100,"篩檢":15101,"開幕戰":15102,"吸毒":15103,"寫真":15104,"一波":15105,"般的":15106,"午餐":15107,"救災":15108,"本週":15109,"香蕉":15110,"恐慌":15111,"適時":15112,"球速":15113,"在去年":15114,"再見":15115,"釋放":15116,"支持者":15117,"自責":15118,"進帳":15119,"制服":15120,"沒多久":15121,"很少":15122,"合唱":15123,"關卡":15124,"日宣布":15125,"智慧型手機":15126,"軍方":15127,"應變":15128,"陽春":15129,"總監":15130,"充電":15131,"景觀":15132,"一系列":15133,"公寓":15134,"的表情":15135,"各個":15136,"女團":15137,"關節":15138,"這兩":15139,"開刀":15140,"有利":15141,"要讓":15142,"更正":15143,"母親節":15144,"代表人":15145,"甚至是":15146,"重的":15147,"婚後":15148,"射手":15149,"即日起至":15150,"前鋒":15151,"選出":15152,"房東":15153,"沙發":15154,"--------":15155,"配發":15156,"...[":15157,"學會":15158,"溫柔":15159,"鄰近":15160,"值得一":15161,"租屋":15162,"馬拉松":15163,"材料":15164,"晚餐":15165,"偶爾":15166,"這場比賽":15167,"的粉絲":15168,"示威":15169,"數十":15170,"無力":15171,"模擬":15172,"移民":15173,"第二次":15174,"拉開":15175,"還得":15176,"修改":15177,"的男子":15178,"表示自己":15179,"棒球場":15180,"形式":15181,"全新的":15182,"這天":15183,"談話":15184,"一審":15185,"錄製":15186,"的動作":15187,"會談":15188,"要不要":15189,"電競":15190,"受困":15191,"撞擊":15192,"也提到":15193,"小型":15194,"也特別":15195,"不該":15196,"早期":15197,"皇家":15198,"開轟":15199,"記者洪偵":15200,"在第":15201,"惡意":15202,"記者洪偵源":15203,"監獄":15204,"闖進":15205,"動手":15206,"吸睛":15207,"分局":15208,"知名度":15209,"步道":15210,"帶來的":15211,"竟是":15212,"剩下":15213,"萬名":15214,"正當":15215,"網球":15216,"也成為":15217,"強大":15218,"歧視":15219,"per15":15220,"地主":15221,"雙胞胎":15222,"給了":15223,"失業":15224,"也指出":15225,"每位":15226,"拆除":15227,"奪得":15228,"對比":15229,"舒帆":15230,"則以":15231,"悲劇":15232,"行徑":15233,"起床":15234,"遇上":15235,"公務員":15236,"豐富的":15237,"客家":15238,"分之":15239,"縣府":15240,"響應":15241,"戴上":15242,"裁定":15243,"幹嘛":15244,"記者楊舒帆":15245,"生病":15246,"的精神":15247,"型態":15248,"睿慈":15249,"被迫":15250,"予以":15251,"財政":15252,"向來":15253,"轉為":15254,"宣稱":15255,"下體":15256,"性交":15257,"戰術":15258,"隱藏":15259,"認為是":15260,"~~":15261,"草莓":15262,"西區":15263,"放閃":15264,"日公布":15265,"能讓":15266,"孩子們":15267,"耳朵":15268,"保費":15269,"碰上":15270,"記者吳睿慈":15271,"四大":15272,"工作的":15273,"仍未":15274,"免疫":15275,"眼淚":15276,"肩膀":15277,"牙齒":15278,"門檻":15279,"印象深刻":15280,"乾脆":15281,"的主":15282,"揭露":15283,"降至":15284,"美容":15285,"點閱":15286,"群眾":15287,"負債":15288,"曾有":15289,"轉移":15290,"不會有":15291,"預警":15292,"內閣":15293,"展望":15294,"空服":15295,"最近期":15296,"歲以上":15297,"遵守":15298,"向警方":15299,"聲請":15300,"手段":15301,"一口氣":15302,"不易":15303,"熱心":15304,"實質":15305,"辨識":15306,"器官":15307,"投訴":15308,"自行車":15309,"年僅":15310,"靈感":15311,"優異":15312,"就很":15313,"新歌":15314,"融合":15315,"日後":15316,"他與":15317,"替代":15318,"阿公":15319,"跑步":15320,"新專輯":15321,"見證":15322,"伴侶":15323,"後悔":15324,"調漲":15325,"外的":15326,"人妻":15327,"小巨蛋":15328,"遭受":15329,"大家的":15330,"珍珠":15331,"上車":15332,"類型":15333,"修復":15334,"保守":15335,"地面":15336,"每周":15337,"他會":15338,"力道":15339,"發電":15340,"落幕":15341,"身影":15342,"外表":15343,"工程師":15344,"被拍到":15345,"珍惜":15346,"播放":15347,"驕傲":15348,"新秀":15349,"迷你":15350,"毛毛":15351,"終止":15352,"生存":15353,"的海":15354,"收益":15355,"冬天":15356,"一面":15357,"逸群":15358,"支出":15359,"允許":15360,"下半年":15361,"虧損":15362,"淨值":15363,"首都":15364,"關稅":15365,"外送":15366,"不便":15367,"中有":15368,"穿越":15369,"台下":15370,"讓許多":15371,"油價":15372,"快艇":15373,"體系":15374,"奶茶":15375,"及其":15376,"替補":15377,"工人":15378,"小熊":15379,"法辦":15380,"離去":15381,"身分證":15382,"記者許逸群":15383,"支撐":15384,"邁入":15385,"文創":15386,"外面":15387,"實體":15388,"致力":15389,"名額":15390,"板凳":15391,"進球":15392,"不敵":15393,"影響到":15394,"在內":15395,"精采":15396,"週刊":15397,"監視器畫面":15398,"為期":15399,"賓士":15400,"行人":15401,"頭痛":15402,"其次":15403,"糖尿":15404,"撒嬌":15405,"但現在":15406,"褲子":15407,"手感":15408,"潮流":15409,"的狀態":15410,"隨便":15411,"看不":15412,"已是":15413,"延燒":15414,"代謝":15415,"她和":15416,"竊盜":15417,"深度":15418,"晶片":15419,"而出":15420,"步驟":15421,"上線":15422,"層樓":15423,"有興趣":15424,"日早上":15425,"勇氣":15426,"文中":15427,"不怕":15428,"左手":15429,"農場":15430,"冷靜":15431,"地板":15432,"的同時":15433,"求償":15434,"年時":15435,"報酬":15436,"的發展":15437,"捍衛":15438,"有些人":15439,"撞到":15440,"義大犀牛":15441,"本和":15442,"跳舞":15443,"世界上":15444,"體能":15445,"不大":15446,"回頭":15447,"卻又":15448,"競爭力":15449,"專心":15450,"出場":15451,"執法":15452,"王牌":15453,"領取":15454,"膝蓋":15455,"這不是":15456,"其中有":15457,"一把":15458,"彈性":15459,"萬的":15460,"起飛":15461,"。」、「":15462,"毆打":15463,"推特上":15464,"尺寸":15465,"會是":15466,"的環境":15467,"的位置":15468,"對她":15469,"默契":15470,"午後":15471,"護照":15472,"過去的":15473,"我都":15474,"基準日":15475,"夜間":15476,"歌詞":15477,"的想法":15478,"到達":15479,"的特":15480,"下雨":15481,"見面會":15482,"襯衫":15483,"清理":15484,"重心":15485,"帶走":15486,"壽險":15487,"主投":15488,"獅子":15489,"進來":15490,"值得一提":15491,"融化":15492,"試驗":15493,"過多":15494,"希望可以":15495,"債務":15496,"女大生":15497,"歸隊":15498,"也太":15499,"冒險":15500,"標的":15501,"軍武":15502,"開盤":15503,"一周":15504,"詮釋":15505,"案發":15506,"圖文":15507,"感恩":15508,"會場":15509,"如果有":15510,"先後":15511,"動員":15512,"收藏":15513,"開了":15514,"比較好":15515,"引發網友":15516,"體內":15517,"娛樂中心":15518,"當事人":15519,"豪華":15520,"備戰":15521,"淹水":15522,"一段時間":15523,"記者盧":15524,"放下":15525,"情勢":15526,"完畢":15527,"開槍":15528,"好朋友":15529,"性能":15530,"放心":15531,"往前":15532,"就把":15533,"逐步":15534,"場均":15535,"五月天":15536,"一頭":15537,"都相當":15538,"干擾":15539,"生素":15540,"大力":15541,"風味":15542,"殺害":15543,"要把":15544,"成人":15545,"湧入":15546,"不妨":15547,"重回":15548,"不過他":15549,"細菌":15550,"買回":15551,"後衛":15552,"保全":15553,"酒精":15554,"病情":15555,"科學家":15556,">」:":15557,"只想":15558,"就沒有":15559,"年間":15560,"邀約":15561,"人心":15562,"火勢":15563,"記者徐":15564,"卻沒有":15565,"潛力":15566,"上次":15567,"嗆聲":15568,"東半部":15569,"化身":15570,"手套":15571,"的相關":15572,"下台":15573,"求助":15574,"不堪":15575,"造勢":15576,"放上":15577,"準備好":15578,">?":15579,"打進":15580,"秋冬":15581,"服貿":15582,"單一":15583,"最近期財務報表":15584,"」?":15585,"傳言":15586,"巴士":15587,"沒什麼":15588,"陶本和":15589,"更能":15590,"多種":15591,"廢棄":15592,"不願意":15593,"肢體":15594,"交保":15595,"請辭":15596,"想過":15597,"也透露":15598,"作法":15599,"喚起":15600,"牛仔":15601,"目前已經":15602,"學院":15603,"氣息":15604,"遲遲":15605,"用了":15606,"目光":15607,"到醫院":15608,"日開始":15609,"兩種":15610,"未料":15611,"旗艦":15612,"貿易戰":15613,"較高":15614,"地的":15615,"另一方面":15616,"刑事":15617,"恐懼":15618,"徵才":15619,"資格賽":15620,"會再":15621,"相約":15622,"為人":15623,"樂趣":15624,"性格":15625,"低潮":15626,"的雙":15627,"但有":15628,"忙碌":15629,"中秋":15630,"化解":15631,"公開賽":15632,"抓到":15633,"法令":15634,"票價":15635,"氧化":15636,"?」[":15637,"日舉辦":15638,"藍綠":15639,"之餘":15640,"必須要":15641,"審議":15642,"聖誕節":15643,"的電影":15644,"休旅":15645,"賽程":15646,"對待":15647,"選區":15648,"造成的":15649,"隧道":15650,"被擊出":15651,"在現場":15652,"政府的":15653,"我知道":15654,"新品":15655,"學童":15656,"金錢":15657,"所需":15658,"性行為":15659,"這張":15660,"受訪時表示":15661,"無罪":15662,"已被":15663,"每個月":15664,"配上":15665,"酒後":15666,"台語":15667,"神奇":15668,"領養":15669,"萬人次":15670,"巨星":15671,"有機":15672,"氣球":15673,"圖案":15674,"相關的":15675,"醫護人員":15676,"好球":15677,"開門":15678,"值得一提的是":15679,"發炎":15680,"生理":15681,"隔壁":15682,"風潮":15683,"上門":15684,"佳績":15685,"單品":15686,"經由":15687,"皓惟":15688,"路皓惟":15689,"連鎖":15690,"任職":15691,"傷亡":15692,"控球":15693,"隔離":15694,"經理人":15695,"百年":15696,"倆口":15697,"設計的":15698,"集結":15699,"記者路皓惟":15700,"終於在":15701,"患有":15702,"煙火":15703,"的孩子":15704,"霸凌":15705,"告別":15706,"生活中":15707,"壞球":15708,"無線":15709,"廣大":15710,"上來":15711,"但由於":15712,"教室":15713,"一直在":15714,"但如果":15715,"滿壘":15716,"借款":15717,"鑑定":15718,"發燒":15719,"女王":15720,"男網友":15721,"中斷":15722,"服用":15723,"客車":15724,"之路":15725,"副市長":15726,"紅利":15727,"好想":15728,"失掉":15729,"領隊":15730,"一直以來":15731,"巨大":15732,"訂定":15733,"去看":15734,"受不了":15735,"技能":15736,"外傳":15737,"長得":15738,"為他":15739,"不像":15740,"大礙":15741,"汙染":15742,"歲時":15743,"糖尿病":15744,"他就":15745,"的風險":15746,"種類":15747,"導體":15748,"死了":15749,"在意":15750,"高於":15751,"重要決議":15752,"為主題":15753,"宗教":15754,"探索":15755,"多年來":15756,"很好的":15757,"堅定":15758,"記者陶本和":15759,"結局":15760,"而非":15761,"超高":15762,"哭了":15763,"曬出":15764,"接下":15765,"椅子":15766,"節目上":15767,"擔保":15768,"飛往":15769,"也跟著":15770,"地表示":15771,"熱血加入":15772,"專利":15773,"當時的":15774,"小倆口":15775,"施政":15776,"短片":15777,"上看":15778,"感的":15779,"法庭":15780,"級的":15781,"都非常":15782,"情報":15783,"進軍":15784,"舊任":15785,"」:":15786,"我真的":15787,"因為他":15788,"機械":15789,"減輕":15790,"率領":15791,"真人":15792,"籃球瘋":15793,"行業":15794,"月在":15795,"成效":15796,"限時":15797,"失智":15798,"之稱":15799,"的效果":15800,"說過":15801,"不論是":15802,"的安全":15803,"傷者":15804,"股權":15805,"四強":15806,"黨籍":15807,"演習":15808,"犯行":15809,"冰淇淋":15810,"盤中":15811,"出色":15812,"存款":15813,"中國":15814,"流程":15815,"半小時":15816,"周圍":15817,"現階段":15818,"怡杼":15819,"期許":15820,"金鐘":15821,"記者蔡怡杼":15822,"一帶":15823,"腹部":15824,"爭執":15825,"甚至有":15826,"上半年":15827,"...」":15828,"機能":15829,"籌備":15830,"不顧":15831,"暴龍":15832,"先進":15833,"的人生":15834,"預購":15835,"天後":15836,"幹部":15837,"幫他":15838,"政見":15839,"常見":15840,"落敗":15841,"重申":15842,"半導體":15843,"事先":15844,"低頭":15845,"式的":15846,"權力":15847,"上限":15848,"一堆":15849,"多處":15850,"影迷":15851,"老將":15852,"相關單位":15853,"空服員":15854,"衣物":15855,"影展":15856,"遊玩":15857,"這支":15858,"不定":15859,"補給":15860,"登革":15861,"!「":15862,"的天氣":15863,"簽證":15864,"開跑":15865,"不過在":15866,"勢必":15867,"稽查":15868,"ETtoday房產":15869,"ETtoday房產雲":15870,"位數":15871,"第六":15872,"價差":15873,"樂天":15874,"輔助":15875,"有局部":15876,"秩序":15877,"炸彈":15878,"虛擬":15879,"耶誕":15880,"在網路":15881,"大門":15882,"走在":15883,"的空間":15884,"注意到":15885,"那是":15886,"下半場":15887,"可達":15888,"開球":15889,"慢性":15890,"初期":15891,"粉紅":15892,"封為":15893,"很容易":15894,"據點":15895,"開賽":15896,"完善":15897,"簡單的":15898,"月時":15899,"整個人":15900,"災情":15901,"改選":15902,"警力":15903,"那邊":15904,"無數":15905,"招呼":15906,"前陣子":15907,"務必":15908,"日職":15909,"綜藝節目":15910,"事前":15911,"小貓":15912,"手工":15913,"分領先":15914,"唱片":15915,"工資":15916,"趁機":15917,"你是":15918,"男神":15919,"愛犬":15920,"官兵":15921,"我沒有":15922,"行列":15923,"幕後":15924,"天空":15925,"前輩":15926,"場先發":15927,"的內容":15928,"送辦":15929,"閃電":15930,"有錢":15931,"日清晨":15932,"田暐":15933,"她還":15934,"跟你":15935,"田暐瑋":15936,"老鼠":15937,"老闆娘":15938,"分泌":15939,"從此":15940,"擔憂":15941,"處女":15942,"基本上":15943,"民宅":15944,"傳承":15945,"衛冕":15946,"羈押":15947,"可憐":15948,"吃完":15949,"堅強":15950,"補強":15951,"連線":15952,"指甲":15953,"風暴":15954,"的紀錄":15955,"航母":15956,"記者田暐瑋":15957,"而來":15958,"雞排":15959,"日進行":15960,"地圖":15961,"足球賽":15962,"之所以":15963,"闖入":15964,"跳出來":15965,"重複":15966,"做什麼":15967,"單季":15968,"搖滾":15969,"樓梯":15970,"培育":15971,"離職":15972,"提供的":15973,"笑著":15974,"外帶":15975,"案情":15976,"號稱":15977,"花園":15978,"開玩笑說":15979,"登革熱":15980,"幾次":15981,"新娘":15982,"領軍":15983,"公積":15984,"接受媒體":15985,"擺脫":15986,"附上":15987,"房地":15988,"緊緊":15989,"認養":15990,"市場的":15991,"人死亡":15992,"公升":15993,"零食":15994,"用手":15995,"裡頭":15996,"一台":15997,"又在":15998,"年薪":15999,"一向":16000,"帽子":16001,"所謂的":16002,"市議員":16003,"路跑":16004,"電玩":16005,"子彈":16006,"冰箱":16007,"包圍":16008,"單曲":16009,"大關":16010,"中風":16011,"財團":16012,"不錯的":16013,"休假":16014,"輸入":16015,"登陸":16016,"波動":16017,"了許多":16018,"名義":16019,"警報":16020,"題材":16021,"連連":16022,"大呼":16023,"田徑":16024,"運動員":16025,"星座":16026,"青睞":16027,"自己也":16028,"極限":16029,"種子":16030,"淨利":16031,"查證":16032,"有助於":16033,"發生一起":16034,"的作品":16035,"鞋子":16036,"的食物":16037,"入場":16038,"全裸":16039,"選在":16040,"翻譯":16041,"矚目":16042,"作收":16043,"放大":16044,"資金貸與之":16045,"困境":16046,"不變":16047,"出售":16048,"登山":16049,"女優":16050,"交由":16051,"出版":16052,"座談":16053,"截圖":16054,"不去":16055,"有一名":16056,"的首":16057,"不等":16058,"強力":16059,"上百":16060,"陣營":16061,"華人":16062,"的黑":16063,"試試":16064,"哪些":16065,"的三":16066,"學家":16067,"超市":16068,"海邊":16069,"阿伯":16070,"售票":16071,"監控":16072,"卻發現":16073,"落淚":16074,"著手":16075,"一生":16076,"圖書":16077,"軌道":16078,"腳踏車":16079,"發生變動":16080,"這邊":16081,"姓女":16082,"都不會":16083,"一家人":16084,"新聞與":16085,"漁船":16086,"首節":16087,"同時也是":16088,"布局":16089,"出局後":16090,"消防員":16091,"衰退":16092,"手續":16093,"小說":16094,"理賠":16095,"百分之":16096,"珍貴":16097,"爆料公社":16098,"在新":16099,"原諒":16100,"知情":16101,"水庫":16102,"尺度":16103,"更多人":16104,"歲生日":16105,"感性":16106,"未來將":16107,"哪個":16108,"難免":16109,"封面":16110,"腸胃":16111,"雞蛋":16112,"並與":16113,"損害":16114,"豆腐":16115,"立體":16116,"奕如":16117,"導入":16118,"給自己":16119,"美景":16120,"債券":16121,"近距離":16122,"卻不":16123,"驚見":16124,"而這":16125,"一樣的":16126,"誠意":16127,"毛孩":16128,"轉發":16129,"都已經":16130,"下場":16131,"都說":16132,"滋味":16133,"業界":16134,"素顏":16135,"常見的":16136,"角落":16137,"郁香":16138,"協理":16139,"參訪":16140,"特別的":16141,"原本的":16142,"昨晚":16143,"件事":16144,"店長":16145,"久的":16146,"克服":16147,"來賓":16148,"公分的":16149,"有無":16150,"下半季":16151,"往後":16152,"屋內":16153,"中獎":16154,"防制":16155,"頭上":16156,"的情形":16157,"辭職":16158,"四處":16159,"小子":16160,"突發":16161,"一部":16162,"地安":16163,"幫我":16164,"強迫":16165,"記者林奕如":16166,"局失":16167,"如果是":16168,"館長":16169,"的臉":16170,"大廠":16171,"劈腿":16172,"不可以":16173,"消化":16174,"好心":16175,"跌倒":16176,"卡通":16177,"打臉":16178,"經濟成長":16179,"千人":16180,"阿姨":16181,"實際上":16182,"自嘲":16183,"說到":16184,"獨立董事":16185,"九二":16186,"精準":16187,"難怪":16188,"的媽媽":16189,"火車站":16190,"的女性":16191,"體質":16192,"高階":16193,"永續":16194,"鑰匙":16195,"終身":16196,"per16":16197,"一番":16198,"某些":16199,"高中生":16200,"超完整":16201,"排名第":16202,"美好":16203,"配置":16204,"提出的":16205,"絕對是":16206,"成交量":16207,"秉持":16208,"監測":16209,"十大":16210,"帶回家":16211,"救出":16212,"海鮮":16213,"隨身":16214,"效益":16215,"護理師":16216,"書記":16217,"預報":16218,"loc16":16219,"駁回":16220,"停止過戶":16221,"副總":16222,"黃蜂":16223,"偵訊":16224,"新聞與賽事":16225,"我愛":16226,"籃球新聞與賽事":16227,"他有":16228,"好笑":16229,"美好的":16230,"超完整籃球新聞與賽事":16231,"不必":16232,"民族":16233,"脫離":16234,"煞車":16235,"安置":16236,"回顧":16237,"最有":16238,"分開":16239,"兩人在":16240,"平板":16241,"學員":16242,"查出":16243,"驚險":16244,"點滴":16245,"部署":16246,"便利商店":16247,"遊覽":16248,"營業時間":16249,"意圖":16250,"完整的":16251,"華麗":16252,"資料來源":16253,"懂得":16254,"的結果":16255,"接手":16256,"就知道":16257,"本案":16258,"傳遞":16259,"動保":16260,"動能":16261,"派員":16262,"跟鞋":16263,"同居":16264,"店裡":16265,"職缺":16266,"嫌疑":16267,"多年的":16268,"儘速":16269,"被警方":16270,"噁心":16271,"豬肉":16272,"太空人":16273,"考生":16274,"線的":16275,"交代":16276,"海報":16277,"跌幅":16278,"拜訪":16279,"獲選":16280,"生長":16281,"自製":16282,"親切":16283,"亞錦賽":16284,"老爸":16285,"希望能夠":16286,"派遣":16287,"記者游郁香":16288,"罰款":16289,"贈送":16290,"副院長":16291,"這間":16292,"卻因為":16293,"變形":16294,"單車":16295,"那種":16296,"也以":16297,"也非常":16298,"轉變":16299,"總冠軍賽":16300,"混血":16301,"安撫":16302,"這類":16303,"將來":16304,"練球":16305,"師生":16306,"飲品":16307,"轉身":16308,"機的":16309,"小吃":16310,"的長":16311,"鑽石":16312,"回升":16313,"請假":16314,"比對":16315,"未婚":16316,"下水":16317,"因為我":16318,"高潮":16319,"不起訴":16320,"印地安":16321,"匯率":16322,"安全帽":16323,"瓦斯":16324,"的力量":16325,"試著":16326,"跑去":16327,"股數":16328,"紛紛表示":16329,"用力":16330,"輕易":16331,"元起":16332,"黑豹":16333,"把自己":16334,"燈光":16335,"觀光客":16336,"二度":16337,"作者":16338,"雷霆":16339,"現金股利":16340,"生效日期":16341,"公會":16342,"不穩":16343,"迄事實發生日為止":16344,"要注意":16345,"惡化":16346,"周遭":16347,"保健":16348,"與他":16349,"爆笑":16350,"選票":16351,"了一下":16352,"被捕":16353,"落差":16354,"在當地":16355,"精華":16356,"叫做":16357,"的能力":16358,"但最後":16359,"克銘":16360,"上節目":16361,"看不到":16362,"記者張克銘":16363,"對自己":16364,"民眾的":16365,"加重":16366,"年以來":16367,"虐待":16368,"異動原因":16369,"向上":16370,"她笑說":16371,"餅乾":16372,"好吃":16373,"史上最":16374,"美麗的":16375,"頻繁":16376,"不忘":16377,"進展":16378,"身體狀況":16379,"開場":16380,"水中":16381,"外媒":16382,"黑人":16383,"頭皮":16384,"這群":16385,"真心":16386,"實境":16387,"風雨":16388,"一般人":16389,"重現":16390,"香氣":16391,"舉例":16392,"處罰":16393,"該如何":16394,"的可能性":16395,"媽咪":16396,"差別":16397,"的方法":16398,"記者翁":16399,"更大":16400,"二審":16401,"帶到":16402,"采薇":16403,"也無法":16404,"出一張":16405,"還是有":16406,"較去年同期":16407,"不應該":16408,"被爆":16409,"保濕":16410,"建商":16411,"財報":16412,"世界大賽":16413,"等問題":16414,"每一個":16415,"飼料":16416,"女士":16417,"還原":16418,"的對象":16419,"真魚":16420,"除非":16421,"衛生紙":16422,"卡在":16423,"秀出":16424,"上架":16425,"美腿":16426,"款式":16427,"法人說明會":16428,"很重要":16429,"締造":16430,"背書保證之":16431,"也強調":16432,"沒能":16433,"電力":16434,"慈善":16435,"營養師":16436,"記者王真魚":16437,"端午":16438,"第二季":16439,"創立":16440,"死因":16441,"重要決議事項":16442,"下架":16443,"前夕":16444,"復古":16445,"等相關":16446,"將她":16447,"養成":16448,"前女友":16449,"議長":16450,"砲轟":16451,"額度":16452,"媽媽的":16453,"老虎":16454,"復原":16455,"彩券":16456,"首勝":16457,"記者魏":16458,"槍擊":16459,"部會":16460,"適逢":16461,"變身":16462,"屆滿":16463,"傳達":16464,"安裝":16465,"超大":16466,"下巴":16467,"車型":16468,"專區":16469,"夫人":16470,"說自己":16471,"入侵":16472,"法定":16473,"兩隻":16474,"命運":16475,"學運":16476,"加工":16477,"痕跡":16478,"不利":16479,"比賽中":16480,"受到影響":16481,"偶像劇":16482,"消防人員":16483,"一款":16484,"眼前":16485,">...":16486,"它的":16487,"性騷擾":16488,"抓住":16489,"錄取":16490,"加薪":16491,"反觀":16492,"不法":16493,"目睹":16494,"幫助球隊":16495,"不下":16496,"網友在":16497,"原料":16498,"求職":16499,"也已":16500,"國際賽":16501,"現今":16502,"被視為":16503,"攤位":16504,"想不到":16505,"謹慎":16506,"隨機":16507,"歹徒":16508,"排行榜":16509,"和其他":16510,"理論":16511,"記者蕭采薇":16512,"仍以":16513,"蒐集":16514,"決策":16515,"用於":16516,"簽訂":16517,"控衛":16518,"問到":16519,"也為":16520,"菜鳥":16521,"但目前":16522,"恭喜":16523,"空檔":16524,"將可":16525,"護士":16526,"認知":16527,"相隔":16528,"滿滿的":16529,"車雲":16530,"零售":16531,"混合":16532,"理性":16533,"迎來":16534,"這條":16535,"大腸":16536,"下週":16537,"有問題":16538,"念頭":16539,"邊緣":16540,"威力":16541,"社交":16542,"局面":16543,"ETtoday車雲":16544,"一連串":16545,"大都會":16546,"展現出":16547,"你要":16548,"一直到":16549,"依規定":16550,"背包":16551,"寶座":16552,"拉麵":16553,"旅程":16554,"緊接著":16555,"則由":16556,"牛排":16557,"彩繪":16558,"刺青":16559,"涉案":16560,"完後":16561,"提醒民眾":16562,"桌上":16563,"衝撞":16564,"直指":16565,"最後一次":16566,"忽略":16567,"接力":16568,"前三":16569,"學歷":16570,"買到":16571,"發生變動日期":16572,"套餐":16573,"開庭":16574,"目擊者":16575,"的過程中":16576,"聯網":16577,"套房":16578,"奇蹟":16579,"芊秀":16580,"好事":16581,"設有":16582,"九二共識":16583,"就說":16584,"最愛的":16585,"濃厚":16586,"藥品":16587,"不安":16588,"國王":16589,"他笑說":16590,"口水":16591,"轄區":16592,"經貿":16593,"進出":16594,"車款":16595,"春夏":16596,"櫃檯":16597,"記者陳芊秀":16598,"一雙":16599,"戒指":16600,"幕僚":16601,"美照":16602,"抽獎":16603,"一再":16604,"反覆":16605,"五人":16606,"首場":16607,"又要":16608,"暗示":16609,"準則":16610,"配件":16611,"第一季":16612,"制裁":16613,"的路":16614,"漁民":16615,"下一個":16616,"平手":16617,"有不少":16618,"機上":16619,"混亂":16620,"自認":16621,"格局":16622,"來臨":16623,"原廠":16624,"諷刺":16625,"希望他":16626,"即時接收":16627,"輕輕":16628,"金曲獎":16629,"傾向":16630,"裝飾":16631,"新一代":16632,"食安":16633,"甚至連":16634,"我們會":16635,"向前":16636,"葡萄":16637,"群組":16638,"背部":16639,"他指出":16640,"代言人":16641,"好不容易":16642,"的家":16643,"前一天":16644,"待遇":16645,"得好":16646,"基金會":16647,"查緝":16648,"org11":16649,"不開":16650,"聽了":16651,"情感":16652,"耐心":16653,"都將":16654,"注射":16655,"慶生":16656,"雷達":16657,"建築物":16658,"射擊":16659,"間接":16660,"妳的":16661,"聽聞":16662,"拓展":16663,"火災":16664,"合作的":16665,"勝出":16666,"選項":16667,"願望":16668,"新聞稿":16669,"雲端":16670,"能有":16671,"譴責":16672,"真的有":16673,"個月內":16674,"他們在":16675,"過失":16676,"歌唱":16677,"熱帶":16678,"發展的":16679,"浴室":16680,"勢力":16681,"約定":16682,"器材":16683,"片段":16684,"閨蜜":16685,"隱私":16686,"期貨":16687,"焦慮":16688,"石頭":16689,"覺得自己":16690,"站台":16691,"放置":16692,"故障":16693,"大專":16694,"就不會":16695,"還將":16696,"亞軍":16697,"愛上":16698,"那時候":16699,"之一的":16700,"未經":16701,"聽見":16702,"不得不":16703,"大罵":16704,"募款":16705,"好轉":16706,"伸手":16707,"台南":16708,"我現在":16709,"不容":16710,"執導":16711,"從來沒有":16712,"來襲":16713,"野生動物":16714,"可以讓":16715,"政務":16716,"多加":16717,"有一天":16718,"的需求":16719,"十二":16720,"花錢":16721,"被敲":16722,"請上":16723,"輸給":16724,"假的":16725,"點的":16726,"敗給":16727,"也對":16728,"別再":16729,"讀書":16730,"去做":16731,"發現有":16732,"市政府":16733,"民宿":16734,"榮譽":16735,"單價":16736,"享用":16737,"是從":16738,"分子":16739,"得主":16740,"的父親":16741,"公頃":16742,"物資":16743,"在我":16744,"柴油":16745,"破裂":16746,"貴賓":16747,"這家":16748,"名家":16749,"撤銷":16750,"發表聲明":16751,"「」":16752,"先行":16753,"補選":16754,"陸軍":16755,"休養":16756,"集體":16757,"水氣":16758,"演練":16759,"建造":16760,"里程":16761,"約為":16762,"目前為止":16763,"正確的":16764,"馬桶":16765,"也可能":16766,"得點":16767,"只不過":16768,"難忘":16769,"眼尖":16770,"走勢":16771,"一塊":16772,"通車":16773,"最為":16774,"鋼鐵":16775,"物價":16776,"月開始":16777,"地方政府":16778,"快閃":16779,"無效":16780,"不清":16781,"分組":16782,"造訪":16783,"蝴蝶":16784,"要到":16785,"!」,":16786,"思議":16787,"朝野":16788,"足以":16789,"點數":16790,"綜合報導":16791,"心力":16792,"以北":16793,"調降":16794,"雙眼":16795,"主導":16796,"沒關係":16797,"面試":16798,"怎麼會":16799,"主廚":16800,"夏日":16801,"驚覺":16802,"忙著":16803,"高等":16804,"事務所":16805,"促銷":16806,"發全壘打":16807,"生前":16808,"空姐":16809,"迴響":16810,"延長賽":16811,"獨特的":16812,"天內":16813,"是被":16814,"可在":16815,"良好的":16816,"將其":16817,"積分":16818,"罹難":16819,"指揮中心":16820,"復興":16821,"悄悄":16822,"哽咽":16823,"引爆":16824,"很喜歡":16825,"因此在":16826,"大大":16827,"那天":16828,"地區事業":16829,"走紅":16830,"走上":16831,"越來越多":16832,"店的":16833,"多多":16834,"移送法辦":16835,"還曾":16836,"印地安人":16837,"來愈":16838,"折扣":16839,"指期":16840,"退役":16841,"保戶":16842,"績效":16843,"風情":16844,"落地":16845,"工商":16846,"比分":16847,"許多粉絲":16848,"不穩定":16849,"一動":16850,"肥胖":16851,"一來":16852,"記者林育":16853,"達人":16854,"兼具":16855,"詐騙集團":16856,"一股":16857,"發生的":16858,">!」":16859,"引述":16860,"但也有人":16861,"禮貌":16862,"乾燥":16863,"大哭":16864,"號的":16865,"解散":16866,"上個月":16867,"出訪":16868,"倒是":16869,"自結":16870,"輕生":16871,"騎兵":16872,"師傅":16873,"他將":16874,"客場":16875,"輪胎":16876,"那裡":16877,"等著":16878,"聚會":16879,"動漫":16880,"小編":16881,"一級":16882,"在這個":16883,"把他":16884,"冷凍":16885,"台中":16886,"與其":16887,"滿貫":16888,"為自己":16889,"大規模":16890,"核四":16891,"除權":16892,"月營收":16893,"受訪表示":16894,"容量":16895,"二代":16896,"愈來愈":16897,"別人的":16898,"流出":16899,"連帶":16900,"也紛紛":16901,"頂著":16902,"消費中心":16903,"的運動":16904,"很想":16905,"的一面":16906,"的產品":16907,"蛋白質":16908,"好看":16909,"縮小":16910,"重機":16911,"格外":16912,"平等":16913,"年股東常會":16914,"峻誠":16915,"記者劉峻誠":16916,"則認為":16917,"菜單":16918,"蔬果":16919,"的天":16920,"芒果":16921,"各方":16922,"獲報後":16923,"前妻":16924,"短時間":16925,"脾氣":16926,"都知道":16927,"檸檬":16928,"撕裂":16929,"選情":16930,"搶下":16931,"什麼事":16932,"揚言":16933,"面板":16934,"不可思議":16935,"周末":16936,"主唱":16937,"十年":16938,"黨員":16939,"關切":16940,"個股":16941,"不僅是":16942,"泡麵":16943,"繽紛":16944,"的概念":16945,"好禮":16946,"肺炎":16947,"體育館":16948,"臨時會":16949,"假裝":16950,"有人說":16951,"身上的":16952,"寬鬆":16953,"體型":16954,"彩妝":16955,"不適合":16956,"多單":16957,"濃度":16958,"引導":16959,"卻有":16960,"雙城":16961,"可疑":16962,"可上訴":16963,"不好意思":16964,"黑豹旗":16965,"導師":16966,"的母親":16967,"一起來":16968,"口袋":16969,"我還":16970,"醒來":16971,"放話":16972,"疲勞":16973,"賣出":16974,"當地的":16975,"公告本公司董事會決議":16976,"目前的":16977,"黨部":16978,"遠離":16979,"臨床":16980,"趣味":16981,"是非常":16982,"沙灘":16983,"夜晚":16984,"退伍":16985,"但若":16986,"口角":16987,"境外":16988,"前男友":16989,"日對":16990,"前科":16991,"陰影":16992,"模糊":16993,"未滿":16994,"腕錶":16995,"驚嚇":16996,"喝水":16997,"所以我":16998,"雨勢":16999,"握手":17000,"旺季":17001,"公眾":17002,"時裝":17003,"朝聖":17004,"上半季":17005,"還有網友":17006,"有趣的是":17007,"續約":17008,"聽說":17009,"主帥":17010,"地鐵":17011,"球的":17012,"的女兒":17013,"清除":17014,"活動的":17015,"不符":17016,"碩士":17017,"科罰金":17018,"蜘蛛":17019,"註冊":17020,"請大家":17021,"代價":17022,"好消息":17023,"路過":17024,"有信心":17025,"記者趙":17026,"榮獲":17027,"子瑋":17028,"爭奪":17029,"詭異":17030,"平方":17031,"散發":17032,"優於":17033,"恐龍":17034,"美術":17035,"千萬不要":17036,"攝影機":17037,"此案":17038,"董事會決議日期":17039,"口氣":17040,"被稱為":17041,"搭上":17042,"曾是":17043,"謠言":17044,"能不能":17045,"和小":17046,"就職":17047,"平面":17048,"取締":17049,"清新":17050,"她認為":17051,"發聲":17052,"依序":17053,"升至":17054,"熱戀":17055,"這首歌":17056,"航空公司":17057,"前瞻":17058,"明白":17059,"驅逐":17060,"徵召":17061,"粉紅色":17062,"回報":17063,"也開始":17064,"一座":17065,"也已經":17066,"和他":17067,"體會":17068,"一杯":17069,"處置":17070,"比照":17071,"作出":17072,"瘦身":17073,"公教":17074,"馬麻":17075,"尾巴":17076,"還需要":17077,"目前正在":17078,"甚至在":17079,"分砲":17080,"口號":17081,"並不會":17082,"上方":17083,"現有":17084,"進到":17085,"記者黃子瑋":17086,"證件":17087,"又以":17088,"東北部":17089,"潛水":17090,"中毒":17091,"睡著":17092,"要是":17093,"性關係":17094,"高雄":17095,"除了有":17096,"風光":17097,"也不能":17098,"誕生":17099,"兼顧":17100,"掙扎":17101,"知名的":17102,"循線":17103,"媳婦":17104,"去年底":17105,"上身":17106,"不出來":17107,"多樣":17108,"觀點":17109,"餵食":17110,"確實有":17111,"頂尖":17112,"往來":17113,"快加":17114,"扣除":17115,"人受傷":17116,"慰問":17117,"觸身":17118,"專用":17119,"加護":17120,"防曬":17121,"發表會":17122,"資金貸與餘額":17123,"跟大家":17124,"了啦":17125,"遍世界":17126,"三級":17127,"人為":17128,"法官認為":17129,"一例":17130,"會出現":17131,"自在":17132,"密集":17133,"客廳":17134,"外野手":17135,"伸出":17136,"構成":17137,"新股":17138,"的服務":17139,"聖壹":17140,"女嬰":17141,"整天":17142,"購屋":17143,"不確定":17144,"記者洪聖壹":17145,"就此":17146,"從中":17147,"洲際":17148,"被判":17149,"迄今":17150,"收在":17151,"被抓":17152,"言語":17153,"希望透過":17154,"隨意":17155,"日也":17156,"憲法":17157,"長照":17158,"清洗":17159,"合併營收":17160,"家暴":17161,"健康的":17162,"近日在":17163,"但也有":17164,"演戲":17165,"背心":17166,"球隊的":17167,"阻擋":17168,"急著":17169,"一角":17170,"實的":17171,"神情":17172,"休旅車":17173,"駕車":17174,"時就":17175,"上廁所":17176,"per17":17177,"高跟鞋":17178,"三年":17179,"到一半":17180,"含量":17181,"感到相當":17182,"的兒子":17183,"所在":17184,"讀者":17185,"逼近":17186,"短髮":17187,"自由球員":17188,"晚會":17189,"各有":17190,"制止":17191,"在後":17192,"小客車":17193,"飆出":17194,"首相":17195,"一輩子":17196,"被依":17197,"每坪":17198,"里約":17199,"的超":17200,"逛街":17201,"鞋款":17202,"友誼":17203,"要看":17204,"排水":17205,"金馬獎":17206,"水手":17207,"看待":17208,"裸照":17209,"一秒":17210,"雇主":17211,"旅行社":17212,">!<":17213,"官司":17214,"文萱":17215,"最新的":17216,"亮麗":17217,"小宇宙":17218,"心中的":17219,"畢業後":17220,"只剩下":17221,"呼籲民眾":17222,"歌聲":17223,"東京":17224,"仍會":17225,"安全的":17226,"作客":17227,"場出賽":17228,"對該":17229,"光芒":17230,"發生了":17231,"英鎊":17232,"三人":17233,"好可愛":17234,"查核":17235,"圖書館":17236,"的選手":17237,"要怎麼":17238,"分析師":17239,"總額":17240,"粉絲們":17241,"你會":17242,"氣爆":17243,"讓現場":17244,"檔案":17245,"視訊":17246,"難民":17247,"大火":17248,"一休":17249,"我可以":17250,"頸部":17251,"多半":17252,"失聯":17253,"最美":17254,"記者許雅":17255,"太久":17256,"鳳梨":17257,"教導":17258,"小時內":17259,"不成":17260,"整整":17261,"並由":17262,"出境":17263,"小將":17264,"形狀":17265,"降到":17266,"分鐘後":17267,"高喊":17268,"男籃":17269,"的日子":17270,"致電":17271,"補貼":17272,"小時的":17273,"國產":17274,"籃網":17275,"會造成":17276,"網頁":17277,"躲在":17278,"那就":17279,"學術":17280,"遊騎兵":17281,"年華":17282,"頒發":17283,"原價":17284,"大腦":17285,"的錢":17286,"內外":17287,"腳踝":17288,"車頭":17289,"黨產":17290,"盯著":17291,"她與":17292,"很高":17293,"解讀":17294,"哈哈哈":17295,"傳說":17296,"之家":17297,"抹黑":17298,"每天都":17299,"加持":17300,"跑車":17301,"名列":17302,"出院":17303,"深深":17304,"用途":17305,"氣的":17306,"減資":17307,"上月":17308,"祈福":17309,"湘文":17310,"個月後":17311,"~」":17312,"記者李湘文":17313,"獲獎":17314,"天堂":17315,"命案":17316,"研究所":17317,"發文表示":17318,"最後的":17319,"開拍":17320,"的球隊":17321,"胸前":17322,"銷量":17323,"見過":17324,"他對":17325,"街上":17326,"生命危險":17327,"宜庭":17328,"質感":17329,"相當於":17330,"烤肉":17331,"表決":17332,"巴掌":17333,"中山":17334,"劇場":17335,"不會再":17336,"保險套":17337,"盜壘":17338,"卻因":17339,"其中一名":17340,"手槍":17341,"很可能":17342,"服役":17343,"西瓜":17344,"企劃":17345,"強勁":17346,"收集":17347,"覆蓋":17348,"道具":17349,"南方":17350,"四壞球":17351,"在她":17352,"趕到":17353,"提議":17354,"有別":17355,"調度":17356,"過關":17357,"任何人":17358,"在全球":17359,"傳球":17360,"都更":17361,"送醫後":17362,"襲擊":17363,"?」,":17364,"的頭":17365,"車手":17366,"酒吧":17367,"女朋友":17368,"另一位":17369,"消防局":17370,"家園":17371,"記者劉宜庭":17372,"種種":17373,"新北市":17374,"保有":17375,"公克":17376,"應對":17377,"龐大":17378,"社會大眾":17379,"小女孩":17380,"代替":17381,"戰場":17382,"有名":17383,"幫她":17384,"建置":17385,"粉專":17386,"往下":17387,"家鄉":17388,"洗衣":17389,"放寬":17390,"情節":17391,"做得":17392,"的壓力":17393,"裝潢":17394,"極大":17395,"檢調":17396,"一定是":17397,"昔日":17398,"元旦":17399,"剛開始":17400,"期的":17401,"愉快":17402,"早盤":17403,"網友看了":17404,"改成":17405,"本壘":17406,"買下":17407,"大漲":17408,"解放":17409,"足球瘋":17410,"攻佔":17411,"公然":17412,"主因":17413,"帥哥":17414,"教訓":17415,"隱形":17416,"放入":17417,"嚴肅":17418,"色系":17419,"景象":17420,"被問及":17421,"了不少":17422,"已婚":17423,"快點":17424,"輪值":17425,"通行":17426,"表面":17427,"奶油":17428,"臉書社團":17429,"再以":17430,"榮耀":17431,"我認為":17432,"橋段":17433,"刊登":17434,"面膜":17435,"八強":17436,"很像":17437,"限額":17438,"波及":17439,"+<":17440,"業的":17441,"滅火":17442,"網上":17443,"日深夜":17444,"局無失分":17445,"請來":17446,"報復":17447,"月中旬":17448,"憂鬱症":17449,"定義":17450,"跟她":17451,"往上":17452,"足球魂":17453,"封閉":17454,"開的":17455,"消息指出":17456,"原因是":17457,"加護病房":17458,"世錦賽":17459,"次長":17460,"院方":17461,"水的":17462,"轉向":17463,"眼光":17464,"五官":17465,"無聊":17466,"玩耍":17467,"的政治":17468,"總價":17469,"的主要":17470,"現金增資":17471,"美人":17472,"定讞":17473,"來得":17474,"名模":17475,"好身材":17476,"的世界":17477,"罪名":17478,"的音樂":17479,"整形":17480,"當家":17481,"用電":17482,"育有":17483,"工時":17484,"毫米":17485,"開著":17486,"驚艷":17487,"不受":17488,"喚起足球魂":17489,"下令":17490,"多歲":17491,"私密":17492,"起初":17493,"抵抗":17494,"血糖":17495,"送回":17496,"電商":17497,"注重":17498,"他透露":17499,"未成年":17500,"已達":17501,"看遍世界":17502,"點心":17503,"遊覽車":17504,"綠營":17505,"異動情形":17506,"母女":17507,"子裡":17508,"起司":17509,"情事":17510,"自助":17511,"天下":17512,"打招呼":17513,"再生":17514,"要價":17515,"出現了":17516,"看遍世界足球賽":17517,"輕微":17518,"面向":17519,"燃燒心中":17520,"消毒":17521,"中正":17522,"燃燒心中小宇宙":17523,"升息":17524,"請問":17525,"後也":17526,"當你":17527,"稅前":17528,"口腔":17529,"場次":17530,"強行":17531,"聲浪":17532,"姓婦人":17533,"將成為":17534,"女兒的":17535,"多家":17536,"縮短":17537,"群聚":17538,"共享":17539,"思妤":17540,"維生素":17541,"這也":17542,"她透露":17543,"裝扮":17544,"尊嚴":17545,"特價":17546,"螢光":17547,"喜愛的":17548,"將從":17549,"士兵":17550,"外遇":17551,"標誌":17552,"婚宴":17553,"給人":17554,"一到":17555,"個多月":17556,"傳喚":17557,"吉祥":17558,"的研究":17559,"耳機":17560,"的後":17561,">」[":17562,"中鋒":17563,"包裹":17564,"較低":17565,"長官":17566,"目前正":17567,"懲處":17568,"新片":17569,"貼圖":17570,"煩惱":17571,"兩者":17572,"氣憤":17573,"硬體":17574,"挑釁":17575,"報警處理":17576,"農藥":17577,"錯了":17578,"身手":17579,"它們":17580,"理財":17581,"雙人":17582,"根本就是":17583,"傷心":17584,"想辦法":17585,"已經被":17586,"消費滿":17587,"主題曲":17588,"其它":17589,"警示":17590,"大隊":17591,"角逐":17592,"大巨蛋":17593,"許多民眾":17594,"順便":17595,"最終以":17596,"這段影片":17597,"色情":17598,"八卦":17599,"毛巾":17600,"政璿":17601,"協定":17602,"卡片":17603,"活躍":17604,"約在":17605,"莫名":17606,"銅牌":17607,"近況":17608,"蘿蔔":17609,"上學":17610,"卻突然":17611,"健身房":17612,"黑白":17613,"公文":17614,"有心":17615,"的女子":17616,"傷兵":17617,"嘔吐":17618,"相差":17619,"用藥":17620,"牽手":17621,"並強調":17622,"中和":17623,"市集":17624,"接殺":17625,"有過":17626,"總統參選人":17627,"一週":17628,"遊樂":17629,">」::":17630,"這幾天":17631,"提供訊息":17632,"日止":17633,"大秀":17634,"不爽":17635,"屋頂":17636,"收下":17637,"loc17":17638,"流量":17639,"那時":17640,"視察":17641,"起了":17642,"之意":17643,"辣妹":17644,"是她":17645,"。」「":17646,"判定":17647,"村民":17648,"字第":17649,"不應":17650,"準時":17651,"短褲":17652,"局勢":17653,"指責":17654,"順暢":17655,"綜合外媒報導":17656,"手腳":17657,"早日":17658,"悠遊":17659,"機組":17660,"渴望":17661,"中華職棒":17662,"品嚐":17663,"總金額":17664,"一組":17665,"董事會通過":17666,"了幾":17667,"區間":17668,"種植":17669,"三角":17670,"升格":17671,"俱樂":17672,"這波":17673,"皆為":17674,"痛哭":17675,"善良":17676,"單獨":17677,"公尺的":17678,"小狗":17679,"判決書":17680,"注意的是":17681,"委屈":17682,"的形象":17683,"逃離":17684,"工作室":17685,"但沒有":17686,"擴散":17687,"筆電":17688,"商場":17689,"生殖":17690,"結帳":17691,"選前":17692,"那就是":17693,"真的太":17694,"洗手":17695,"也與":17696,"孫子":17697,"控告":17698,"窗戶":17699,"在場上":17700,"天生":17701,"起身":17702,"偏鄉":17703,"身價":17704,"頓時":17705,"靈魂":17706,"第三季":17707,"不算":17708,"就沒":17709,"引人":17710,"移工":17711,"驚悚":17712,"的合作":17713,"首映":17714,"並列":17715,"鮮肉":17716,"更高":17717,"不僅如此":17718,"就已":17719,"的決定":17720,"陽春砲":17721,"俱樂部":17722,"幼稚":17723,"台商":17724,"跌破":17725,"我家":17726,"集中在":17727,"代打":17728,"雙雙":17729,"輿論":17730,"這篇":17731,"額外":17732,"第一天":17733,"離家":17734,"欺負":17735,"較大":17736,"三天":17737,"份子":17738,"善意":17739,"再添":17740,"是一名":17741,"名叫":17742,"的經濟":17743,"科技中心":17744,"舉行的":17745,"匯款":17746,"淑媛":17747,"火警":17748,"喜劇":17749,"改進":17750,"都覺得":17751,"效能":17752,"一直是":17753,"運彩":17754,"觸身球":17755,"低迷":17756,"網購":17757,"得逞":17758,"不一樣的":17759,"但對於":17760,"品項":17761,"在野":17762,"大麻":17763,"易科罰金":17764,"約談":17765,"幫你":17766,"買房":17767,"斯盃":17768,"的速度":17769,"記者楊淑媛":17770,"里約奧運":17771,"抗爭":17772,"幼兒園":17773,"圍觀":17774,"長腿":17775,"與人":17776,"英語":17777,"實用":17778,"我跟":17779,"買的":17780,"無法接受":17781,"愛滋":17782,"淡定":17783,"合格":17784,"出席活動":17785,"解決問題":17786,"也認為":17787,"過去曾":17788,"也因":17789,"歡呼":17790,"的遊戲":17791,"雙腳":17792,"西方":17793,"則回應":17794,"標籤":17795,"有一些":17796,"上任後":17797,"排放":17798,"軍團訊息":17799,"父子":17800,"國籍":17801,"宣示":17802,"相關事宜":17803,"要用":17804,"親民":17805,"世界各地":17806,"應援":17807,"走過":17808,"紅人":17809,"老年":17810,"特報":17811,"彩虹":17812,"網友看完":17813,"打敗":17814,"位的":17815,"曲線":17816,"專案小組":17817,"修訂本公司":17818,"收容所":17819,"廣泛":17820,"記者徐政璿":17821,"記者陳家":17822,"電動車":17823,"踴躍":17824,"宣告不治":17825,"交叉":17826,"下半身":17827,"也未":17828,"的花":17829,"交友":17830,"出庭":17831,"無人機":17832,"出入":17833,"下手":17834,"各縣市":17835,"會將":17836,"輪椅":17837,"記者林思妤":17838,"放假":17839,"的意思":17840,"三個月":17841,"切入":17842,"安靜":17843,"會先":17844,"急忙":17845,"製品":17846,"雖然沒有":17847,"僅剩":17848,"署長":17849,"大批網友":17850,"百分點":17851,"戰袍":17852,"親手":17853,"最受":17854,"動機":17855,"更多精彩":17856,"愛吃":17857,"道德":17858,"分店":17859,"四肢":17860,"影帝":17861,"掉落":17862,"智能":17863,"延後":17864,"用水":17865,"私訊":17866,"騎乘":17867,"東家":17868,"年前的":17869,"發售":17870,"門診":17871,"停電":17872,"轟炸":17873,"補償":17874,"大橋":17875,"擅長":17876,"救助":17877,"最喜歡":17878,"邊的":17879,"首席":17880,"短線":17881,"要他":17882,"跆拳":17883,"火山":17884,"玩法":17885,"處的":17886,"工藝":17887,"款項":17888,"淚崩":17889,"台詞":17890,"飽受":17891,"就有機會":17892,"劇烈":17893,"好康":17894,"營區":17895,"的個性":17896,"抽菸":17897,"親戚":17898,"搶購":17899,"蒐證":17900,"連接":17901,"麥克":17902,"從沒":17903,"他曾":17904,"等症狀":17905,"總會":17906,"職員":17907,"控訴":17908,"個國家":17909,"在國際":17910,"康復":17911,"唯一的":17912,"被逮":17913,"敲出安打":17914,"上屆":17915,"生活的":17916,"太陽能":17917,"功夫":17918,"撥打":17919,"倒塌":17920,"熱銷":17921,"的舉動":17922,"搭機":17923,"勞資":17924,"多萬":17925,"都已":17926,"爆廢":17927,"產後":17928,"一聲":17929,"拿出來":17930,"如果沒有":17931,"改裝":17932,"競技":17933,"國慶":17934,"我自己":17935,"的現象":17936,"腎臟":17937,"則是在":17938,"率為":17939,"的原":17940,"決勝":17941,"的一年":17942,"保暖":17943,"那麼多":17944,"毀損":17945,"兒女":17946,"接替":17947,"冠軍賽":17948,"是對":17949,"執照":17950,"殺手":17951,"一例一休":17952,"盤查":17953,"房仲":17954,"複賽":17955,"說了":17956,"記者陳家祥":17957,"禮盒":17958,"陳男":17959,"恩愛":17960,"配股":17961,"公布的":17962,"競業行為":17963,"而被":17964,"為什麼要":17965,"太平":17966,"拍了":17967,"數百":17968,"一方面":17969,"抱持":17970,"兇手":17971,"編劇":17972,"親吻":17973,"上頭":17974,"強大的":17975,"多方":17976,"轉彎":17977,"著名":17978,"同行":17979,"地在":17980,"、、":17981,"據傳":17982,"量的":17983,"這句話":17984,"緩刑":17985,"的合照":17986,"電廠":17987,"第一位":17988,"漢堡":17989,"熱水":17990,"爵士":17991,"非常好":17992,"心目":17993,"旋轉":17994,"和朋友":17995,"這幾":17996,"盛大":17997,"精心":17998,"委任":17999,"條第":18000,"做愛":18001,"惡劣":18002,"復合":18003,"當地時間":18004,"交付":18005,"老舊":18006,"圓滿":18007,"爆廢公社":18008,"單打":18009,"出演":18010,"會以":18011,"畢業生":18012,"新任者姓名及簡歷":18013,"嘉年華":18014,"密碼":18015,"戲碼":18016,"球賽":18017,"界的":18018,"出征":18019,"看板":18020,"騎機車":18021,"新戲":18022,"分離":18023,"研議":18024,"舊任者姓名及簡歷":18025,"清查":18026,"人是":18027,"卻遭":18028,"五大":18029,"週末":18030,"感到非常":18031,"新任生效日期":18032,"命令":18033,"年金改革":18034,"罰球":18035,"電線":18036,"層次":18037,"日以":18038,",,":18039,"這段時間":18040,"一職":18041,"他要":18042,"半場":18043,"測驗":18044,"禁賽":18045,"喜悅":18046,"條規定":18047,"讚賞":18048,"衍生":18049,"寒流":18050,"地方法院":18051,"名譽":18052,"大三":18053,"製成":18054,"若要":18055,"旁的":18056,"減重":18057,"專業的":18058,"個百分點":18059,"大叔":18060,"但不":18061,"該劇":18062,"挺身":18063,"返鄉":18064,"致命":18065,"該怎麼":18066,"本次新增":18067,"千萬元":18068,"換成":18069,"發明":18070,"美式":18071,"較多":18072,"無可":18073,"喝醉":18074,"急性":18075,"獸醫":18076,"辣椒":18077,"反正":18078,"致敬":18079,"視野":18080,"遺傳":18081,"公開發行":18082,"做事":18083,"過去在":18084,"美妝":18085,"課綱":18086,"繁殖":18087,"一併":18088,"建物":18089,"尾牙":18090,"持刀":18091,"購票":18092,"警方在":18093,"自責分":18094,"籌碼":18095,"視力":18096,"守住":18097,"贊成":18098,"一票":18099,"你可以":18100,"前年":18101,"呼應":18102,"跑道":18103,"必備":18104,"有更多":18105,"重啟":18106,"驗證":18107,"一名女子":18108,"一般的":18109,"反問":18110,"公關":18111,"邊境":18112,"貨櫃":18113,"男大生":18114,"票數":18115,"喇叭":18116,"沿著":18117,"眼看":18118,"好嗎":18119,"系列賽":18120,"吐槽":18121,"大勝":18122,"不完":18123,"吸食":18124,"紅的":18125,"一樓":18126,"分左右":18127,"檳榔":18128,"侵犯":18129,"瀏覽":18130,"快篩":18131,"據報導":18132,"潛艇":18133,"內有":18134,"行走":18135,"]【":18136,"唇膏":18137,"注入":18138,"轉往":18139,"及其他":18140,"從頭":18141,"段時間":18142,"生技":18143,"題目":18144,"發送":18145,"季風":18146,"新低":18147,"因為在":18148,"毛毛軍團訊息":18149,"刷卡":18150,"可樂":18151,"緩解":18152,"即時接收毛毛軍團訊息":18153,"創新高":18154,"實在是":18155,"要先":18156,"最近期財務報表淨值":18157,"等候":18158,"追逐":18159,"想吃":18160,"水泥":18161,"金色":18162,"意味著":18163,"的兩":18164,"只要有":18165,"收視率":18166,"新球季":18167,"醫師表示":18168,"」...":18169,"有次":18170,"海盜":18171,"讓牠":18172,"生命跡象":18173,"表揚":18174,"社會的":18175,"大盤":18176,"的政策":18177,"募集":18178,"大地震":18179,"探視":18180,"買氣":18181,"癱瘓":18182,"議論":18183,"零件":18184,"保險公司":18185,"物流":18186,"投籃":18187,"逃跑":18188,"陰道":18189,"車隊":18190,"近幾年":18191,"付款":18192,"現況":18193,"起的":18194,"同年":18195,"擺出":18196,"男團":18197,"無疑":18198,"笑話":18199,"雷雨":18200,"俏皮":18201,"都無法":18202,"商家":18203,"著名的":18204,"也提醒":18205,"沿海":18206,"碰撞":18207,"組長":18208,"買超":18209,"堅決":18210,"抹茶":18211,"出任":18212,"新竹":18213,"站出來":18214,"有種":18215,"被外界":18216,"的地":18217,"給大家":18218,"春季":18219,"產能":18220,"的名字":18221,"還特別":18222,"鏡頭前":18223,"壽司":18224,"長打":18225,"游擊手":18226,"編列":18227,"靈活":18228,"小黃":18229,"的最大":18230,"到底是":18231,"一套":18232,"這座":18233,"應該會":18234,"分鐘內":18235,"藝文":18236,"年約":18237,"關注的":18238,"消除":18239,"男朋友":18240,"駭客":18241,"怎麼樣":18242,"駕駛座":18243,"陪同下":18244,"猶豫":18245,"驚人的":18246,"公安":18247,"抨擊":18248,"愛好":18249,"這是我":18250,"短暫陣雨":18251,"找尋":18252,"這一切":18253,"最具":18254,"記者顏":18255,"的經典":18256,"捲入":18257,"超跑":18258,"多雲":18259,"斷裂":18260,"獻上":18261,"房地產":18262,"配角":18263,"公牛":18264,"類別":18265,"暴動":18266,"有線":18267,"的反應":18268,"補習":18269,"的演出":18270,"的最佳":18271,"避開":18272,"輪流":18273,"鱷魚":18274,"的手機":18275,"是否為":18276,"復甦":18277,"當兵":18278,"節能":18279,"罰單":18280,"邁進":18281,"分區":18282,"時程":18283,"年就":18284,"或其他":18285,"介於":18286,"開工":18287,"在臉書社團":18288,"出租":18289,"譽為":18290,"炎熱":18291,"信男":18292,"到最後":18293,"泡泡":18294,"活動期間":18295,"保養品":18296,"偷吃":18297,"偽造":18298,"連忙":18299,"至今已":18300,"他不":18301,"敵人":18302,"高壓":18303,"大眼":18304,"合影":18305,"融資":18306,"雙重":18307,"你知道":18308,"油脂":18309,"爭吵":18310,"長久":18311,"不小":18312,"黃男":18313,"賣淫":18314,"司令":18315,"封王":18316,"機師":18317,"文學":18318,"佩服":18319,"儲存":18320,"水分":18321,"炸雞":18322,"建案":18323,"人民的":18324,"竟然是":18325,"房客":18326,"記者林信男":18327,"捐血":18328,"深情":18329,"被撞":18330,"歐元":18331,"牛仔褲":18332,"發生後":18333,"服務業":18334,"姿態":18335,"影后":18336,"消耗":18337,"後座":18338,"清爽":18339,"銀牌":18340,"極為":18341,"顏值":18342,"就是在":18343,"超萌":18344,"人人":18345,"妥善":18346,"鮮少":18347,"幹事":18348,"會把":18349,"有如":18350,"根本沒有":18351,"對岸":18352,"碼頭":18353,"打造出":18354,"提款":18355,"年改":18356,"水平":18357,"這樣做":18358,"救護人員":18359,"橫掃":18360,"海關":18361,"纖細":18362,"音樂會":18363,"強震":18364,"黑暗":18365,"黨中央":18366,"分成":18367,"侮辱":18368,"倒在":18369,"但我們":18370,"最後在":18371,"生涯第":18372,"組成的":18373,"不滿意":18374,"啦啦":18375,"戰局":18376,"灰色":18377,"前夫":18378,"燙傷":18379,"增進":18380,"每公升":18381,"當前":18382,"病逝":18383,"移植":18384,"反駁":18385,"吉他":18386,"揭開":18387,"收盤":18388,"男嬰":18389,"其中包括":18390,"與會":18391,"指揮官":18392,"可以說是":18393,"反抗":18394,"有位":18395,"被控":18396,"頻率":18397,"名男子":18398,"擦撞":18399,"模型":18400,"甚至還有":18401,"睫毛":18402,"點頭":18403,"人名單":18404,"涵蓋":18405,"遺產":18406,"全是":18407,"很不":18408,"已無":18409,"更要":18410,"有任何":18411,"演說":18412,"兩場":18413,"問他":18414,"審核":18415,"時速":18416,"玉米":18417,"行李箱":18418,"加以":18419,"軍隊":18420,"捨不得":18421,"骨頭":18422,"實踐":18423,"防衛":18424,"也不知道":18425,"連日":18426,"大增":18427,"雖然是":18428,"消息一出":18429,"供應鏈":18430,"叔叔":18431,"顯著":18432,">+<":18433,"讚嘆":18434,"姓駕駛":18435,"強賽":18436,"藍營":18437,"做過":18438,"就得":18439,"都以":18440,"更名為":18441,"親人":18442,"辦事":18443,"尾聲":18444,"慧中":18445,"讓不少":18446,"好玩":18447,"per18":18448,"明顯的":18449,"士尼":18450,"申辦":18451,"雞肉":18452,"的責任":18453,"墨鏡":18454,"通告":18455,"駕照":18456,"並要求":18457,"獎牌":18458,"日前往":18459,"功課":18460,"總算":18461,"談起":18462,"買家":18463,"鯊魚":18464,"財團法人":18465,"這件事情":18466,"任內":18467,"文表示":18468,"金鐘獎":18469,"延誤":18470,"記者潘慧中":18471,"一句話":18472,"特徵":18473,"入鏡":18474,"濃濃":18475,"公里的":18476,"不吃":18477,"綁架":18478,"選總統":18479,"開票":18480,"中小":18481,"市值":18482,"比特":18483,"很棒":18484,"都可":18485,"研究人員":18486,"我已經":18487,"趕到現場":18488,"下面":18489,"懲罰":18490,"核定":18491,"遭人":18492,"烏龍":18493,"本來就":18494,"國的":18495,"五人制":18496,"古蹟":18497,"戰士":18498,"妝容":18499,"訊號":18500,"一夜":18501,"為她":18502,"好處":18503,"玟儀":18504,"平價":18505,"積水":18506,"加油打氣":18507,"依違反":18508,"去了":18509,"更重要":18510,"你有":18511,"天才":18512,"我相信":18513,"政治人物":18514,"並有":18515,"當他":18516,"記者賴文萱":18517,"中表示":18518,"節省":18519,"高飛":18520,"也從":18521,"奴才":18522,"是不":18523,"迪士尼":18524,"之內":18525,"冷氣團":18526,"宣判":18527,"就好了":18528,"老化":18529,"處理器":18530,"信仰":18531,"不說":18532,"寶可":18533,"年輕的":18534,"移轉":18535,"會影響":18536,"樹林":18537,"九合一":18538,"緩慢":18539,"菁英":18540,"讓觀眾":18541,"要做":18542,"轟動":18543,"挺進":18544,"的球":18545,"選用":18546,"佳穎":18547,"挹注":18548,"學弟":18549,"的習慣":18550,"防災":18551,"的方向":18552,"繼承":18553,"流血":18554,"千萬別":18555,"抑制":18556,"休息室":18557,"藉著":18558,"道理":18559,"記者李玟儀":18560,"雷射":18561,"切除":18562,"聽過":18563,"分鐘的":18564,"白皙":18565,"石油":18566,"私底下":18567,"特別的是":18568,"觀測站":18569,"拓荒":18570,"網友的":18571,"停留":18572,"原定":18573,"反攻":18574,"站起來":18575,"網友紛紛":18576,"全被":18577,"製造業":18578,"塑膠袋":18579,"時至":18580,"紀錄片":18581,"總統候選人":18582,"曾表示":18583,"長度":18584,"製的":18585,"加快":18586,"原地":18587,"好多":18588,"還不錯":18589,"殘留":18590,"有異":18591,"加油站":18592,"開除":18593,"列出":18594,"亞洲盃":18595,"回想":18596,"男在":18597,"畫家":18598,"的健康":18599,"座椅":18600,"穩健":18601,"揭曉":18602,"犧牲打":18603,"寶可夢":18604,"傳來":18605,"教堂":18606,"旅外":18607,"讓對方":18608,"年至":18609,"有價":18610,"但後來":18611,"大開":18612,"元大":18613,"運氣":18614,"吃到飽":18615,"味的":18616,"士氣":18617,"性質":18618,"載著":18619,"太陽花":18620,"新光":18621,"偵測":18622,"的立場":18623,"軍公教":18624,"韓劇":18625,"身心障礙":18626,"才不會":18627,"新臺":18628,"漲價":18629,"整體運勢":18630,"下了":18631,"的事件":18632,"選拔":18633,"報紙":18634,"就對":18635,"日被":18636,"的女生":18637,"秘訣":18638,"重創":18639,"心碎":18640,"該片":18641,"仲裁":18642,"大片":18643,"武裝":18644,"保住":18645,"!」「":18646,"也想":18647,"入學":18648,"制定":18649,"最初":18650,"變態":18651,"車牌":18652,"希望在":18653,"趴在":18654,"抬頭":18655,"兩度":18656,"才在":18657,"本月":18658,"回溫":18659,"率隊":18660,"臉蛋":18661,"開心的":18662,"的歷史":18663,"當時他":18664,"巫師":18665,"漁港":18666,"翻轉":18667,"台指期":18668,"發光":18669,"的價格":18670,"思維":18671,"日式":18672,"調皮":18673,"同為":18674,"解約":18675,"防範":18676,"矚目的":18677,"不著":18678,"毛小孩":18679,"引退":18680,"戰隊":18681,"規畫":18682,"一國":18683,"發病":18684,"魔法":18685,"功力":18686,"意志":18687,"超強":18688,"忠孝":18689,"正值":18690,"速球":18691,"保母":18692,"多年前":18693,"瓊斯盃":18694,"髒話":18695,"各隊":18696,"同台":18697,"救治":18698,"充足":18699,"和老公":18700,"憤而":18701,"不平":18702,"的味道":18703,"另外還有":18704,"日起至":18705,"的要求":18706,"週刊報導":18707,"拘留":18708,"精湛":18709,"伸展":18710,"如玉":18711,"拍攝的":18712,"視線":18713,"行道":18714,"放進":18715,"疑問":18716,"第七":18717,"依賴":18718,"因傷":18719,"點左右":18720,"來自於":18721,"副局長":18722,"沒錢":18723,"眼眶":18724,"自治":18725,"轉頭":18726,"奢華":18727,"不服":18728,"下跪":18729,"合適":18730,"名牌":18731,"還把":18732,"憂心":18733,"陽台":18734,"玩樂":18735,"的互動":18736,"酒測值":18737,"並請":18738,"主控":18739,"從去年":18740,"行使":18741,"對本公司":18742,"減弱":18743,"應是":18744,"防空":18745,"首日":18746,"釀酒":18747,"今夏":18748,"探討":18749,"為避免":18750,"身體健康":18751,"哭笑":18752,"年半":18753,"年與":18754,"推估":18755,"公司債":18756,"先在":18757,"吃下":18758,"四個":18759,"總決賽":18760,"擊退":18761,"管線":18762,"交接":18763,"接駁":18764,"上一次":18765,
[...]
